{
  "version": "1.0",
  "truncation": null,
  "padding": null,
  "added_tokens": [
    {
      "id": 0,
      "content": "[UNK]",
      "single_word": false,
      "lstrip": false,
      "rstrip": false,
      "normalized": false,
      "special": true
    },
    {
      "id": 1,
      "content": "[PAD]",
      "single_word": false,
      "lstrip": false,
      "rstrip": false,
      "normalized": false,
      "special": true
    },
    {
      "id": 2,
      "content": "[BOS]",
      "single_word": false,
      "lstrip": false,
      "rstrip": false,
      "normalized": false,
      "special": true
    },
    {
      "id": 3,
      "content": "[EOS]",
      "single_word": false,
      "lstrip": false,
      "rstrip": false,
      "normalized": false,
      "special": true
    }
  ],
  "normalizer": null,
  "pre_tokenizer": {
    "type": "Whitespace"
  },
  "post_processor": null,
  "decoder": null,
  "model": {
    "type": "BPE",
    "dropout": null,
    "unk_token": "[UNK]",
    "continuing_subword_prefix": null,
    "end_of_word_suffix": null,
    "fuse_unk": false,
    "byte_fallback": false,
    "ignore_merges": false,
    "vocab": {
      "[UNK]": 0,
      "[PAD]": 1,
      "[BOS]": 2,
      "[EOS]": 3,
      "!": 4,
      "\"": 5,
      "#": 6,
      "$": 7,
      "%": 8,
      "&": 9,
      "'": 10,
      "(": 11,
      ")": 12,
      "*": 13,
      "+": 14,
      ",": 15,
      "-": 16,
      ".": 17,
      "/": 18,
      "0": 19,
      "1": 20,
      "2": 21,
      "3": 22,
      "4": 23,
      "5": 24,
      "6": 25,
      "7": 26,
      "8": 27,
      "9": 28,
      ":": 29,
      ";": 30,
      "<": 31,
      "=": 32,
      ">": 33,
      "?": 34,
      "@": 35,
      "A": 36,
      "B": 37,
      "C": 38,
      "D": 39,
      "E": 40,
      "F": 41,
      "G": 42,
      "H": 43,
      "I": 44,
      "J": 45,
      "K": 46,
      "L": 47,
      "M": 48,
      "N": 49,
      "O": 50,
      "P": 51,
      "Q": 52,
      "R": 53,
      "S": 54,
      "T": 55,
      "U": 56,
      "V": 57,
      "W": 58,
      "X": 59,
      "Y": 60,
      "Z": 61,
      "[": 62,
      "\\": 63,
      "]": 64,
      "_": 65,
      "`": 66,
      "a": 67,
      "b": 68,
      "c": 69,
      "d": 70,
      "e": 71,
      "f": 72,
      "g": 73,
      "h": 74,
      "i": 75,
      "j": 76,
      "k": 77,
      "l": 78,
      "m": 79,
      "n": 80,
      "o": 81,
      "p": 82,
      "q": 83,
      "r": 84,
      "s": 85,
      "t": 86,
      "u": 87,
      "v": 88,
      "w": 89,
      "x": 90,
      "y": 91,
      "z": 92,
      "{": 93,
      "|": 94,
      "}": 95,
      "~": 96,
      "": 97,
      "¡": 98,
      "£": 99,
      "§": 100,
      "¨": 101,
      "©": 102,
      "ª": 103,
      "«": 104,
      "¬": 105,
      "­": 106,
      "®": 107,
      "°": 108,
      "±": 109,
      "²": 110,
      "³": 111,
      "´": 112,
      "µ": 113,
      "·": 114,
      "¸": 115,
      "¹": 116,
      "º": 117,
      "»": 118,
      "¼": 119,
      "½": 120,
      "¾": 121,
      "¿": 122,
      "À": 123,
      "Á": 124,
      "Â": 125,
      "Ã": 126,
      "Ä": 127,
      "Å": 128,
      "Æ": 129,
      "Ç": 130,
      "È": 131,
      "É": 132,
      "Ê": 133,
      "Ë": 134,
      "Ì": 135,
      "Í": 136,
      "Î": 137,
      "Ï": 138,
      "Ð": 139,
      "Ñ": 140,
      "Ò": 141,
      "Ó": 142,
      "Ô": 143,
      "Õ": 144,
      "Ö": 145,
      "×": 146,
      "Ø": 147,
      "Ù": 148,
      "Ú": 149,
      "Û": 150,
      "Ü": 151,
      "Ý": 152,
      "ß": 153,
      "à": 154,
      "á": 155,
      "â": 156,
      "ã": 157,
      "ä": 158,
      "å": 159,
      "æ": 160,
      "ç": 161,
      "è": 162,
      "é": 163,
      "ê": 164,
      "ë": 165,
      "ì": 166,
      "í": 167,
      "î": 168,
      "ï": 169,
      "ð": 170,
      "ñ": 171,
      "ò": 172,
      "ó": 173,
      "ô": 174,
      "õ": 175,
      "ö": 176,
      "÷": 177,
      "ø": 178,
      "ù": 179,
      "ú": 180,
      "û": 181,
      "ü": 182,
      "ý": 183,
      "ÿ": 184,
      "Ā": 185,
      "ā": 186,
      "Ă": 187,
      "ă": 188,
      "Ą": 189,
      "ą": 190,
      "Ć": 191,
      "ć": 192,
      "Ċ": 193,
      "ċ": 194,
      "Č": 195,
      "č": 196,
      "Ď": 197,
      "ď": 198,
      "Đ": 199,
      "đ": 200,
      "Ē": 201,
      "ē": 202,
      "Ĕ": 203,
      "ĕ": 204,
      "Ė": 205,
      "ė": 206,
      "Ę": 207,
      "ę": 208,
      "Ě": 209,
      "ě": 210,
      "Ğ": 211,
      "ğ": 212,
      "Ġ": 213,
      "ġ": 214,
      "Ģ": 215,
      "ģ": 216,
      "Ħ": 217,
      "ħ": 218,
      "Ī": 219,
      "ī": 220,
      "Ĭ": 221,
      "Į": 222,
      "į": 223,
      "İ": 224,
      "ı": 225,
      "Ķ": 226,
      "ķ": 227,
      "ļ": 228,
      "Ľ": 229,
      "ľ": 230,
      "Ł": 231,
      "ł": 232,
      "Ń": 233,
      "ń": 234,
      "Ņ": 235,
      "ņ": 236,
      "Ň": 237,
      "ň": 238,
      "Ő": 239,
      "ő": 240,
      "œ": 241,
      "Ř": 242,
      "ř": 243,
      "Ś": 244,
      "ś": 245,
      "Ŝ": 246,
      "Ş": 247,
      "ş": 248,
      "Š": 249,
      "š": 250,
      "Ţ": 251,
      "ţ": 252,
      "Ť": 253,
      "ť": 254,
      "ũ": 255,
      "Ū": 256,
      "ū": 257,
      "ŭ": 258,
      "Ů": 259,
      "ů": 260,
      "Ű": 261,
      "ű": 262,
      "ų": 263,
      "Ÿ": 264,
      "ź": 265,
      "Ż": 266,
      "ż": 267,
      "Ž": 268,
      "ž": 269,
      "ƒ": 270,
      "Ơ": 271,
      "ǎ": 272,
      "ǔ": 273,
      "Ǻ": 274,
      "ǻ": 275,
      "Ș": 276,
      "ș": 277,
      "Ț": 278,
      "ț": 279,
      "˙": 280,
      "˚": 281,
      "˝": 282,
      "̀": 283,
      "́": 284,
      ";": 285,
      "΄": 286,
      "Ά": 287,
      "Έ": 288,
      "Ί": 289,
      "Ό": 290,
      "Ύ": 291,
      "ΐ": 292,
      "Α": 293,
      "Β": 294,
      "Γ": 295,
      "Δ": 296,
      "Ε": 297,
      "Ζ": 298,
      "Η": 299,
      "Θ": 300,
      "Ι": 301,
      "Κ": 302,
      "Λ": 303,
      "Μ": 304,
      "Ν": 305,
      "Ξ": 306,
      "Ο": 307,
      "Π": 308,
      "Ρ": 309,
      "Σ": 310,
      "Τ": 311,
      "Υ": 312,
      "Φ": 313,
      "Χ": 314,
      "Ψ": 315,
      "Ω": 316,
      "ά": 317,
      "έ": 318,
      "ή": 319,
      "ί": 320,
      "ΰ": 321,
      "α": 322,
      "β": 323,
      "γ": 324,
      "δ": 325,
      "ε": 326,
      "ζ": 327,
      "η": 328,
      "θ": 329,
      "ι": 330,
      "κ": 331,
      "λ": 332,
      "μ": 333,
      "ν": 334,
      "ξ": 335,
      "ο": 336,
      "π": 337,
      "ρ": 338,
      "ς": 339,
      "σ": 340,
      "τ": 341,
      "υ": 342,
      "φ": 343,
      "χ": 344,
      "ψ": 345,
      "ω": 346,
      "ϊ": 347,
      "ϋ": 348,
      "ό": 349,
      "ύ": 350,
      "ώ": 351,
      "Ё": 352,
      "І": 353,
      "А": 354,
      "Б": 355,
      "В": 356,
      "Г": 357,
      "Д": 358,
      "Е": 359,
      "Ж": 360,
      "З": 361,
      "И": 362,
      "Й": 363,
      "К": 364,
      "Л": 365,
      "М": 366,
      "Н": 367,
      "О": 368,
      "П": 369,
      "Р": 370,
      "С": 371,
      "Т": 372,
      "У": 373,
      "Ф": 374,
      "Х": 375,
      "Ч": 376,
      "Ш": 377,
      "Щ": 378,
      "Ю": 379,
      "Я": 380,
      "а": 381,
      "б": 382,
      "в": 383,
      "г": 384,
      "д": 385,
      "е": 386,
      "ж": 387,
      "з": 388,
      "и": 389,
      "й": 390,
      "к": 391,
      "л": 392,
      "м": 393,
      "н": 394,
      "о": 395,
      "п": 396,
      "р": 397,
      "с": 398,
      "т": 399,
      "у": 400,
      "ф": 401,
      "х": 402,
      "ц": 403,
      "ч": 404,
      "ш": 405,
      "щ": 406,
      "ъ": 407,
      "ю": 408,
      "я": 409,
      "Ա": 410,
      "կ": 411,
      "ս": 412,
      "օ": 413,
      "ả": 414,
      "ặ": 415,
      "Ế": 416,
      "ế": 417,
      "ộ": 418,
      "​": 419,
      "‏": 420,
      "‐": 421,
      "‑": 422,
      "–": 423,
      "—": 424,
      "―": 425,
      "‘": 426,
      "’": 427,
      "‚": 428,
      "“": 429,
      "”": 430,
      "„": 431,
      "•": 432,
      "…": 433,
      "‰": 434,
      "′": 435,
      "″": 436,
      "€": 437,
      "→": 438,
      "⇒": 439,
      "∑": 440,
      "−": 441,
      "∕": 442,
      "∗": 443,
      "∘": 444,
      "∙": 445,
      "√": 446,
      "≠": 447,
      "≡": 448,
      "≤": 449,
      "≥": 450,
      "─": 451,
      "║": 452,
      "█": 453,
      "▌": 454,
      "▐": 455,
      "■": 456,
      "□": 457,
      "▪": 458,
      "►": 459,
      "◄": 460,
      "◉": 461,
      "●": 462,
      "◙": 463,
      "◦": 464,
      "♥": 465,
      "♦": 466,
      "": 467,
      "": 468,
      "": 469,
      "": 470,
      "": 471,
      "": 472,
      "": 473,
      "": 474,
      "": 475,
      "": 476,
      "": 477,
      "": 478,
      "": 479,
      "ﬂ": 480,
      "th": 481,
      "on": 482,
      "in": 483,
      "the": 484,
      "an": 485,
      "re": 486,
      "ti": 487,
      "en": 488,
      "er": 489,
      "or": 490,
      "of": 491,
      "al": 492,
      "es": 493,
      "is": 494,
      "tion": 495,
      "ar": 496,
      "to": 497,
      "ro": 498,
      "at": 499,
      "and": 500,
      "ed": 501,
      "ing": 502,
      "ent": 503,
      "it": 504,
      "om": 505,
      "as": 506,
      "le": 507,
      "ic": 508,
      "ation": 509,
      "ou": 510,
      "ec": 511,
      "si": 512,
      "ment": 513,
      "for": 514,
      "pro": 515,
      "st": 516,
      "ve": 517,
      "ac": 518,
      "il": 519,
      "omm": 520,
      "be": 521,
      "su": 522,
      "he": 523,
      "00": 524,
      "de": 525,
      "Comm": 526,
      "po": 527,
      "con": 528,
      "li": 529,
      "ra": 530,
      "un": 531,
      "pe": 532,
      "res": 533,
      "sion": 534,
      "all": 535,
      "ul": 536,
      "ce": 537,
      "em": 538,
      "ri": 539,
      "se": 540,
      "te": 541,
      "ts": 542,
      "200": 543,
      "that": 544,
      "by": 545,
      "ter": 546,
      "op": 547,
      "tic": 548,
      "ission": 549,
      "ber": 550,
      "wi": 551,
      "oun": 552,
      "ur": 553,
      "sh": 554,
      "ity": 555,
      "ate": 556,
      "me": 557,
      "ol": 558,
      "uro": 559,
      "with": 560,
      "ad": 561,
      "..": 562,
      "ag": 563,
      "ir": 564,
      "Commission": 565,
      "ch": 566,
      "Euro": 567,
      "ab": 568,
      "ly": 569,
      "Europe": 570,
      "ion": 571,
      "im": 572,
      "por": 573,
      "ex": 574,
      "wh": 575,
      "are": 576,
      "European": 577,
      "ci": 578,
      "The": 579,
      "par": 580,
      "der": 581,
      "no": 582,
      "di": 583,
      "et": 584,
      "ember": 585,
      "ap": 586,
      "tive": 587,
      "ver": 588,
      "gh": 589,
      "reg": 590,
      "pl": 591,
      "ld": 592,
      "end": 593,
      "vi": 594,
      "qu": 595,
      "ma": 596,
      "ta": 597,
      "ard": 598,
      "com": 599,
      "port": 600,
      "ne": 601,
      "St": 602,
      "ha": 603,
      "us": 604,
      "rec": 605,
      "ess": 606,
      "ow": 607,
      "du": 608,
      "mo": 609,
      "ect": 610,
      "pos": 611,
      "am": 612,
      "ament": 613,
      "ure": 614,
      "tr": 615,
      "ff": 616,
      "ich": 617,
      "Member": 618,
      "Par": 619,
      "so": 620,
      "ud": 621,
      "EU": 622,
      "ould": 623,
      "01": 624,
      "liament": 625,
      "ther": 626,
      "ounc": 627,
      "ates": 628,
      "ary": 629,
      "which": 630,
      "its": 631,
      "Ar": 632,
      "we": 633,
      "ay": 634,
      "ouncil": 635,
      "Council": 636,
      "ers": 637,
      "man": 638,
      "Parliament": 639,
      "ations": 640,
      "ties": 641,
      "cl": 642,
      "not": 643,
      "....": 644,
      "Artic": 645,
      "In": 646,
      "co": 647,
      "ted": 648,
      "lic": 649,
      "ans": 650,
      "this": 651,
      "ments": 652,
      "tions": 653,
      "shall": 654,
      "ub": 655,
      "Article": 656,
      "id": 657,
      "ance": 658,
      "vel": 659,
      "up": 660,
      "form": 661,
      "ge": 662,
      "ke": 663,
      "Re": 664,
      "la": 665,
      "wor": 666,
      "our": 667,
      "comm": 668,
      "ced": 669,
      "ill": 670,
      "rom": 671,
      "tee": 672,
      "fin": 673,
      "ut": 674,
      "acc": 675,
      "here": 676,
      "from": 677,
      "States": 678,
      "est": 679,
      "str": 680,
      "ision": 681,
      "red": 682,
      "ish": 683,
      "od": 684,
      "ist": 685,
      "ant": 686,
      "ving": 687,
      "ational": 688,
      "ren": 689,
      "au": 690,
      "ittee": 691,
      "pr": 692,
      "fic": 693,
      "201": 694,
      "out": 695,
      "cial": 696,
      "leg": 697,
      "able": 698,
      "int": 699,
      "regard": 700,
      "has": 701,
      "per": 702,
      "ple": 703,
      "should": 704,
      "EC": 705,
      "work": 706,
      "propos": 707,
      "ven": 708,
      "ree": 709,
      "min": 710,
      "duc": 711,
      "where": 712,
      "ated": 713,
      "//": 714,
      "ES": 715,
      "have": 716,
      "ear": 717,
      "EN": 718,
      "sp": 719,
      "tern": 720,
      "ob": 721,
      "go": 722,
      "ount": 723,
      "act": 724,
      "ble": 725,
      "fo": 726,
      "Un": 727,
      "ution": 728,
      "um": 729,
      "cer": 730,
      "pres": 731,
      "will": 732,
      "ulation": 733,
      "ures": 734,
      "gn": 735,
      "ves": 736,
      "dis": 737,
      "sub": 738,
      "Pro": 739,
      "under": 740,
      "und": 741,
      "velop": 742,
      "igh": 743,
      "thor": 744,
      "Committee": 745,
      "ities": 746,
      "ph": 747,
      "ll": 748,
      "their": 749,
      "ser": 750,
      "ies": 751,
      "pre": 752,
      "age": 753,
      "oc": 754,
      "gen": 755,
      "sa": 756,
      "ord": 757,
      "resp": 758,
      "new": 759,
      "EP": 760,
      "dec": 761,
      "ach": 762,
      "mar": 763,
      "other": 764,
      "ject": 765,
      "tit": 766,
      "oper": 767,
      "ia": 768,
      "vo": 769,
      "cont": 770,
      "Con": 771,
      "el": 772,
      "ain": 773,
      "uc": 774,
      "having": 775,
      "gu": 776,
      "),": 777,
      "reat": 778,
      "ces": 779,
      "pub": 780,
      "author": 781,
      "Mar": 782,
      "pri": 783,
      "rective": 784,
      "ip": 785,
      "unity": 786,
      "An": 787,
      "ON": 788,
      "gra": 789,
      "requ": 790,
      "ass": 791,
      "fe": 792,
      "cedure": 793,
      "fi": 794,
      "partic": 795,
      "........": 796,
      "tec": 797,
      "comp": 798,
      "TI": 799,
      "ting": 800,
      "bet": 801,
      "develop": 802,
      "ous": 803,
      "19": 804,
      "appro": 805,
      "gy": 806,
      "inform": 807,
      "ally": 808,
      "ten": 809,
      "low": 810,
      "righ": 811,
      "Union": 812,
      "any": 813,
      "econ": 814,
      "ine": 815,
      "trans": 816,
      "ular": 817,
      "air": 818,
      "Di": 819,
      "whereas": 820,
      "incl": 821,
      "vic": 822,
      "been": 823,
      "provi": 824,
      "was": 825,
      "No": 826,
      "tra": 827,
      "sid": 828,
      "Reg": 829,
      "finan": 830,
      "ust": 831,
      "plement": 832,
      "sup": 833,
      "meas": 834,
      "ries": 835,
      "king": 836,
      "proposal": 837,
      "order": 838,
      "such": 839,
      "produc": 840,
      "ence": 841,
      "abl": 842,
      "ility": 843,
      "eci": 844,
      "gi": 845,
      "public": 846,
      "stit": 847,
      "there": 848,
      "ew": 849,
      "adop": 850,
      "over": 851,
      "Th": 852,
      "cy": 853,
      "cern": 854,
      "one": 855,
      "part": 856,
      "polic": 857,
      "concern": 858,
      "bas": 859,
      "report": 860,
      "10": 861,
      "Community": 862,
      "amend": 863,
      "cas": 864,
      "also": 865,
      "agra": 866,
      "ules": 867,
      "gr": 868,
      "agraph": 869,
      "ose": 870,
      "ensu": 871,
      "cre": 872,
      "ween": 873,
      "resid": 874,
      "get": 875,
      "between": 876,
      "do": 877,
      "rel": 878,
      "count": 879,
      "gram": 880,
      "tain": 881,
      "paragraph": 882,
      "measures": 883,
      "lec": 884,
      "ors": 885,
      "countries": 886,
      "ann": 887,
      "sy": 888,
      "ating": 889,
      "IT": 890,
      "uman": 891,
      "TION": 892,
      "eff": 893,
      "fer": 894,
      "particular": 895,
      "more": 896,
      "ris": 897,
      "fore": 898,
      "year": 899,
      "sible": 900,
      "present": 901,
      "ule": 902,
      "implement": 903,
      "alls": 904,
      "may": 905,
      "ms": 906,
      "information": 907,
      "os": 908,
      "mark": 909,
      "stem": 910,
      "11": 911,
      "view": 912,
      "val": 913,
      "vision": 914,
      "national": 915,
      "enti": 916,
      "financial": 917,
      "use": 918,
      "mon": 919,
      "sul": 920,
      "Directive": 921,
      "roup": 922,
      "mit": 923,
      "ollow": 924,
      "Sub": 925,
      "ory": 926,
      "Presid": 927,
      "omic": 928,
      "into": 929,
      "plic": 930,
      "rights": 931,
      "pur": 932,
      "respon": 933,
      "intern": 934,
      "2010": 935,
      "ress": 936,
      "need": 937,
      "2005": 938,
      "can": 939,
      "speci": 940,
      "ural": 941,
      "resol": 942,
      "ult": 943,
      "rit": 944,
      "ical": 945,
      "ong": 946,
      "ace": 947,
      "includ": 948,
      "Regulation": 949,
      "system": 950,
      "procedure": 951,
      "dra": 952,
      "ep": 953,
      "own": 954,
      "ved": 955,
      "decision": 956,
      "ks": 957,
      "It": 958,
      "bud": 959,
      "follow": 960,
      "eral": 961,
      "program": 962,
      "ablish": 963,
      "CO": 964,
      "2008": 965,
      "ast": 966,
      "jec": 967,
      "2007": 968,
      "va": 969,
      "2006": 970,
      "med": 971,
      "establish": 972,
      "20": 973,
      "Ch": 974,
      "bo": 975,
      "legis": 976,
      "Rule": 977,
      "servic": 978,
      "sec": 979,
      "fund": 980,
      "posi": 981,
      "accord": 982,
      "requi": 983,
      "ful": 984,
      "agree": 985,
      "ensure": 986,
      "Dec": 987,
      "take": 988,
      "anis": 989,
      "State": 990,
      "ding": 991,
      "nec": 992,
      "Subject": 993,
      "vir": 994,
      "if": 995,
      "human": 996,
      "PR": 997,
      "sit": 998,
      "operation": 999,
      "inte": 1000,
      "tical": 1001,
      "fir": 1002,
      "inv": 1003,
      "market": 1004,
      "read": 1005,
      "plo": 1006,
      "De": 1007,
      "PE": 1008,
      "ext": 1009,
      "ran": 1010,
      "iti": 1011,
      "2011": 1012,
      "ual": 1013,
      "law": 1014,
      "would": 1015,
      "set": 1016,
      "ges": 1017,
      "President": 1018,
      "compe": 1019,
      "consi": 1020,
      "ial": 1021,
      "onment": 1022,
      "alth": 1023,
      "ise": 1024,
      "cri": 1025,
      "must": 1026,
      "acti": 1027,
      "12": 1028,
      "des": 1029,
      "ome": 1030,
      "AL": 1031,
      "tives": 1032,
      "ty": 1033,
      "applic": 1034,
      "org": 1035,
      "ens": 1036,
      "vironment": 1037,
      "Am": 1038,
      "development": 1039,
      "ner": 1040,
      "TE": 1041,
      "these": 1042,
      "pers": 1043,
      "tection": 1044,
      "2009": 1045,
      "level": 1046,
      "qual": 1047,
      "estion": 1048,
      "15": 1049,
      "they": 1050,
      "support": 1051,
      "reaty": 1052,
      "policy": 1053,
      "hn": 1054,
      "budget": 1055,
      "cess": 1056,
      "lin": 1057,
      "authorities": 1058,
      "chan": 1059,
      "sum": 1060,
      "provision": 1061,
      "app": 1062,
      "rent": 1063,
      "within": 1064,
      "ign": 1065,
      "resolution": 1066,
      "Treaty": 1067,
      "ari": 1068,
      "ffic": 1069,
      "ded": 1070,
      "ack": 1071,
      "legal": 1072,
      "region": 1073,
      "ety": 1074,
      "ward": 1075,
      "II": 1076,
      "economic": 1077,
      "adopted": 1078,
      "position": 1079,
      "vis": 1080,
      "af": 1081,
      "including": 1082,
      "car": 1083,
      "ative": 1084,
      "tak": 1085,
      "ef": 1086,
      "again": 1087,
      "but": 1088,
      "those": 1089,
      "instit": 1090,
      "lo": 1091,
      "utions": 1092,
      "2004": 1093,
      "time": 1094,
      "import": 1095,
      "ploy": 1096,
      "ru": 1097,
      "Wh": 1098,
      "peri": 1099,
      "cur": 1100,
      "ship": 1101,
      "following": 1102,
      "30": 1103,
      "proposed": 1104,
      "ugh": 1105,
      "ever": 1106,
      "urity": 1107,
      "made": 1108,
      "who": 1109,
      "This": 1110,
      "necess": 1111,
      "les": 1112,
      "day": 1113,
      "rest": 1114,
      "struc": 1115,
      "tes": 1116,
      "stand": 1117,
      "hal": 1118,
      "uation": 1119,
      "than": 1120,
      "2003": 1121,
      "appropri": 1122,
      "ie": 1123,
      "person": 1124,
      "tex": 1125,
      "point": 1126,
      "ML": 1127,
      "only": 1128,
      "OC": 1129,
      "mes": 1130,
      "gover": 1131,
      "ised": 1132,
      "govern": 1133,
      "mil": 1134,
      ").": 1135,
      "protection": 1136,
      "XML": 1137,
      "main": 1138,
      "**": 1139,
      "V0": 1140,
      "-//": 1141,
      "ft": 1142,
      "rame": 1143,
      "ession": 1144,
      "coun": 1145,
      "13": 1146,
      "issu": 1147,
      "inter": 1148,
      "QU": 1149,
      "international": 1150,
      "Amend": 1151,
      "199": 1152,
      "effec": 1153,
      "vote": 1154,
      "2002": 1155,
      "ority": 1156,
      "As": 1157,
      "accordance": 1158,
      "sel": 1159,
      "consider": 1160,
      "environment": 1161,
      "action": 1162,
      "creas": 1163,
      "DE": 1164,
      "ue": 1165,
      "................": 1166,
      "lar": 1167,
      "meet": 1168,
      "fied": 1169,
      "IN": 1170,
      "wer": 1171,
      "QUES": 1172,
      "necessary": 1173,
      "QUESTION": 1174,
      "half": 1175,
      "rough": 1176,
      "increas": 1177,
      "services": 1178,
      "way": 1179,
      "lear": 1180,
      "try": 1181,
      "16": 1182,
      "maj": 1183,
      "against": 1184,
      "refer": 1185,
      "ramework": 1186,
      "ital": 1187,
      "inci": 1188,
      "social": 1189,
      "pend": 1190,
      "ind": 1191,
      "common": 1192,
      "poli": 1193,
      "fact": 1194,
      "Ann": 1195,
      "rules": 1196,
      "high": 1197,
      "techn": 1198,
      "bility": 1199,
      "first": 1200,
      "ater": 1201,
      "18": 1202,
      "used": 1203,
      "isation": 1204,
      "state": 1205,
      "implementation": 1206,
      "taken": 1207,
      "elec": 1208,
      "airs": 1209,
      "ability": 1210,
      "organis": 1211,
      "IM": 1212,
      "health": 1213,
      "regulation": 1214,
      "feren": 1215,
      "14": 1216,
      "unic": 1217,
      "olo": 1218,
      "condi": 1219,
      "aff": 1220,
      "specific": 1221,
      "COM": 1222,
      "02": 1223,
      "DOC": 1224,
      "ener": 1225,
      "committee": 1226,
      "ric": 1227,
      "09": 1228,
      "Group": 1229,
      "TEN": 1230,
      "rect": 1231,
      "num": 1232,
      "soci": 1233,
      "AN": 1234,
      "17": 1235,
      "does": 1236,
      "pursu": 1237,
      "products": 1238,
      "behalf": 1239,
      "ata": 1240,
      "sect": 1241,
      "urther": 1242,
      "sign": 1243,
      "now": 1244,
      "text": 1245,
      "process": 1246,
      "require": 1247,
      "ird": 1248,
      "were": 1249,
      "basis": 1250,
      "political": 1251,
      "account": 1252,
      "down": 1253,
      "bi": 1254,
      "inion": 1255,
      "vent": 1256,
      "ings": 1257,
      "Qu": 1258,
      "ople": 1259,
      "ports": 1260,
      "Ac": 1261,
      "respect": 1262,
      "earch": 1263,
      "employ": 1264,
      "energy": 1265,
      "ak": 1266,
      "tional": 1267,
      "gro": 1268,
      "cooperation": 1269,
      "princi": 1270,
      "cor": 1271,
      "referred": 1272,
      "ide": 1273,
      "aim": 1274,
      "Rules": 1275,
      "ute": 1276,
      "promo": 1277,
      "provisions": 1278,
      "agreement": 1279,
      "RIT": 1280,
      "ESS": 1281,
      "cus": 1282,
      "cep": 1283,
      "25": 1284,
      "omen": 1285,
      "deb": 1286,
      "rele": 1287,
      "rib": 1288,
      "Amendment": 1289,
      "ian": 1290,
      "OR": 1291,
      "resul": 1292,
      "reed": 1293,
      "objec": 1294,
      "agement": 1295,
      "Aff": 1296,
      "TA": 1297,
      "possible": 1298,
      "appropriate": 1299,
      "WRIT": 1300,
      "WRITTEN": 1301,
      "opinion": 1302,
      "through": 1303,
      "period": 1304,
      "Affairs": 1305,
      "number": 1306,
      "access": 1307,
      "them": 1308,
      "Is": 1309,
      "col": 1310,
      "impro": 1311,
      "lation": 1312,
      "Co": 1313,
      "ring": 1314,
      "programme": 1315,
      "hol": 1316,
      "vention": 1317,
      "PRESS": 1318,
      "being": 1319,
      "000": 1320,
      "tw": 1321,
      "Procedure": 1322,
      "Calls": 1323,
      "che": 1324,
      "vant": 1325,
      "well": 1326,
      "country": 1327,
      "commit": 1328,
      "had": 1329,
      "lative": 1330,
      "posal": 1331,
      "2001": 1332,
      "people": 1333,
      "fication": 1334,
      "security": 1335,
      "after": 1336,
      "aid": 1337,
      "rol": 1338,
      "make": 1339,
      "provide": 1340,
      "land": 1341,
      "member": 1342,
      "Jan": 1343,
      "initi": 1344,
      "third": 1345,
      "years": 1346,
      "data": 1347,
      "force": 1348,
      "Ag": 1349,
      "char": 1350,
      "taking": 1351,
      "He": 1352,
      "line": 1353,
      "entr": 1354,
      "concerned": 1355,
      "EUR": 1356,
      "led": 1357,
      "usti": 1358,
      "conditions": 1359,
      "ice": 1360,
      "case": 1361,
      "current": 1362,
      "ency": 1363,
      "clu": 1364,
      "stan": 1365,
      "when": 1366,
      "MEP": 1367,
      "imp": 1368,
      "provided": 1369,
      "ference": 1370,
      "tis": 1371,
      "consum": 1372,
      "directive": 1373,
      "framework": 1374,
      "als": 1375,
      "pursuant": 1376,
      "Annex": 1377,
      "December": 1378,
      "pay": 1379,
      "ters": 1380,
      "calls": 1381,
      "vities": 1382,
      "Sec": 1383,
      "ild": 1384,
      "assess": 1385,
      "ards": 1386,
      "change": 1387,
      "Rec": 1388,
      "une": 1389,
      "Question": 1390,
      "further": 1391,
      "uring": 1392,
      "concerning": 1393,
      "AR": 1394,
      "TEX": 1395,
      "non": 1396,
      "03": 1397,
      "fish": 1398,
      "ort": 1399,
      "place": 1400,
      "final": 1401,
      "vail": 1402,
      "what": 1403,
      "inf": 1404,
      "given": 1405,
      "TEXT": 1406,
      "legislation": 1407,
      "UN": 1408,
      "strate": 1409,
      "reading": 1410,
      "fa": 1411,
      "responsible": 1412,
      "tiz": 1413,
      "how": 1414,
      "activities": 1415,
      "situation": 1416,
      "two": 1417,
      "Proposal": 1418,
      "management": 1419,
      "citiz": 1420,
      "offic": 1421,
      "loc": 1422,
      "mber": 1423,
      "group": 1424,
      "fac": 1425,
      "general": 1426,
      "legislative": 1427,
      "ited": 1428,
      "sector": 1429,
      "contin": 1430,
      "vil": 1431,
      "uments": 1432,
      "pare": 1433,
      "quality": 1434,
      "Intern": 1435,
      "most": 1436,
      "sur": 1437,
      "ents": 1438,
      "majority": 1439,
      "MEPs": 1440,
      "teur": 1441,
      "ourt": 1442,
      "interest": 1443,
      "What": 1444,
      "atory": 1445,
      "ommend": 1446,
      "gin": 1447,
      "porteur": 1448,
      "ori": 1449,
      "whe": 1450,
      "avail": 1451,
      "aw": 1452,
      "ants": 1453,
      "Le": 1454,
      "ources": 1455,
      "draft": 1456,
      "food": 1457,
      "could": 1458,
      "04": 1459,
      "ros": 1460,
      "cost": 1461,
      "depend": 1462,
      "dies": 1463,
      "Res": 1464,
      "ligh": 1465,
      "June": 1466,
      "invol": 1467,
      "lion": 1468,
      "cap": 1469,
      "March": 1470,
      "based": 1471,
      "En": 1472,
      "represent": 1473,
      "22": 1474,
      "Report": 1475,
      "without": 1476,
      "crimin": 1477,
      "therefore": 1478,
      "means": 1479,
      "ders": 1480,
      "doc": 1481,
      "05": 1482,
      "long": 1483,
      "lan": 1484,
      "apply": 1485,
      "exist": 1486,
      "regul": 1487,
      "intend": 1488,
      "sive": 1489,
      "application": 1490,
      "gency": 1491,
      "May": 1492,
      "Ad": 1493,
      "contr": 1494,
      "oint": 1495,
      "How": 1496,
      "less": 1497,
      "oura": 1498,
      "Pol": 1499,
      "ban": 1500,
      "some": 1501,
      "call": 1502,
      "vers": 1503,
      "Members": 1504,
      "proced": 1505,
      "mi": 1506,
      "Oc": 1507,
      "Fund": 1508,
      "rap": 1509,
      "relevant": 1510,
      "allow": 1511,
      "arm": 1512,
      "demo": 1513,
      "areas": 1514,
      "effective": 1515,
      "mat": 1516,
      "fy": 1517,
      "ince": 1518,
      "whether": 1519,
      "uture": 1520,
      "ultural": 1521,
      "ight": 1522,
      "about": 1523,
      "trade": 1524,
      "ys": 1525,
      "econd": 1526,
      "diff": 1527,
      "each": 1528,
      "ound": 1529,
      "research": 1530,
      "goti": 1531,
      "area": 1532,
      "reas": 1533,
      "ger": 1534,
      "23": 1535,
      "EM": 1536,
      "lines": 1537,
      "lig": 1538,
      "draw": 1539,
      "ism": 1540,
      "bec": 1541,
      "27": 1542,
      "2000": 1543,
      "Ex": 1544,
      "right": 1545,
      "available": 1546,
      "institutions": 1547,
      "ights": 1548,
      "ore": 1549,
      "then": 1550,
      "transport": 1551,
      "vember": 1552,
      "subject": 1553,
      "November": 1554,
      "addi": 1555,
      "same": 1556,
      "ref": 1557,
      "assist": 1558,
      "defin": 1559,
      "Mr": 1560,
      "women": 1561,
      "Agree": 1562,
      "many": 1563,
      "negoti": 1564,
      "press": 1565,
      "debate": 1566,
      "achie": 1567,
      "Rights": 1568,
      "inclu": 1569,
      "competi": 1570,
      "ben": 1571,
      "future": 1572,
      "indu": 1573,
      "communic": 1574,
      "tober": 1575,
      "votes": 1576,
      "both": 1577,
      "October": 1578,
      "24": 1579,
      "conf": 1580,
      "citizens": 1581,
      "direct": 1582,
      "28": 1583,
      "ential": 1584,
      "PPE": 1585,
      "writ": 1586,
      "uly": 1587,
      "clusion": 1588,
      "clear": 1589,
      "Do": 1590,
      "ile": 1591,
      "eb": 1592,
      "exam": 1593,
      "integr": 1594,
      "men": 1595,
      "HE": 1596,
      "control": 1597,
      "jud": 1598,
      "itor": 1599,
      "procedures": 1600,
      "saf": 1601,
      "ected": 1602,
      "intro": 1603,
      "certain": 1604,
      "bil": 1605,
      "pose": 1606,
      "For": 1607,
      "ech": 1608,
      "safety": 1609,
      "Sep": 1610,
      "If": 1611,
      "Sp": 1612,
      "ret": 1613,
      "06": 1614,
      "road": 1615,
      "eld": 1616,
      "submit": 1617,
      "Court": 1618,
      "second": 1619,
      "ras": 1620,
      "consul": 1621,
      "Au": 1622,
      "ient": 1623,
      "proble": 1624,
      "answer": 1625,
      "programmes": 1626,
      "democ": 1627,
      "ordin": 1628,
      "forward": 1629,
      "acts": 1630,
      "diffe": 1631,
      "ogn": 1632,
      "So": 1633,
      "indic": 1634,
      "before": 1635,
      "Agreement": 1636,
      "requirements": 1637,
      "put": 1638,
      "tent": 1639,
      "US": 1640,
      "OL": 1641,
      "ina": 1642,
      "nat": 1643,
      "Text": 1644,
      "environmental": 1645,
      "Fin": 1646,
      "sk": 1647,
      "poin": 1648,
      "overn": 1649,
      "jects": 1650,
      "olog": 1651,
      "contrib": 1652,
      "Gen": 1653,
      "uary": 1654,
      "Govern": 1655,
      "tember": 1656,
      "Li": 1657,
      "rece": 1658,
      "January": 1659,
      "September": 1660,
      "29": 1661,
      "lead": 1662,
      "sibility": 1663,
      "question": 1664,
      "meeting": 1665,
      "Mon": 1666,
      "authority": 1667,
      "reedom": 1668,
      "role": 1669,
      "aran": 1670,
      "21": 1671,
      "Ro": 1672,
      "exp": 1673,
      "Al": 1674,
      "att": 1675,
      "ite": 1676,
      "IS": 1677,
      "child": 1678,
      "impact": 1679,
      "his": 1680,
      "recommend": 1681,
      "atives": 1682,
      "admin": 1683,
      "important": 1684,
      "good": 1685,
      "sti": 1686,
      "io": 1687,
      "lim": 1688,
      "Develop": 1689,
      "26": 1690,
      "border": 1691,
      "sol": 1692,
      "cases": 1693,
      "ument": 1694,
      "amendments": 1695,
      "acy": 1696,
      "competent": 1697,
      "stry": 1698,
      "field": 1699,
      "particip": 1700,
      "key": 1701,
      "Apr": 1702,
      "April": 1703,
      "ining": 1704,
      "ustice": 1705,
      "bu": 1706,
      "gl": 1707,
      "cing": 1708,
      "invest": 1709,
      "stain": 1710,
      "standards": 1711,
      "ese": 1712,
      "anim": 1713,
      "amending": 1714,
      "improve": 1715,
      "unities": 1716,
      "written": 1717,
      "risk": 1718,
      "policies": 1719,
      "ED": 1720,
      "paren": 1721,
      "ase": 1722,
      "ry": 1723,
      "employment": 1724,
      "etwork": 1725,
      "tial": 1726,
      "ross": 1727,
      "open": 1728,
      "recogn": 1729,
      "sustain": 1730,
      "Feb": 1731,
      "ulture": 1732,
      "Development": 1733,
      "tal": 1734,
      "ruary": 1735,
      "February": 1736,
      "cons": 1737,
      "term": 1738,
      "see": 1739,
      "ises": 1740,
      "lay": 1741,
      "actions": 1742,
      "cal": 1743,
      "million": 1744,
      "na": 1745,
      "July": 1746,
      "substan": 1747,
      "instr": 1748,
      "annual": 1749,
      "hel": 1750,
      "systems": 1751,
      "rate": 1752,
      "resources": 1753,
      "medi": 1754,
      "add": 1755,
      "supp": 1756,
      "institution": 1757,
      "On": 1758,
      "come": 1759,
      "carri": 1760,
      "struct": 1761,
      "regional": 1762,
      "viol": 1763,
      "reach": 1764,
      "comes": 1765,
      "Republic": 1766,
      "Af": 1767,
      "projects": 1768,
      "RI": 1769,
      "pa": 1770,
      "ready": 1771,
      "dist": 1772,
      "Decision": 1773,
      "plac": 1774,
      "ific": 1775,
      "oblig": 1776,
      "ho": 1777,
      "iness": 1778,
      "recei": 1779,
      "reason": 1780,
      "LE": 1781,
      "bus": 1782,
      "members": 1783,
      "recent": 1784,
      "gue": 1785,
      "Convention": 1786,
      "unc": 1787,
      "ators": 1788,
      "***": 1789,
      "abo": 1790,
      "til": 1791,
      "during": 1792,
      "ough": 1793,
      "Min": 1794,
      "funding": 1795,
      "amental": 1796,
      "tation": 1797,
      "mand": 1798,
      "bour": 1799,
      "ising": 1800,
      "production": 1801,
      "Tur": 1802,
      "limit": 1803,
      "equ": 1804,
      "Does": 1805,
      "08": 1806,
      "gress": 1807,
      "RES": 1808,
      "request": 1809,
      "07": 1810,
      "said": 1811,
      "plan": 1812,
      "imum": 1813,
      "ca": 1814,
      "AT": 1815,
      "educ": 1816,
      "mp": 1817,
      "ause": 1818,
      "ples": 1819,
      "ues": 1820,
      "government": 1821,
      "guaran": 1822,
      "objectives": 1823,
      "divi": 1824,
      "ily": 1825,
      "vation": 1826,
      "Sch": 1827,
      "ceed": 1828,
      "obal": 1829,
      "since": 1830,
      "parliament": 1831,
      "step": 1832,
      "Government": 1833,
      "bon": 1834,
      "monitor": 1835,
      "pen": 1836,
      "ages": 1837,
      "Rus": 1838,
      "coura": 1839,
      "large": 1840,
      "MEN": 1841,
      "date": 1842,
      "effic": 1843,
      "har": 1844,
      "ister": 1845,
      "effor": 1846,
      "stric": 1847,
      "world": 1848,
      "duce": 1849,
      "already": 1850,
      "Gre": 1851,
      "prof": 1852,
      "very": 1853,
      "NG": 1854,
      "existing": 1855,
      "increase": 1856,
      "sequ": 1857,
      "service": 1858,
      "grow": 1859,
      "sels": 1860,
      "relating": 1861,
      "civil": 1862,
      "OJ": 1863,
      "compan": 1864,
      "know": 1865,
      "Pe": 1866,
      "duced": 1867,
      "local": 1868,
      "Agency": 1869,
      "laid": 1870,
      "freedom": 1871,
      "Russi": 1872,
      "design": 1873,
      "cept": 1874,
      "ked": 1875,
      "ition": 1876,
      "rapporteur": 1877,
      "session": 1878,
      "least": 1879,
      "contain": 1880,
      "emp": 1881,
      "free": 1882,
      "include": 1883,
      "EEC": 1884,
      "ternal": 1885,
      "prevent": 1886,
      "ton": 1887,
      "network": 1888,
      "1999": 1889,
      "internal": 1890,
      "month": 1891,
      "full": 1892,
      "Bud": 1893,
      "migr": 1894,
      "Ger": 1895,
      "importance": 1896,
      "tax": 1897,
      "assistance": 1898,
      "lie": 1899,
      "organisations": 1900,
      "ects": 1901,
      "prot": 1902,
      "particularly": 1903,
      "ean": 1904,
      "conclusion": 1905,
      "funds": 1906,
      "proposals": 1907,
      "business": 1908,
      "uct": 1909,
      "vari": 1910,
      "ged": 1911,
      "117": 1912,
      "At": 1913,
      "persons": 1914,
      "deleg": 1915,
      "tim": 1916,
      "comple": 1917,
      "ious": 1918,
      "three": 1919,
      "proper": 1920,
      "ade": 1921,
      "termin": 1922,
      "Date": 1923,
      "established": 1924,
      "sure": 1925,
      "assessment": 1926,
      "0901": 1927,
      "United": 1928,
      "principle": 1929,
      "technical": 1930,
      "cris": 1931,
      "needs": 1932,
      "above": 1933,
      "facil": 1934,
      "uel": 1935,
      "mission": 1936,
      "comb": 1937,
      "range": 1938,
      "strategy": 1939,
      "ot": 1940,
      "agreements": 1941,
      "agric": 1942,
      "ST": 1943,
      "working": 1944,
      "electr": 1945,
      "Econ": 1946,
      "ness": 1947,
      "approach": 1948,
      "tar": 1949,
      "Or": 1950,
      "required": 1951,
      "reform": 1952,
      "address": 1953,
      "20050901": 1954,
      "vement": 1955,
      "31": 1956,
      "making": 1957,
      "progress": 1958,
      "reng": 1959,
      "alo": 1960,
      "duction": 1961,
      "Rom": 1962,
      "MENT": 1963,
      "dividu": 1964,
      "rative": 1965,
      "Se": 1966,
      "riter": 1967,
      "off": 1968,
      "aware": 1969,
      "Br": 1970,
      "benef": 1971,
      "ITEM": 1972,
      "pass": 1973,
      "ning": 1974,
      "tail": 1975,
      "ALDE": 1976,
      "different": 1977,
      "wel": 1978,
      "istrative": 1979,
      "light": 1980,
      "50": 1981,
      "regards": 1982,
      "ze": 1983,
      "Economic": 1984,
      "Articles": 1985,
      "origin": 1986,
      "IA": 1987,
      "individu": 1988,
      "training": 1989,
      "lish": 1990,
      "establishing": 1991,
      "negotiations": 1992,
      "active": 1993,
      "fully": 1994,
      "criter": 1995,
      "Gu": 1996,
      "special": 1997,
      "General": 1998,
      "ists": 1999,
      "encoura": 2000,
      "Bo": 2001,
      "publish": 2002,
      "coordin": 2003,
      "Bar": 2004,
      "identi": 2005,
      "sustainable": 2006,
      "great": 2007,
      "transparen": 2008,
      "udit": 2009,
      "................................": 2010,
      "principles": 2011,
      "euro": 2012,
      "eval": 2013,
      "mul": 2014,
      "ences": 2015,
      "water": 2016,
      "eries": 2017,
      "promote": 2018,
      "streng": 2019,
      "wards": 2020,
      "serious": 2021,
      "sing": 2022,
      "workers": 2023,
      "discrimin": 2024,
      "eng": 2025,
      "joint": 2026,
      "bodies": 2027,
      "related": 2028,
      "International": 2029,
      "Tra": 2030,
      "However": 2031,
      "developing": 2032,
      "issues": 2033,
      "constit": 2034,
      "issue": 2035,
      "help": 2036,
      "sto": 2037,
      "SE": 2038,
      "event": 2039,
      "crisis": 2040,
      ");": 2041,
      "remain": 2042,
      "review": 2043,
      "tig": 2044,
      "prac": 2045,
      "relations": 2046,
      "sta": 2047,
      "say": 2048,
      "nership": 2049,
      "care": 2050,
      "costs": 2051,
      "according": 2052,
      "treat": 2053,
      "Ver": 2054,
      "ka": 2055,
      "independ": 2056,
      "iter": 2057,
      "education": 2058,
      "entit": 2059,
      "terms": 2060,
      "uch": 2061,
      "play": 2062,
      "Social": 2063,
      "ror": 2064,
      "resses": 2065,
      "Can": 2066,
      "lied": 2067,
      "UTION": 2068,
      "Human": 2069,
      "implementing": 2070,
      "RA": 2071,
      "ime": 2072,
      "To": 2073,
      "Recital": 2074,
      "dered": 2075,
      "vious": 2076,
      "van": 2077,
      "carried": 2078,
      "tention": 2079,
      "territ": 2080,
      "cies": 2081,
      "Tr": 2082,
      "Wor": 2083,
      "ath": 2084,
      "regions": 2085,
      "uni": 2086,
      "ele": 2087,
      "ately": 2088,
      "charge": 2089,
      "Wi": 2090,
      "istr": 2091,
      "Ital": 2092,
      "hic": 2093,
      "criteria": 2094,
      "children": 2095,
      "den": 2096,
      "strengthen": 2097,
      "result": 2098,
      "signific": 2099,
      "just": 2100,
      "thod": 2101,
      "OLUTION": 2102,
      "RESOLUTION": 2103,
      "global": 2104,
      "Justice": 2105,
      "official": 2106,
      "Ne": 2107,
      "Jo": 2108,
      "due": 2109,
      "gets": 2110,
      "context": 2111,
      "inves": 2112,
      "icy": 2113,
      "limate": 2114,
      "documents": 2115,
      "while": 2116,
      "lab": 2117,
      "enh": 2118,
      "spec": 2119,
      "vered": 2120,
      "still": 2121,
      "efforts": 2122,
      "unction": 2123,
      "liance": 2124,
      "like": 2125,
      "emission": 2126,
      "ratic": 2127,
      "waste": 2128,
      "ques": 2129,
      "mer": 2130,
      "alogue": 2131,
      "vehic": 2132,
      "cho": 2133,
      "FOR": 2134,
      "43": 2135,
      "entral": 2136,
      "budgetary": 2137,
      "Po": 2138,
      "bal": 2139,
      "tees": 2140,
      "inst": 2141,
      "groups": 2142,
      "utes": 2143,
      "spe": 2144,
      "contract": 2145,
      "Med": 2146,
      "45": 2147,
      "ground": 2148,
      "side": 2149,
      "prior": 2150,
      "essential": 2151,
      "sen": 2152,
      "Policy": 2153,
      "enary": 2154,
      "towards": 2155,
      "parties": 2156,
      "relation": 2157,
      "cent": 2158,
      "ET": 2159,
      "buil": 2160,
      "administrative": 2161,
      "EPP": 2162,
      "held": 2163,
      "veness": 2164,
      "46": 2165,
      "noti": 2166,
      "MO": 2167,
      "method": 2168,
      "eas": 2169,
      "society": 2170,
      "investig": 2171,
      "determin": 2172,
      "amendment": 2173,
      "Man": 2174,
      "companies": 2175,
      "99": 2176,
      "ared": 2177,
      "Where": 2178,
      "adoption": 2179,
      "nor": 2180,
      "Finan": 2181,
      "AC": 2182,
      "among": 2183,
      "ging": 2184,
      "significant": 2185,
      "regarding": 2186,
      "stat": 2187,
      "industry": 2188,
      "A6": 2189,
      "gas": 2190,
      "Offic": 2191,
      "econom": 2192,
      "initiative": 2193,
      "BRI": 2194,
      "gal": 2195,
      "her": 2196,
      "ling": 2197,
      "communication": 2198,
      "restric": 2199,
      "PAR": 2200,
      "adopt": 2201,
      "esp": 2202,
      "pop": 2203,
      "cast": 2204,
      "dom": 2205,
      "product": 2206,
      "ga": 2207,
      "Bel": 2208,
      "vity": 2209,
      "self": 2210,
      "langu": 2211,
      "tics": 2212,
      "outh": 2213,
      "enda": 2214,
      "give": 2215,
      "treatment": 2216,
      "submitted": 2217,
      "ati": 2218,
      "reports": 2219,
      "better": 2220,
      "far": 2221,
      "monitoring": 2222,
      "Sy": 2223,
      "THE": 2224,
      "emb": 2225,
      "enter": 2226,
      "matter": 2227,
      "fundamental": 2228,
      "ck": 2229,
      "kets": 2230,
      "tiveness": 2231,
      "ective": 2232,
      "regular": 2233,
      "eli": 2234,
      "lies": 2235,
      "problems": 2236,
      "priv": 2237,
      "results": 2238,
      "vol": 2239,
      "post": 2240,
      "Gi": 2241,
      "applicable": 2242,
      "Trans": 2243,
      "ana": 2244,
      "poses": 2245,
      "months": 2246,
      "33": 2247,
      "ounts": 2248,
      "amount": 2249,
      "cross": 2250,
      "competition": 2251,
      "head": 2252,
      "terror": 2253,
      "III": 2254,
      "ological": 2255,
      "even": 2256,
      "Lis": 2257,
      "Ass": 2258,
      "poten": 2259,
      "arian": 2260,
      "RE": 2261,
      "project": 2262,
      "objective": 2263,
      "supply": 2264,
      "list": 2265,
      "investment": 2266,
      "ler": 2267,
      "echanis": 2268,
      "sci": 2269,
      "ussels": 2270,
      "opport": 2271,
      "Car": 2272,
      "mis": 2273,
      "mall": 2274,
      "considered": 2275,
      "racy": 2276,
      "cover": 2277,
      "capac": 2278,
      "fail": 2279,
      "suffic": 2280,
      "Brussels": 2281,
      "UE": 2282,
      "hand": 2283,
      "ds": 2284,
      "various": 2285,
      "INI": 2286,
      "clud": 2287,
      "company": 2288,
      "Author": 2289,
      "major": 2290,
      "bert": 2291,
      "arity": 2292,
      "sche": 2293,
      "tocol": 2294,
      "undertaking": 2295,
      "ator": 2296,
      "El": 2297,
      "Ap": 2298,
      "gener": 2299,
      "power": 2300,
      "Program": 2301,
      "reference": 2302,
      "changes": 2303,
      "financing": 2304,
      "Financial": 2305,
      "asp": 2306,
      "associ": 2307,
      "ody": 2308,
      "los": 2309,
      "super": 2310,
      "detail": 2311,
      "mater": 2312,
      "appe": 2313,
      "\".": 2314,
      "Part": 2315,
      "regulatory": 2316,
      "laration": 2317,
      "establishment": 2318,
      "ouse": 2319,
      "instruments": 2320,
      "last": 2321,
      "Ma": 2322,
      "Mart": 2323,
      "truct": 2324,
      "ki": 2325,
      "lid": 2326,
      "placed": 2327,
      "lex": 2328,
      "Ge": 2329,
      "consumer": 2330,
      "discus": 2331,
      "urn": 2332,
      "practi": 2333,
      "continue": 2334,
      "inno": 2335,
      "sufficient": 2336,
      "Pa": 2337,
      "def": 2338,
      "anti": 2339,
      "inten": 2340,
      "C6": 2341,
      "points": 2342,
      "total": 2343,
      "single": 2344,
      "dialogue": 2345,
      "stud": 2346,
      "decisions": 2347,
      "building": 2348,
      "void": 2349,
      "external": 2350,
      "stri": 2351,
      "Security": 2352,
      "37": 2353,
      "mechanis": 2354,
      "posed": 2355,
      "Conference": 2356,
      "rastruct": 2357,
      "Region": 2358,
      "considers": 2359,
      "safe": 2360,
      "Char": 2361,
      "ination": 2362,
      "involved": 2363,
      "And": 2364,
      "climate": 2365,
      "peace": 2366,
      "natural": 2367,
      "statement": 2368,
      "ently": 2369,
      "additional": 2370,
      "OP": 2371,
      "Be": 2372,
      "Afric": 2373,
      "Mo": 2374,
      "another": 2375,
      "guarantee": 2376,
      "consist": 2377,
      "lack": 2378,
      "ption": 2379,
      "profession": 2380,
      "purpose": 2381,
      "IC": 2382,
      "real": 2383,
      "published": 2384,
      "47": 2385,
      "idelines": 2386,
      "conduc": 2387,
      "Consi": 2388,
      "express": 2389,
      "We": 2390,
      "agen": 2391,
      "Ser": 2392,
      "consumers": 2393,
      "arrange": 2394,
      "covered": 2395,
      "collec": 2396,
      "sug": 2397,
      "There": 2398,
      "farm": 2399,
      "ov": 2400,
      "tabl": 2401,
      "Lisbon": 2402,
      "close": 2403,
      "using": 2404,
      "amended": 2405,
      "NGL": 2406,
      "wers": 2407,
      "vid": 2408,
      "fam": 2409,
      "ER": 2410,
      "Wel": 2411,
      "growth": 2412,
      "protect": 2413,
      "Environment": 2414,
      "sco": 2415,
      "carry": 2416,
      "fishing": 2417,
      "states": 2418,
      "GUE": 2419,
      "avoid": 2420,
      "onic": 2421,
      "Russia": 2422,
      "alloc": 2423,
      "UK": 2424,
      "called": 2425,
      "especi": 2426,
      "facilit": 2427,
      "Com": 2428,
      "transfer": 2429,
      "ology": 2430,
      "especially": 2431,
      "ols": 2432,
      "surance": 2433,
      "small": 2434,
      "48": 2435,
      "discrimination": 2436,
      "cred": 2437,
      "gether": 2438,
      "agricultural": 2439,
      "compliance": 2440,
      "ij": 2441,
      "body": 2442,
      "IPR": 2443,
      "previous": 2444,
      "belie": 2445,
      "deli": 2446,
      "With": 2447,
      "Rap": 2448,
      "increasing": 2449,
      "conflic": 2450,
      "responsibility": 2451,
      "Lu": 2452,
      "suc": 2453,
      "Ber": 2454,
      "prepar": 2455,
      "deal": 2456,
      "life": 2457,
      "plenary": 2458,
      "markets": 2459,
      "however": 2460,
      "subparagraph": 2461,
      "infrastruct": 2462,
      "ably": 2463,
      "cultural": 2464,
      "35": 2465,
      "democratic": 2466,
      "value": 2467,
      "example": 2468,
      "hes": 2469,
      "nergy": 2470,
      "interests": 2471,
      "PSE": 2472,
      "institutional": 2473,
      "labour": 2474,
      "bur": 2475,
      "war": 2476,
      "because": 2477,
      "maintain": 2478,
      "together": 2479,
      "ices": 2480,
      "potential": 2481,
      "OF": 2482,
      "individual": 2483,
      "ison": 2484,
      "dam": 2485,
      "short": 2486,
      "Cooperation": 2487,
      "36": 2488,
      "effect": 2489,
      "ier": 2490,
      "49": 2491,
      "anal": 2492,
      "Programme": 2493,
      "capacity": 2494,
      "private": 2495,
      "wide": 2496,
      "tas": 2497,
      "via": 2498,
      "ins": 2499,
      "ateral": 2500,
      "authorisation": 2501,
      "istration": 2502,
      "ía": 2503,
      "iture": 2504,
      "fil": 2505,
      "approved": 2506,
      "versity": 2507,
      "ensuring": 2508,
      "Fr": 2509,
      "entific": 2510,
      "ounced": 2511,
      "material": 2512,
      "v01": 2513,
      "rea": 2514,
      "obligations": 2515,
      "compon": 2516,
      "án": 2517,
      "addition": 2518,
      "levels": 2519,
      "every": 2520,
      "consequ": 2521,
      "steps": 2522,
      "accession": 2523,
      "continu": 2524,
      "Fo": 2525,
      "let": 2526,
      "connec": 2527,
      "cir": 2528,
      "uclear": 2529,
      "Fore": 2530,
      "erc": 2531,
      "emissions": 2532,
      "obtain": 2533,
      "aring": 2534,
      "staff": 2535,
      "practice": 2536,
      "These": 2537,
      "iz": 2538,
      "allen": 2539,
      "Energy": 2540,
      "EURO": 2541,
      "star": 2542,
      "Welcomes": 2543,
      "Authority": 2544,
      "greater": 2545,
      "economy": 2546,
      "Fran": 2547,
      "integration": 2548,
      "reli": 2549,
      "dio": 2550,
      "proceed": 2551,
      "tices": 2552,
      "penditure": 2553,
      "vice": 2554,
      "nes": 2555,
      "participation": 2556,
      "TO": 2557,
      "purposes": 2558,
      "effects": 2559,
      "strong": 2560,
      "tom": 2561,
      "aged": 2562,
      "job": 2563,
      "traffic": 2564,
      "High": 2565,
      "renew": 2566,
      "Foreign": 2567,
      "mention": 2568,
      "anted": 2569,
      "show": 2570,
      "abil": 2571,
      "LES": 2572,
      "pointed": 2573,
      "inc": 2574,
      "reques": 2575,
      "currently": 2576,
      "record": 2577,
      "priority": 2578,
      "iency": 2579,
      "Chris": 2580,
      "goods": 2581,
      "Mark": 2582,
      "ither": 2583,
      "tor": 2584,
      "sions": 2585,
      "sitting": 2586,
      "announced": 2587,
      "Health": 2588,
      "minimum": 2589,
      "experi": 2590,
      "immedi": 2591,
      "scope": 2592,
      "adequ": 2593,
      "fair": 2594,
      "unctioning": 2595,
      "payment": 2596,
      "Pub": 2597,
      "fav": 2598,
      "bring": 2599,
      "back": 2600,
      "democracy": 2601,
      "thus": 2602,
      "ending": 2603,
      "ats": 2604,
      "type": 2605,
      "circ": 2606,
      "yet": 2607,
      "rule": 2608,
      "comply": 2609,
      "Public": 2610,
      "ALE": 2611,
      "DT": 2612,
      "transparency": 2613,
      "AS": 2614,
      "EF": 2615,
      "strateg": 2616,
      "Turkey": 2617,
      "icin": 2618,
      "agreed": 2619,
      "needed": 2620,
      "Strate": 2621,
      "ufact": 2622,
      "del": 2623,
      "Research": 2624,
      "attention": 2625,
      "Budget": 2626,
      "commer": 2627,
      "cannot": 2628,
      "next": 2629,
      "Cha": 2630,
      "40": 2631,
      "propor": 2632,
      "chair": 2633,
      "achieve": 2634,
      "AG": 2635,
      "88": 2636,
      "conc": 2637,
      "Mi": 2638,
      "ok": 2639,
      "Gar": 2640,
      "Framework": 2641,
      "Action": 2642,
      "prec": 2643,
      "Ban": 2644,
      "39": 2645,
      "powers": 2646,
      "evaluation": 2647,
      "hesion": 2648,
      "Trade": 2649,
      "EUROPE": 2650,
      "ania": 2651,
      "stitution": 2652,
      "lling": 2653,
      "decid": 2654,
      "diffic": 2655,
      "expenditure": 2656,
      "judic": 2657,
      "Verts": 2658,
      "entry": 2659,
      "broad": 2660,
      "threat": 2661,
      "corpor": 2662,
      "Rapporteur": 2663,
      "structs": 2664,
      "EUROPEAN": 2665,
      "cord": 2666,
      "nature": 2667,
      "population": 2668,
      "EX": 2669,
      "yl": 2670,
      "susp": 2671,
      "Inter": 2672,
      "harmon": 2673,
      "\",": 2674,
      "bio": 2675,
      "jo": 2676,
      "resolutions": 2677,
      "discharge": 2678,
      "2012": 2679,
      "cand": 2680,
      "sent": 2681,
      "32": 2682,
      "justi": 2683,
      "document": 2684,
      "organisation": 2685,
      "PARL": 2686,
      "ourn": 2687,
      "migration": 2688,
      "obser": 2689,
      "ways": 2690,
      "reduce": 2691,
      "tel": 2692,
      "Dan": 2693,
      "Instructs": 2694,
      "tri": 2695,
      "PARLIA": 2696,
      "plain": 2697,
      "Accord": 2698,
      "exchange": 2699,
      "practices": 2700,
      "measure": 2701,
      "providing": 2702,
      "bar": 2703,
      "emer": 2704,
      "Cod": 2705,
      "PL": 2706,
      "elections": 2707,
      "independent": 2708,
      "Joint": 2709,
      "received": 2710,
      "rep": 2711,
      "solid": 2712,
      "Sup": 2713,
      "substances": 2714,
      "included": 2715,
      "governments": 2716,
      "AI": 2717,
      "scientific": 2718,
      "stu": 2719,
      "grant": 2720,
      "lands": 2721,
      "construc": 2722,
      "exerc": 2723,
      "poll": 2724,
      "connection": 2725,
      "criminal": 2726,
      "atch": 2727,
      "sed": 2728,
      "ledge": 2729,
      "media": 2730,
      "etary": 2731,
      "plann": 2732,
      "itary": 2733,
      "mal": 2734,
      "Audit": 2735,
      "Sw": 2736,
      "ini": 2737,
      "manufact": 2738,
      "animal": 2739,
      "que": 2740,
      "graph": 2741,
      "arrangements": 2742,
      "commitment": 2743,
      "ili": 2744,
      "problem": 2745,
      "aspects": 2746,
      "Protocol": 2747,
      "mean": 2748,
      "VE": 2749,
      "demand": 2750,
      "intended": 2751,
      "initiatives": 2752,
      "agenda": 2753,
      "guidelines": 2754,
      "activity": 2755,
      "sal": 2756,
      "According": 2757,
      "infrastructure": 2758,
      "uses": 2759,
      "plans": 2760,
      "increased": 2761,
      "COD": 2762,
      "name": 2763,
      "lu": 2764,
      "territory": 2765,
      "They": 2766,
      "applied": 2767,
      "matters": 2768,
      "cour": 2769,
      "ecision": 2770,
      "aper": 2771,
      "contribution": 2772,
      "Codecision": 2773,
      "best": 2774,
      "equal": 2775,
      "Nor": 2776,
      "credit": 2777,
      "subsi": 2778,
      "nuclear": 2779,
      "az": 2780,
      "illegal": 2781,
      "conclusions": 2782,
      "Presidency": 2783,
      "MOTION": 2784,
      "violence": 2785,
      "Pal": 2786,
      "signed": 2787,
      "mentioned": 2788,
      "dri": 2789,
      "PARLIAMENT": 2790,
      "enable": 2791,
      "pover": 2792,
      "hi": 2793,
      "parliamentary": 2794,
      "sever": 2795,
      "confid": 2796,
      "Dis": 2797,
      "directly": 2798,
      "ai": 2799,
      "Minister": 2800,
      "pack": 2801,
      "accept": 2802,
      "reasons": 2803,
      "challen": 2804,
      "claim": 2805,
      "60": 2806,
      "setting": 2807,
      "Vo": 2808,
      "candid": 2809,
      "granted": 2810,
      "exper": 2811,
      "38": 2812,
      "ece": 2813,
      "Dem": 2814,
      "delay": 2815,
      "thereof": 2816,
      "recommendations": 2817,
      "gre": 2818,
      "rup": 2819,
      "bourg": 2820,
      "Nations": 2821,
      "defined": 2822,
      "she": 2823,
      "target": 2824,
      "efficiency": 2825,
      "forms": 2826,
      "whole": 2827,
      "67": 2828,
      "ournal": 2829,
      "poverty": 2830,
      "Under": 2831,
      "fisheries": 2832,
      "efficient": 2833,
      "standing": 2834,
      "cluded": 2835,
      "LA": 2836,
      "vehicles": 2837,
      "Ci": 2838,
      "ME": 2839,
      "electronic": 2840,
      "Sa": 2841,
      "Commissioner": 2842,
      "coming": 2843,
      "China": 2844,
      "ski": 2845,
      "equip": 2846,
      "Cor": 2847,
      "clo": 2848,
      "questions": 2849,
      "firm": 2850,
      "Pri": 2851,
      "tem": 2852,
      "mut": 2853,
      "delegation": 2854,
      "upon": 2855,
      "meetings": 2856,
      "basic": 2857,
      "personal": 2858,
      "istan": 2859,
      "ateg": 2860,
      "Time": 2861,
      "hen": 2862,
      "cam": 2863,
      "analys": 2864,
      "ira": 2865,
      "pes": 2866,
      "creation": 2867,
      "Em": 2868,
      "ducing": 2869,
      "added": 2870,
      "raft": 2871,
      "Isra": 2872,
      "medicin": 2873,
      "several": 2874,
      "commercial": 2875,
      "uge": 2876,
      "Cont": 2877,
      "itarian": 2878,
      "language": 2879,
      "remo": 2880,
      "multi": 2881,
      "Legal": 2882,
      "))": 2883,
      "ek": 2884,
      "risks": 2885,
      "75": 2886,
      "penal": 2887,
      "informed": 2888,
      "Direct": 2889,
      "study": 2890,
      "ployment": 2891,
      "max": 2892,
      "certi": 2893,
      "chec": 2894,
      "ended": 2895,
      "success": 2896,
      "encourage": 2897,
      "oil": 2898,
      "Protection": 2899,
      "Kar": 2900,
      "nel": 2901,
      "response": 2902,
      "Im": 2903,
      "until": 2904,
      "Will": 2905,
      "benefit": 2906,
      "contribute": 2907,
      "visory": 2908,
      "Bul": 2909,
      "rail": 2910,
      "formation": 2911,
      "reduction": 2912,
      "Strategy": 2913,
      "coordination": 2914,
      "committees": 2915,
      "98": 2916,
      "Jean": 2917,
      "estim": 2918,
      "promoting": 2919,
      "prices": 2920,
      "Greece": 2921,
      "Bal": 2922,
      "partnership": 2923,
      "fight": 2924,
      "sectors": 2925,
      "ons": 2926,
      "cid": 2927,
      "assi": 2928,
      "animals": 2929,
      "iterran": 2930,
      "Auditors": 2931,
      "representatives": 2932,
      "iterranean": 2933,
      "enforce": 2934,
      "HEET": 2935,
      "DTD": 2936,
      "entitled": 2937,
      "STY": 2938,
      "LESHEET": 2939,
      "STYLESHEET": 2940,
      "Ur": 2941,
      "stances": 2942,
      "ners": 2943,
      "stated": 2944,
      "Secret": 2945,
      "ologies": 2946,
      "Market": 2947,
      "Fer": 2948,
      "Mediterranean": 2949,
      "status": 2950,
      "80": 2951,
      "rati": 2952,
      "operations": 2953,
      "component": 2954,
      "Port": 2955,
      "forman": 2956,
      "youn": 2957,
      "44": 2958,
      "agencies": 2959,
      "judicial": 2960,
      "site": 2961,
      "ined": 2962,
      "IV": 2963,
      "appropriations": 2964,
      "ica": 2965,
      "possibility": 2966,
      "implemented": 2967,
      "sc": 2968,
      "keep": 2969,
      "Pl": 2970,
      "authorised": 2971,
      "ering": 2972,
      "Notes": 2973,
      "itation": 2974,
      "reject": 2975,
      "Da": 2976,
      "foreign": 2977,
      "AF": 2978,
      "Common": 2979,
      "proceedings": 2980,
      "become": 2981,
      "old": 2982,
      "met": 2983,
      "clos": 2984,
      "Constitution": 2985,
      "instrument": 2986,
      "UL": 2987,
      "contracts": 2988,
      "Sta": 2989,
      "NI": 2990,
      "going": 2991,
      "knowledge": 2992,
      "Food": 2993,
      "Saf": 2994,
      "hold": 2995,
      "Mal": 2996,
      "OS": 2997,
      "Ko": 2998,
      "ron": 2999,
      "depart": 3000,
      "operators": 3001,
      "Mic": 3002,
      "Chair": 3003,
      "four": 3004,
      "Safety": 3005,
      "adap": 3006,
      "55": 3007,
      "approval": 3008,
      "payments": 3009,
      "movement": 3010,
      "conflict": 3011,
      "insurance": 3012,
      "Considers": 3013,
      "Section": 3014,
      "appointed": 3015,
      "ighbour": 3016,
      "recommendation": 3017,
      "gender": 3018,
      "provides": 3019,
      "simil": 3020,
      "affect": 3021,
      "adequate": 3022,
      "og": 3023,
      "parts": 3024,
      "performan": 3025,
      "consultation": 3026,
      "acqu": 3027,
      "similar": 3028,
      "concerns": 3029,
      "anced": 3030,
      "young": 3031,
      "ura": 3032,
      "2013": 3033,
      "embly": 3034,
      "separ": 3035,
      "89": 3036,
      "Civil": 3037,
      "alia": 3038,
      "compens": 3039,
      "dan": 3040,
      "World": 3041,
      "five": 3042,
      ".\"": 3043,
      "standard": 3044,
      "strial": 3045,
      "circum": 3046,
      "FT": 3047,
      "simp": 3048,
      "don": 3049,
      "isted": 3050,
      "New": 3051,
      "death": 3052,
      "labe": 3053,
      "priorities": 3054,
      "professional": 3055,
      "C5": 3056,
      "tically": 3057,
      "adline": 3058,
      "version": 3059,
      "categ": 3060,
      "unch": 3061,
      "explo": 3062,
      "Communic": 3063,
      "accounts": 3064,
      "artic": 3065,
      "affected": 3066,
      "modi": 3067,
      "drawn": 3068,
      "much": 3069,
      "limited": 3070,
      "statis": 3071,
      "sex": 3072,
      "price": 3073,
      "ories": 3074,
      "counter": 3075,
      "manufacture": 3076,
      "entre": 3077,
      "tle": 3078,
      "prevention": 3079,
      "Liber": 3080,
      "draf": 3081,
      "ey": 3082,
      "WTO": 3083,
      "terrorism": 3084,
      "prison": 3085,
      "paid": 3086,
      "plant": 3087,
      "fuel": 3088,
      "maximum": 3089,
      "gar": 3090,
      "fra": 3091,
      "military": 3092,
      "ify": 3093,
      "performance": 3094,
      "distrib": 3095,
      "34": 3096,
      "buds": 3097,
      "promotion": 3098,
      "Italy": 3099,
      "Mor": 3100,
      "bre": 3101,
      "aries": 3102,
      "prehen": 3103,
      "oney": 3104,
      "equipment": 3105,
      "nam": 3106,
      "issued": 3107,
      "National": 3108,
      "76": 3109,
      "Internal": 3110,
      "altern": 3111,
      "facilitate": 3112,
      "wish": 3113,
      "tims": 3114,
      "emphas": 3115,
      "capital": 3116,
      "whose": 3117,
      "aimed": 3118,
      "ied": 3119,
      "values": 3120,
      "Bri": 3121,
      "Iran": 3122,
      "stresses": 3123,
      "Gree": 3124,
      "...": 3125,
      "Sal": 3126,
      "takes": 3127,
      "Stresses": 3128,
      "content": 3129,
      "overall": 3130,
      "holders": 3131,
      "Speci": 3132,
      "Fish": 3133,
      "rug": 3134,
      "benefits": 3135,
      "dic": 3136,
      "A5": 3137,
      "technology": 3138,
      "95": 3139,
      "aging": 3140,
      "diversity": 3141,
      "ria": 3142,
      "office": 3143,
      "recognition": 3144,
      "commitments": 3145,
      "bilities": 3146,
      "ik": 3147,
      "Director": 3148,
      "demon": 3149,
      "85": 3150,
      "competen": 3151,
      "safegu": 3152,
      "AP": 3153,
      "launch": 3154,
      "ality": 3155,
      "excep": 3156,
      "stability": 3157,
      "incorpor": 3158,
      "create": 3159,
      "Board": 3160,
      "decided": 3161,
      "improving": 3162,
      "developed": 3163,
      "clearly": 3164,
      "focus": 3165,
      "Om": 3166,
      "higher": 3167,
      "networks": 3168,
      "repe": 3169,
      "gust": 3170,
      "ics": 3171,
      "icity": 3172,
      "approve": 3173,
      "stance": 3174,
      "budsman": 3175,
      "ension": 3176,
      "methods": 3177,
      "isa": 3178,
      "respective": 3179,
      "either": 3180,
      "Further": 3181,
      "LEG": 3182,
      "statements": 3183,
      "Greek": 3184,
      "lect": 3185,
      "Appro": 3186,
      "san": 3187,
      "dia": 3188,
      "asked": 3189,
      "urg": 3190,
      "share": 3191,
      "views": 3192,
      "cle": 3193,
      "community": 3194,
      "industrial": 3195,
      "ire": 3196,
      "sibilities": 3197,
      "rectives": 3198,
      "Ha": 3199,
      "tered": 3200,
      "itself": 3201,
      "victims": 3202,
      "opportunities": 3203,
      "cohesion": 3204,
      "exec": 3205,
      "Ombudsman": 3206,
      "',": 3207,
      "prepare": 3208,
      "test": 3209,
      "infring": 3210,
      "ick": 3211,
      "Palest": 3212,
      "extent": 3213,
      "undertakings": 3214,
      "When": 3215,
      "SME": 3216,
      "King": 3217,
      "ually": 3218,
      "Spain": 3219,
      "grounds": 3220,
      "Communities": 3221,
      "technologies": 3222,
      "Charter": 3223,
      "96": 3224,
      "achieved": 3225,
      "construction": 3226,
      "COMM": 3227,
      "PES": 3228,
      "intends": 3229,
      "humanitarian": 3230,
      "Represent": 3231,
      "scheme": 3232,
      "Office": 3233,
      "porary": 3234,
      "regulations": 3235,
      "Portu": 3236,
      "CH": 3237,
      "found": 3238,
      "fall": 3239,
      "cul": 3240,
      "partners": 3241,
      "six": 3242,
      "Agr": 3243,
      "comprehen": 3244,
      "notes": 3245,
      "satis": 3246,
      "Communication": 3247,
      "eth": 3248,
      "ORAL": 3249,
      "consequences": 3250,
      "circumstances": 3251,
      "’,": 3252,
      "Peter": 3253,
      "days": 3254,
      "Wed": 3255,
      "acter": 3256,
      "atest": 3257,
      "Agric": 3258,
      "DRA": 3259,
      "proportion": 3260,
      "Regional": 3261,
      "oul": 3262,
      "Democ": 3263,
      "Wednes": 3264,
      "ail": 3265,
      "table": 3266,
      "stress": 3267,
      "uted": 3268,
      "Partnership": 3269,
      "78": 3270,
      "Wednesday": 3271,
      "pression": 3272,
      "Information": 3273,
      "permit": 3274,
      "row": 3275,
      "iel": 3276,
      "favour": 3277,
      "evid": 3278,
      "parliaments": 3279,
      "Italian": 3280,
      "Her": 3281,
      "outside": 3282,
      "exercise": 3283,
      "innovation": 3284,
      "More": 3285,
      "though": 3286,
      "Indu": 3287,
      "urs": 3288,
      "Vice": 3289,
      "laws": 3290,
      "recognised": 3291,
      "item": 3292,
      "Bank": 3293,
      "Control": 3294,
      "did": 3295,
      "balance": 3296,
      "CE": 3297,
      "soon": 3298,
      "kes": 3299,
      "adver": 3300,
      "sugges": 3301,
      "complete": 3302,
      "police": 3303,
      "iliation": 3304,
      "ste": 3305,
      "rural": 3306,
      "exceed": 3307,
      "lexi": 3308,
      "ourable": 3309,
      "combat": 3310,
      "dem": 3311,
      "tian": 3312,
      "export": 3313,
      "custo": 3314,
      "TIVE": 3315,
      "family": 3316,
      "Cz": 3317,
      "suff": 3318,
      "introduced": 3319,
      "conduct": 3320,
      "Bu": 3321,
      "sources": 3322,
      "90": 3323,
      "designed": 3324,
      "Africa": 3325,
      "developments": 3326,
      "positive": 3327,
      "tran": 3328,
      "introduction": 3329,
      "surve": 3330,
      "ACP": 3331,
      ")(": 3332,
      "decide": 3333,
      "return": 3334,
      "heren": 3335,
      "prom": 3336,
      "differen": 3337,
      "lea": 3338,
      "definition": 3339,
      "integrated": 3340,
      "DRAFT": 3341,
      "structure": 3342,
      "justice": 3343,
      "might": 3344,
      "appear": 3345,
      "stre": 3346,
      "Transport": 3347,
      "tially": 3348,
      "stage": 3349,
      "closed": 3350,
      "Amendments": 3351,
      "Adop": 3352,
      "TIC": 3353,
      "AND": 3354,
      "August": 3355,
      "consideration": 3356,
      "Amer": 3357,
      "prejud": 3358,
      "operate": 3359,
      "stitute": 3360,
      "bin": 3361,
      "65": 3362,
      "Geor": 3363,
      "Assembly": 3364,
      "descri": 3365,
      "solution": 3366,
      "STA": 3367,
      "thern": 3368,
      "Employment": 3369,
      "governance": 3370,
      "often": 3371,
      "Tues": 3372,
      "NS": 3373,
      "Tuesday": 3374,
      "party": 3375,
      "travel": 3376,
      "AM": 3377,
      "detailed": 3378,
      "tabled": 3379,
      "advant": 3380,
      "apter": 3381,
      "Stras": 3382,
      "damage": 3383,
      "Fisheries": 3384,
      "’.": 3385,
      "ource": 3386,
      "reached": 3387,
      "prohi": 3388,
      "tt": 3389,
      "70": 3390,
      "recover": 3391,
      "processing": 3392,
      "Ph": 3393,
      "throughout": 3394,
      "Consul": 3395,
      "br": 3396,
      "analysis": 3397,
      "Vi": 3398,
      "operating": 3399,
      "ered": 3400,
      "audit": 3401,
      "92": 3402,
      "experience": 3403,
      "jobs": 3404,
      "valid": 3405,
      "enforcement": 3406,
      "asyl": 3407,
      "compati": 3408,
      "asylum": 3409,
      "web": 3410,
      "ung": 3411,
      "DG": 3412,
      "largement": 3413,
      "fying": 3414,
      "rench": 3415,
      "communications": 3416,
      "100": 3417,
      "functioning": 3418,
      "loss": 3419,
      "tele": 3420,
      "Martin": 3421,
      "Garc": 3422,
      "EE": 3423,
      "tradi": 3424,
      "operational": 3425,
      "scho": 3426,
      "Jos": 3427,
      "83": 3428,
      "flexi": 3429,
      "Budgets": 3430,
      "expressed": 3431,
      "Maria": 3432,
      "Russian": 3433,
      "mechanisms": 3434,
      "Consum": 3435,
      "eration": 3436,
      "offer": 3437,
      "97": 3438,
      "IL": 3439,
      "ming": 3440,
      "Strasbourg": 3441,
      "consumption": 3442,
      "All": 3443,
      "fig": 3444,
      "prejudice": 3445,
      "ink": 3446,
      "gence": 3447,
      "Org": 3448,
      "La": 3449,
      "crime": 3450,
      "inspec": 3451,
      "comprehensive": 3452,
      "central": 3453,
      "OT": 3454,
      "Turk": 3455,
      "property": 3456,
      "money": 3457,
      "Germany": 3458,
      "French": 3459,
      "51": 3460,
      "tasks": 3461,
      "recently": 3462,
      "oto": 3463,
      "mid": 3464,
      "character": 3465,
      "SP": 3466,
      "billion": 3467,
      "declaration": 3468,
      "2020": 3469,
      "José": 3470,
      "voc": 3471,
      "Cy": 3472,
      "Central": 3473,
      "concluded": 3474,
      "across": 3475,
      "pi": 3476,
      "Gl": 3477,
      "sets": 3478,
      "supplement": 3479,
      "SMEs": 3480,
      "Marie": 3481,
      "live": 3482,
      "challenges": 3483,
      "South": 3484,
      "applicant": 3485,
      "ances": 3486,
      "42": 3487,
      "scal": 3488,
      "run": 3489,
      "award": 3490,
      "iting": 3491,
      "Cas": 3492,
      "longer": 3493,
      "seek": 3494,
      "France": 3495,
      "infringe": 3496,
      "evidence": 3497,
      "farmers": 3498,
      "VI": 3499,
      "Har": 3500,
      "Associ": 3501,
      "enterpr": 3502,
      "Home": 3503,
      "García": 3504,
      "Slo": 3505,
      "former": 3506,
      "Monetary": 3507,
      "inian": 3508,
      "feed": 3509,
      "users": 3510,
      "aver": 3511,
      "Secretary": 3512,
      "urges": 3513,
      "rates": 3514,
      "vere": 3515,
      "propose": 3516,
      "Declaration": 3517,
      "unicip": 3518,
      "Fundamental": 3519,
      "strategic": 3520,
      "Me": 3521,
      "fl": 3522,
      "effectiveness": 3523,
      "arch": 3524,
      "P6": 3525,
      "uri": 3526,
      "Industry": 3527,
      "duties": 3528,
      "C7": 3529,
      "Sum": 3530,
      "kind": 3531,
      "ba": 3532,
      "77": 3533,
      "accid": 3534,
      "LEGIS": 3535,
      "Presidents": 3536,
      "LEGISLA": 3537,
      "transi": 3538,
      "cell": 3539,
      "caused": 3540,
      "Recommend": 3541,
      "LEGISLATIVE": 3542,
      "Kingdom": 3543,
      "ask": 3544,
      "acks": 3545,
      "109": 3546,
      "bed": 3547,
      "ureau": 3548,
      "cru": 3549,
      "compar": 3550,
      "Sim": 3551,
      "Cam": 3552,
      "difficult": 3553,
      "times": 3554,
      "neg": 3555,
      "peti": 3556,
      "structural": 3557,
      "why": 3558,
      "nez": 3559,
      "Tex": 3560,
      "breach": 3561,
      "Women": 3562,
      "early": 3563,
      "leading": 3564,
      "utive": 3565,
      "mobility": 3566,
      "IB": 3567,
      "Ru": 3568,
      "replaced": 3569,
      "my": 3570,
      "reser": 3571,
      "disas": 3572,
      "temporary": 3573,
      "cup": 3574,
      "ribut": 3575,
      "living": 3576,
      "Item": 3577,
      "defence": 3578,
      "Os": 3579,
      "competitiveness": 3580,
      "Given": 3581,
      "sch": 3582,
      "itime": 3583,
      "ond": 3584,
      "Representative": 3585,
      "simpli": 3586,
      "ival": 3587,
      "ilip": 3588,
      "obligation": 3589,
      "equality": 3590,
      "Belar": 3591,
      "compensation": 3592,
      "immediately": 3593,
      "once": 3594,
      "strengthening": 3595,
      "Robert": 3596,
      "manner": 3597,
      "marketing": 3598,
      "likely": 3599,
      "limits": 3600,
      "Budgetary": 3601,
      "receive": 3602,
      "consulted": 3603,
      "Romania": 3604,
      "iry": 3605,
      "selec": 3606,
      "66": 3607,
      "Any": 3608,
      "ah": 3609,
      "kra": 3610,
      "occur": 3611,
      "scale": 3612,
      "87": 3613,
      "liber": 3614,
      "mary": 3615,
      "matic": 3616,
      "model": 3617,
      "evalu": 3618,
      "effectively": 3619,
      "studies": 3620,
      "Ange": 3621,
      "av": 3622,
      "Such": 3623,
      "rought": 3624,
      "eu": 3625,
      "ps": 3626,
      "rac": 3627,
      "refuge": 3628,
      "AD": 3629,
      "produced": 3630,
      "Official": 3631,
      "300": 3632,
      "sanc": 3633,
      "Span": 3634,
      "transparent": 3635,
      "equival": 3636,
      "includes": 3637,
      "presented": 3638,
      "candidate": 3639,
      "ORY": 3640,
      "STATE": 3641,
      "pat": 3642,
      "consistent": 3643,
      "External": 3644,
      "targets": 3645,
      "medicinal": 3646,
      "mutual": 3647,
      "echn": 3648,
      "ARTIC": 3649,
      "species": 3650,
      "applications": 3651,
      "correc": 3652,
      "municip": 3653,
      "inary": 3654,
      "NE": 3655,
      "Parliamentary": 3656,
      "charges": 3657,
      "Consumer": 3658,
      "enlargement": 3659,
      "requires": 3660,
      "ARTICLE": 3661,
      "Belgi": 3662,
      "mechanism": 3663,
      "dest": 3664,
      "Spanish": 3665,
      "zer": 3666,
      "highligh": 3667,
      "latest": 3668,
      "elements": 3669,
      "adjust": 3670,
      "expected": 3671,
      "INION": 3672,
      "OPINION": 3673,
      "involving": 3674,
      "sem": 3675,
      "East": 3676,
      "Minis": 3677,
      "electricity": 3678,
      "Ukra": 3679,
      "later": 3680,
      "substance": 3681,
      "garia": 3682,
      "appoint": 3683,
      "distribution": 3684,
      "PLAN": 3685,
      "regime": 3686,
      "Bulgaria": 3687,
      "holding": 3688,
      "reme": 3689,
      "atic": 3690,
      "Paul": 3691,
      "register": 3692,
      "Texts": 3693,
      "STATEMENT": 3694,
      "86": 3695,
      "exten": 3696,
      "ATORY": 3697,
      "opinions": 3698,
      "Plan": 3699,
      "tack": 3700,
      "bey": 3701,
      "reduced": 3702,
      "Pre": 3703,
      "ster": 3704,
      "71": 3705,
      "drug": 3706,
      "selves": 3707,
      "ints": 3708,
      "interpre": 3709,
      "believes": 3710,
      "Hans": 3711,
      "son": 3712,
      "investigation": 3713,
      "EXPLAN": 3714,
      "Urges": 3715,
      "DP": 3716,
      "nationals": 3717,
      "ITTE": 3718,
      "EXPLANATORY": 3719,
      "consult": 3720,
      "demonstr": 3721,
      "neighbour": 3722,
      "welcomes": 3723,
      "renewable": 3724,
      "illi": 3725,
      "danger": 3726,
      "board": 3727,
      "alternative": 3728,
      "Turkish": 3729,
      "thing": 3730,
      "regis": 3731,
      "wise": 3732,
      "binding": 3733,
      "gible": 3734,
      "dim": 3735,
      "Centre": 3736,
      "acting": 3737,
      "reducing": 3738,
      "correspon": 3739,
      "cu": 3740,
      "Ky": 3741,
      "officials": 3742,
      "pollution": 3743,
      "ene": 3744,
      "opportunity": 3745,
      "preparation": 3746,
      "safeguard": 3747,
      "ano": 3748,
      "reven": 3749,
      "paign": 3750,
      "too": 3751,
      "spo": 3752,
      "organised": 3753,
      "mical": 3754,
      "German": 3755,
      "Cla": 3756,
      "Not": 3757,
      "trading": 3758,
      "Go": 3759,
      "facilities": 3760,
      "Has": 3761,
      "Lan": 3762,
      "specified": 3763,
      "around": 3764,
      "schemes": 3765,
      "Per": 3766,
      "hard": 3767,
      "withdraw": 3768,
      "lav": 3769,
      "atter": 3770,
      "identified": 3771,
      "arrest": 3772,
      "hy": 3773,
      "exemp": 3774,
      "Pat": 3775,
      "ulations": 3776,
      "_TA": 3777,
      "requested": 3778,
      "borders": 3779,
      "medium": 3780,
      "COMMITTE": 3781,
      "replace": 3782,
      "imm": 3783,
      "93": 3784,
      "producers": 3785,
      "Str": 3786,
      "events": 3787,
      "ature": 3788,
      "Ri": 3789,
      "migrants": 3790,
      "vehicle": 3791,
      "mandate": 3792,
      "linked": 3793,
      "Israel": 3794,
      "Sil": 3795,
      "face": 3796,
      "speed": 3797,
      "ograph": 3798,
      "bene": 3799,
      "requirement": 3800,
      "reland": 3801,
      "tour": 3802,
      "Furthermore": 3803,
      "Ireland": 3804,
      "confidential": 3805,
      "themselves": 3806,
      "pt": 3807,
      "forest": 3808,
      "Summit": 3809,
      "voting": 3810,
      "adopting": 3811,
      "ruption": 3812,
      "conven": 3813,
      "vessels": 3814,
      "za": 3815,
      "governing": 3816,
      "Col": 3817,
      "agriculture": 3818,
      "planning": 3819,
      "coheren": 3820,
      "types": 3821,
      "ium": 3822,
      "Consultation": 3823,
      "zy": 3824,
      "Mc": 3825,
      "committed": 3826,
      "bel": 3827,
      "start": 3828,
      "PA": 3829,
      "Special": 3830,
      "spect": 3831,
      "Val": 3832,
      "laying": 3833,
      "Association": 3834,
      "concentr": 3835,
      "56": 3836,
      "benefic": 3837,
      "41": 3838,
      "ired": 3839,
      "classi": 3840,
      "employed": 3841,
      "campaign": 3842,
      "avi": 3843,
      "Anton": 3844,
      "abilities": 3845,
      "inclusion": 3846,
      "immigration": 3847,
      "amounts": 3848,
      "rapid": 3849,
      "transmission": 3850,
      "entity": 3851,
      "unless": 3852,
      "failure": 3853,
      "gest": 3854,
      "average": 3855,
      "intel": 3856,
      "Palestinian": 3857,
      "ION": 3858,
      "onia": 3859,
      "medical": 3860,
      "rather": 3861,
      "Georgi": 3862,
      "DA": 3863,
      "stream": 3864,
      "recovery": 3865,
      "By": 3866,
      "volun": 3867,
      "attach": 3868,
      "emergency": 3869,
      "UEN": 3870,
      "NOT": 3871,
      "Ira": 3872,
      "trafficking": 3873,
      "itable": 3874,
      "move": 3875,
      "ude": 3876,
      "zard": 3877,
      "perman": 3878,
      "secure": 3879,
      "course": 3880,
      "manufacturer": 3881,
      "section": 3882,
      "Agriculture": 3883,
      "Van": 3884,
      "Green": 3885,
      "Iraq": 3886,
      "fulfil": 3887,
      "lled": 3888,
      "firms": 3889,
      "combating": 3890,
      "Eura": 3891,
      "rein": 3892,
      "etc": 3893,
      "mic": 3894,
      "subsequ": 3895,
      "STO": 3896,
      "containing": 3897,
      "Euratom": 3898,
      "indicate": 3899,
      "demn": 3900,
      "listed": 3901,
      "gious": 3902,
      "CNS": 3903,
      "presid": 3904,
      "resulting": 3905,
      "finding": 3906,
      "materials": 3907,
      "obtained": 3908,
      "supporting": 3909,
      "meaning": 3910,
      "CF": 3911,
      "allocated": 3912,
      "African": 3913,
      "occup": 3914,
      "fraud": 3915,
      "known": 3916,
      "requests": 3917,
      "ines": 3918,
      "engers": 3919,
      "perform": 3920,
      "operator": 3921,
      "PH": 3922,
      "forced": 3923,
      "Monday": 3924,
      "minutes": 3925,
      "Bas": 3926,
      "package": 3927,
      "pati": 3928,
      "istic": 3929,
      "proc": 3930,
      "Chapter": 3931,
      "Thurs": 3932,
      "hood": 3933,
      "Internet": 3934,
      "Thursday": 3935,
      "Organis": 3936,
      "disp": 3937,
      "Since": 3938,
      "home": 3939,
      "situ": 3940,
      "ously": 3941,
      "competitive": 3942,
      "wa": 3943,
      "letter": 3944,
      "illed": 3945,
      "PE4": 3946,
      "ww": 3947,
      "normal": 3948,
      "stake": 3949,
      "equivalent": 3950,
      "election": 3951,
      "organ": 3952,
      "ery": 3953,
      "utin": 3954,
      "administration": 3955,
      "vance": 3956,
      "experts": 3957,
      "57": 3958,
      "nic": 3959,
      "sanctions": 3960,
      "Voting": 3961,
      "Fed": 3962,
      "vices": 3963,
      "residence": 3964,
      "associated": 3965,
      "enterprises": 3966,
      "INT": 3967,
      "ko": 3968,
      "UR": 3969,
      "done": 3970,
      "income": 3971,
      "Swed": 3972,
      "publication": 3973,
      "except": 3974,
      "controls": 3975,
      "ping": 3976,
      "Lat": 3977,
      "him": 3978,
      "ECR": 3979,
      "influ": 3980,
      "estic": 3981,
      "COMMITTEE": 3982,
      "Nether": 3983,
      "reating": 3984,
      "introduce": 3985,
      "TER": 3986,
      "formal": 3987,
      "Netherlands": 3988,
      "ja": 3989,
      "rid": 3990,
      "restrictions": 3991,
      "amb": 3992,
      "Ca": 3993,
      "EL": 3994,
      "businesses": 3995,
      "pective": 3996,
      "install": 3997,
      "supervision": 3998,
      "abs": 3999,
      "desp": 4000,
      "1998": 4001,
      "notably": 4002,
      "condition": 4003,
      "sound": 4004,
      "begin": 4005,
      "stor": 4006,
      "release": 4007,
      "ruit": 4008,
      "involvement": 4009,
      "58": 4010,
      "aims": 4011,
      "enger": 4012,
      "DEC": 4013,
      "omas": 4014,
      "sexual": 4015,
      "ees": 4016,
      "brought": 4017,
      "phas": 4018,
      "decl": 4019,
      "allowed": 4020,
      "91": 4021,
      "mann": 4022,
      "passengers": 4023,
      "forces": 4024,
      "asi": 4025,
      "exclu": 4026,
      "enhance": 4027,
      "da": 4028,
      "expo": 4029,
      "outcome": 4030,
      "Rome": 4031,
      "past": 4032,
      "Journal": 4033,
      "top": 4034,
      "deadline": 4035,
      "practical": 4036,
      "makes": 4037,
      "ones": 4038,
      "Philip": 4039,
      "versal": 4040,
      "religious": 4041,
      "departments": 4042,
      "reforms": 4043,
      "chairman": 4044,
      "ii": 4045,
      "reaties": 4046,
      "Sar": 4047,
      "ola": 4048,
      "ours": 4049,
      "responsibilities": 4050,
      "ified": 4051,
      "ships": 4052,
      "ale": 4053,
      "94": 4054,
      "subsidi": 4055,
      "Roma": 4056,
      "bilateral": 4057,
      "):": 4058,
      "vul": 4059,
      "Ukraine": 4060,
      "Mus": 4061,
      "B6": 4062,
      "pressure": 4063,
      "Anne": 4064,
      "diseas": 4065,
      "clar": 4066,
      "flow": 4067,
      "dou": 4068,
      "competence": 4069,
      "followed": 4070,
      "reported": 4071,
      "ghan": 4072,
      "versi": 4073,
      "diseases": 4074,
      "opening": 4075,
      "remains": 4076,
      "68": 4077,
      "motion": 4078,
      "beyond": 4079,
      "substantial": 4080,
      "creating": 4081,
      "acces": 4082,
      "statistics": 4083,
      "54": 4084,
      "languages": 4085,
      "xed": 4086,
      "derog": 4087,
      "pol": 4088,
      "Gra": 4089,
      "deliver": 4090,
      "despite": 4091,
      "purch": 4092,
      "EG": 4093,
      "alleg": 4094,
      "legally": 4095,
      "growing": 4096,
      "labelling": 4097,
      "achieving": 4098,
      "correct": 4099,
      "conform": 4100,
      "Liberties": 4101,
      "closely": 4102,
      "prepared": 4103,
      "scr": 4104,
      "ław": 4105,
      "B7": 4106,
      "Alex": 4107,
      "revision": 4108,
      "Est": 4109,
      "certific": 4110,
      "theless": 4111,
      "protected": 4112,
      "Other": 4113,
      "rets": 4114,
      "Management": 4115,
      "believe": 4116,
      "Paper": 4117,
      "servation": 4118,
      "Ros": 4119,
      "representative": 4120,
      "Martí": 4121,
      "week": 4122,
      "follows": 4123,
      "complement": 4124,
      "compatible": 4125,
      "itim": 4126,
      "Follow": 4127,
      "independence": 4128,
      "court": 4129,
      "PO": 4130,
      "deri": 4131,
      "legitim": 4132,
      "you": 4133,
      "sea": 4134,
      "improved": 4135,
      "Belarus": 4136,
      "ferences": 4137,
      ".)": 4138,
      "je": 4139,
      "rise": 4140,
      "CC": 4141,
      "fields": 4142,
      "System": 4143,
      "prohib": 4144,
      "dern": 4145,
      "Pap": 4146,
      "San": 4147,
      "closure": 4148,
      "immediate": 4149,
      "article": 4150,
      "Gr": 4151,
      "domestic": 4152,
      "geograph": 4153,
      "orial": 4154,
      "technological": 4155,
      "tre": 4156,
      "ior": 4157,
      "ena": 4158,
      "card": 4159,
      "Manuel": 4160,
      "Alexand": 4161,
      "mind": 4162,
      "scrutin": 4163,
      "Tun": 4164,
      "annex": 4165,
      "constitute": 4166,
      "mobil": 4167,
      "citizen": 4168,
      "Draft": 4169,
      "explain": 4170,
      "imports": 4171,
      "hist": 4172,
      "phys": 4173,
      "took": 4174,
      "arms": 4175,
      "urban": 4176,
      "ults": 4177,
      "Party": 4178,
      "82": 4179,
      "chemical": 4180,
      "oph": 4181,
      "entire": 4182,
      "separate": 4183,
      "EFD": 4184,
      "complain": 4185,
      "DS": 4186,
      "confirm": 4187,
      "RO": 4188,
      "contro": 4189,
      "Fi": 4190,
      "Mac": 4191,
      "solidarity": 4192,
      "although": 4193,
      "customs": 4194,
      "supported": 4195,
      "Ra": 4196,
      "urement": 4197,
      "multil": 4198,
      "instance": 4199,
      "59": 4200,
      "preser": 4201,
      "Micha": 4202,
      "vulner": 4203,
      "lying": 4204,
      "ffs": 4205,
      "Sea": 4206,
      "urgent": 4207,
      "ped": 4208,
      "tests": 4209,
      "Hung": 4210,
      "imposed": 4211,
      "addressed": 4212,
      "extreme": 4213,
      "zone": 4214,
      "Ob": 4215,
      "Result": 4216,
      "permanent": 4217,
      "Hon": 4218,
      "registration": 4219,
      "opposition": 4220,
      "raised": 4221,
      "placing": 4222,
      "HR": 4223,
      "others": 4224,
      "ease": 4225,
      "gain": 4226,
      "500": 4227,
      "awareness": 4228,
      "improvement": 4229,
      "Discus": 4230,
      "determine": 4231,
      "istics": 4232,
      "deep": 4233,
      "Hel": 4234,
      "forth": 4235,
      "few": 4236,
      "negative": 4237,
      "specifically": 4238,
      "accompan": 4239,
      "Aust": 4240,
      "79": 4241,
      "find": 4242,
      "cessive": 4243,
      "Afghan": 4244,
      "lam": 4245,
      "ills": 4246,
      "motor": 4247,
      "delegated": 4248,
      "passenger": 4249,
      "below": 4250,
      "accompanied": 4251,
      "vised": 4252,
      "vital": 4253,
      "fare": 4254,
      "sensi": 4255,
      "Ir": 4256,
      "heading": 4257,
      "Educ": 4258,
      "gment": 4259,
      "prus": 4260,
      "reporting": 4261,
      "visa": 4262,
      "ino": 4263,
      "comprom": 4264,
      "Cyprus": 4265,
      "tun": 4266,
      "space": 4267,
      "pension": 4268,
      "ides": 4269,
      "reflec": 4270,
      "David": 4271,
      "debt": 4272,
      "Code": 4273,
      "checks": 4274,
      "62": 4275,
      "SEC": 4276,
      "aud": 4277,
      "Sh": 4278,
      "sites": 4279,
      "individuals": 4280,
      "lier": 4281,
      "plications": 4282,
      "your": 4283,
      "entered": 4284,
      "determined": 4285,
      "paragraphs": 4286,
      "73": 4287,
      "tary": 4288,
      "ová": 4289,
      "Pr": 4290,
      "VAT": 4291,
      "rad": 4292,
      "contained": 4293,
      "bor": 4294,
      "eda": 4295,
      "revenue": 4296,
      "minor": 4297,
      "Resol": 4298,
      "liberal": 4299,
      "Lam": 4300,
      "Techn": 4301,
      "Poland": 4302,
      "illance": 4303,
      "ANN": 4304,
      "House": 4305,
      "usz": 4306,
      "lives": 4307,
      "A7": 4308,
      "Honourable": 4309,
      "lood": 4310,
      "FR": 4311,
      "thereby": 4312,
      "clarify": 4313,
      "tos": 4314,
      "ongoing": 4315,
      "enabl": 4316,
      "obst": 4317,
      "lantic": 4318,
      "seem": 4319,
      "financed": 4320,
      "fores": 4321,
      "Bur": 4322,
      "Ed": 4323,
      "ically": 4324,
      "examine": 4325,
      "Ans": 4326,
      "acceptable": 4327,
      "factors": 4328,
      "jur": 4329,
      "communities": 4330,
      "FIN": 4331,
      "transactions": 4332,
      "One": 4333,
      "ón": 4334,
      "registered": 4335,
      "inqu": 4336,
      "indicated": 4337,
      "iterates": 4338,
      "terrorist": 4339,
      "Global": 4340,
      "rem": 4341,
      "presence": 4342,
      "Tour": 4343,
      "dro": 4344,
      "estern": 4345,
      "turn": 4346,
      "violations": 4347,
      "justified": 4348,
      "giving": 4349,
      "Schen": 4350,
      "Education": 4351,
      "tabling": 4352,
      "frequ": 4353,
      "drafts": 4354,
      "func": 4355,
      "vative": 4356,
      "Organisation": 4357,
      "parl": 4358,
      "crete": 4359,
      "crucial": 4360,
      "allocation": 4361,
      "Sán": 4362,
      "finance": 4363,
      "carbon": 4364,
      "elimin": 4365,
      "Freedom": 4366,
      "benefici": 4367,
      "See": 4368,
      "municipality": 4369,
      "culture": 4370,
      "és": 4371,
      "quanti": 4372,
      "sole": 4373,
      "Ta": 4374,
      "constitution": 4375,
      "ulties": 4376,
      "settle": 4377,
      "lower": 4378,
      "storage": 4379,
      "Answer": 4380,
      "mass": 4381,
      "harm": 4382,
      "strategies": 4383,
      "Schengen": 4384,
      "obstac": 4385,
      "journal": 4386,
      "oral": 4387,
      "abit": 4388,
      "latter": 4389,
      "Georgios": 4390,
      "Tit": 4391,
      "maritime": 4392,
      "planned": 4393,
      "ands": 4394,
      "cause": 4395,
      "expression": 4396,
      "bro": 4397,
      "India": 4398,
      "calcul": 4399,
      "NEW": 4400,
      "actors": 4401,
      "Portugal": 4402,
      "round": 4403,
      "tish": 4404,
      "envis": 4405,
      "raw": 4406,
      "Act": 4407,
      "existence": 4408,
      "affairs": 4409,
      "Dim": 4410,
      "Tourism": 4411,
      "applying": 4412,
      "ening": 4413,
      "concrete": 4414,
      "accep": 4415,
      "boo": 4416,
      "duty": 4417,
      "Czech": 4418,
      "rian": 4419,
      "extend": 4420,
      "supports": 4421,
      "oni": 4422,
      "Pres": 4423,
      "procurement": 4424,
      "las": 4425,
      "Op": 4426,
      "details": 4427,
      "ona": 4428,
      "acquis": 4429,
      "Bureau": 4430,
      "dimension": 4431,
      "extended": 4432,
      "Io": 4433,
      "association": 4434,
      "log": 4435,
      "Interinstitutional": 4436,
      "figures": 4437,
      "bank": 4438,
      "Pan": 4439,
      "contribut": 4440,
      "employees": 4441,
      "modern": 4442,
      "effort": 4443,
      "Law": 4444,
      "supervisory": 4445,
      "ification": 4446,
      "difficulties": 4447,
      "link": 4448,
      "deem": 4449,
      "note": 4450,
      "never": 4451,
      "catch": 4452,
      "conducted": 4453,
      "Culture": 4454,
      "Press": 4455,
      "learning": 4456,
      "akis": 4457,
      "................................................................": 4458,
      "surveillance": 4459,
      "categories": 4460,
      "Rural": 4461,
      "Koso": 4462,
      "collective": 4463,
      "tly": 4464,
      "cipl": 4465,
      "eligible": 4466,
      "bia": 4467,
      "contact": 4468,
      "110": 4469,
      "Recommendation": 4470,
      "conformity": 4471,
      "NGOs": 4472,
      "Funds": 4473,
      "52": 4474,
      "ball": 4475,
      "EIB": 4476,
      "Cris": 4477,
      "proposes": 4478,
      "North": 4479,
      "53": 4480,
      "dy": 4481,
      "craft": 4482,
      "Functioning": 4483,
      "ig": 4484,
      "Struct": 4485,
      "highlighted": 4486,
      "Martínez": 4487,
      "Asi": 4488,
      "vig": 4489,
      "guarantees": 4490,
      "governmental": 4491,
      "Ferre": 4492,
      "immunity": 4493,
      "identify": 4494,
      "nom": 4495,
      "coast": 4496,
      "agency": 4497,
      "says": 4498,
      "stop": 4499,
      "scrutiny": 4500,
      "Head": 4501,
      "corruption": 4502,
      "stant": 4503,
      "properly": 4504,
      "atures": 4505,
      "source": 4506,
      "indication": 4507,
      "cop": 4508,
      "dle": 4509,
      "mb": 4510,
      "anni": 4511,
      "pul": 4512,
      "xim": 4513,
      "along": 4514,
      "radio": 4515,
      "Elisa": 4516,
      "condemn": 4517,
      "Bern": 4518,
      "gital": 4519,
      "ses": 4520,
      "notify": 4521,
      "visual": 4522,
      "74": 4523,
      "participate": 4524,
      "Nic": 4525,
      "membership": 4526,
      "Greens": 4527,
      "undertaken": 4528,
      "attacks": 4529,
      "stakeholders": 4530,
      "bile": 4531,
      "marine": 4532,
      "zo": 4533,
      "conciliation": 4534,
      "61": 4535,
      "ilies": 4536,
      "substantially": 4537,
      "hearing": 4538,
      "uniform": 4539,
      "uine": 4540,
      "wind": 4541,
      "regulated": 4542,
      "leave": 4543,
      "claims": 4544,
      "Deleg": 4545,
      "perspective": 4546,
      "harmonisation": 4547,
      "Inv": 4548,
      "cks": 4549,
      "host": 4550,
      "initial": 4551,
      "discipl": 4552,
      "gene": 4553,
      "physical": 4554,
      "Elec": 4555,
      "ham": 4556,
      "defic": 4557,
      "deg": 4558,
      "elected": 4559,
      "81": 4560,
      "raise": 4561,
      "shown": 4562,
      "traditional": 4563,
      "orture": 4564,
      "mobile": 4565,
      "wered": 4566,
      "applies": 4567,
      "lif": 4568,
      "penalties": 4569,
      "genuine": 4570,
      "created": 4571,
      "choice": 4572,
      "sensitive": 4573,
      "Consider": 4574,
      "84": 4575,
      "Constitutional": 4576,
      "inspection": 4577,
      "apons": 4578,
      "v02": 4579,
      "works": 4580,
      "Mill": 4581,
      "251": 4582,
      "chez": 4583,
      "vulnerable": 4584,
      "Pers": 4585,
      "Agenda": 4586,
      "attached": 4587,
      "64": 4588,
      "Annual": 4589,
      "sten": 4590,
      "ECB": 4591,
      "disease": 4592,
      "reasonable": 4593,
      "63": 4594,
      "voluntary": 4595,
      "iling": 4596,
      "detention": 4597,
      "tari": 4598,
      "omes": 4599,
      "Kosovo": 4600,
      "programming": 4601,
      "undermin": 4602,
      "auto": 4603,
      "carrying": 4604,
      "intention": 4605,
      "cut": 4606,
      "positions": 4607,
      "fri": 4608,
      "Following": 4609,
      "TS": 4610,
      "consolid": 4611,
      "refugees": 4612,
      "visit": 4613,
      "roy": 4614,
      "accordingly": 4615,
      "Mid": 4616,
      "processes": 4617,
      "otherwise": 4618,
      "big": 4619,
      "extra": 4620,
      "barri": 4621,
      "mitted": 4622,
      "duct": 4623,
      "ians": 4624,
      "conference": 4625,
      "offe": 4626,
      "contributions": 4627,
      "rist": 4628,
      "school": 4629,
      "sim": 4630,
      "geographical": 4631,
      "regularly": 4632,
      "directives": 4633,
      "enhouse": 4634,
      "Ste": 4635,
      "enn": 4636,
      "ased": 4637,
      "Points": 4638,
      "stock": 4639,
      "subsidies": 4640,
      "continued": 4641,
      "successful": 4642,
      "providers": 4643,
      "ame": 4644,
      "highly": 4645,
      "P7": 4646,
      "always": 4647,
      "exposure": 4648,
      "Rober": 4649,
      "multilateral": 4650,
      "welfare": 4651,
      "granting": 4652,
      "families": 4653,
      "Super": 4654,
      "situations": 4655,
      "ya": 4656,
      "infringement": 4657,
      "stressed": 4658,
      "structures": 4659,
      "P5": 4660,
      "healthcare": 4661,
      "periods": 4662,
      "territorial": 4663,
      "Structural": 4664,
      "dissem": 4665,
      "FINAL": 4666,
      "summit": 4667,
      "htt": 4668,
      "produce": 4669,
      "holder": 4670,
      "characteristics": 4671,
      "plants": 4672,
      "://": 4673,
      "VO": 4674,
      "estimated": 4675,
      "Admin": 4676,
      "burden": 4677,
      "69": 4678,
      "Moreover": 4679,
      "sla": 4680,
      "stocks": 4681,
      "British": 4682,
      "confer": 4683,
      "ifications": 4684,
      "gan": 4685,
      "Den": 4686,
      "uration": 4687,
      "italics": 4688,
      "Pak": 4689,
      "ley": 4690,
      "flexibility": 4691,
      "http": 4692,
      "CON": 4693,
      "percent": 4694,
      "ership": 4695,
      "John": 4696,
      "EGF": 4697,
      "ites": 4698,
      "DR": 4699,
      "Georg": 4700,
      "Moroc": 4701,
      "harmonised": 4702,
      "Irish": 4703,
      "CAP": 4704,
      "ethnic": 4705,
      "consent": 4706,
      "break": 4707,
      "forese": 4708,
      "implications": 4709,
      "house": 4710,
      "solutions": 4711,
      "banks": 4712,
      "centres": 4713,
      "Resolution": 4714,
      "think": 4715,
      "union": 4716,
      "enjo": 4717,
      "Anna": 4718,
      "continuing": 4719,
      "Pakistan": 4720,
      "therine": 4721,
      "That": 4722,
      "collection": 4723,
      "arising": 4724,
      "freedoms": 4725,
      "declared": 4726,
      "Substitute": 4727,
      "greenhouse": 4728,
      "crimes": 4729,
      "cession": 4730,
      "incid": 4731,
      "vin": 4732,
      "ita": 4733,
      "completed": 4734,
      "BU": 4735,
      "Working": 4736,
      "understanding": 4737,
      "Catherine": 4738,
      "err": 4739,
      "Sto": 4740,
      "TF": 4741,
      "ican": 4742,
      "seeking": 4743,
      "Uni": 4744,
      "penalty": 4745,
      "allowing": 4746,
      "diction": 4747,
      "wo": 4748,
      "proportionate": 4749,
      "Sánchez": 4750,
      "RU": 4751,
      "size": 4752,
      "compromise": 4753,
      "relationship": 4754,
      "hear": 4755,
      "exclusion": 4756,
      "eco": 4757,
      "aters": 4758,
      "lieves": 4759,
      "want": 4760,
      "1997": 4761,
      "Results": 4762,
      "rul": 4763,
      "hours": 4764,
      "Believes": 4765,
      "modified": 4766,
      "urities": 4767,
      "Exec": 4768,
      "ounce": 4769,
      "conver": 4770,
      "partner": 4771,
      "upd": 4772,
      "disposal": 4773,
      "extension": 4774,
      "Regions": 4775,
      "dele": 4776,
      "akes": 4777,
      "recy": 4778,
      "series": 4779,
      "speak": 4780,
      "preced": 4781,
      "pon": 4782,
      "compared": 4783,
      "complex": 4784,
      "notification": 4785,
      "Ev": 4786,
      "Mil": 4787,
      "leaders": 4788,
      "accessible": 4789,
      "ford": 4790,
      "Directives": 4791,
      "vak": 4792,
      "saving": 4793,
      "nut": 4794,
      "ito": 4795,
      "hous": 4796,
      "buildings": 4797,
      "72": 4798,
      "POINT": 4799,
      "acknow": 4800,
      "absence": 4801,
      "degree": 4802,
      "ash": 4803,
      "assets": 4804,
      "lad": 4805,
      "Stat": 4806,
      "Def": 4807,
      "tte": 4808,
      "Having": 4809,
      "primary": 4810,
      "funded": 4811,
      "ér": 4812,
      "exploitation": 4813,
      "SC": 4814,
      "unemployment": 4815,
      "dangerous": 4816,
      "calling": 4817,
      "attemp": 4818,
      "ls": 4819,
      "103": 4820,
      "prisoners": 4821,
      "aut": 4822,
      "entation": 4823,
      "ANNEX": 4824,
      "keeping": 4825,
      "ordinary": 4826,
      "drawing": 4827,
      "exclusive": 4828,
      "dr": 4829,
      "entities": 4830,
      "Fri": 4831,
      "pan": 4832,
      "near": 4833,
      "numer": 4834,
      "indicators": 4835,
      "People": 4836,
      "Mer": 4837,
      "Cri": 4838,
      "sory": 4839,
      "noted": 4840,
      "dipl": 4841,
      "universal": 4842,
      "discussion": 4843,
      "Belgium": 4844,
      "ug": 4845,
      "excessive": 4846,
      "spir": 4847,
      "prosec": 4848,
      "annes": 4849,
      "tackle": 4850,
      "waters": 4851,
      "Treaties": 4852,
      "Adoption": 4853,
      "adverse": 4854,
      "Christian": 4855,
      "confidence": 4856,
      "SA": 4857,
      "preventing": 4858,
      "conservation": 4859,
      "forwarded": 4860,
      "category": 4861,
      "Cro": 4862,
      "deter": 4863,
      "ilst": 4864,
      "Cs": 4865,
      "Mat": 4866,
      "accepted": 4867,
      "OLAF": 4868,
      "ened": 4869,
      "liability": 4870,
      "secret": 4871,
      "intenance": 4872,
      "cro": 4873,
      "identification": 4874,
      "reci": 4875,
      "Executive": 4876,
      "After": 4877,
      "Ara": 4878,
      "tan": 4879,
      "poor": 4880,
      "pu": 4881,
      "AIR": 4882,
      "considerable": 4883,
      "America": 4884,
      "Implement": 4885,
      "ought": 4886,
      "affir": 4887,
      "differences": 4888,
      "taint": 4889,
      "sched": 4890,
      "concept": 4891,
      "IND": 4892,
      "digital": 4893,
      "compul": 4894,
      "ancing": 4895,
      "severe": 4896,
      "Network": 4897,
      "argu": 4898,
      "Ju": 4899,
      "Non": 4900,
      "investigations": 4901,
      "tainty": 4902,
      "Rich": 4903,
      "asks": 4904,
      "cooperate": 4905,
      "mail": 4906,
      "certainty": 4907,
      "tro": 4908,
      "corresponding": 4909,
      "critical": 4910,
      "code": 4911,
      "pharm": 4912,
      "examination": 4913,
      "Could": 4914,
      "Consideration": 4915,
      "loo": 4916,
      "Europol": 4917,
      "fers": 4918,
      "habit": 4919,
      "mental": 4920,
      "sugar": 4921,
      "namely": 4922,
      "Therefore": 4923,
      "AIDS": 4924,
      "1995": 4925,
      "Peti": 4926,
      "tourism": 4927,
      "Daniel": 4928,
      "Chin": 4929,
      "ames": 4930,
      "direc": 4931,
      "bly": 4932,
      "involve": 4933,
      "qualified": 4934,
      "Afghanistan": 4935,
      "rich": 4936,
      "vations": 4937,
      "task": 4938,
      "beth": 4939,
      "aqu": 4940,
      "Israeli": 4941,
      "motions": 4942,
      "repeal": 4943,
      ".(": 4944,
      "oration": 4945,
      "changed": 4946,
      "skills": 4947,
      "Mad": 4948,
      "considering": 4949,
      "marks": 4950,
      "dependent": 4951,
      "sustainability": 4952,
      "Mol": 4953,
      "bloc": 4954,
      "railway": 4955,
      "europarl": 4956,
      "HIV": 4957,
      "REC": 4958,
      "compulsory": 4959,
      "launched": 4960,
      "Chinese": 4961,
      "maintenance": 4962,
      "USA": 4963,
      "critic": 4964,
      "enhanced": 4965,
      "ULT": 4966,
      "Zim": 4967,
      "compl": 4968,
      "user": 4969,
      "depends": 4970,
      "lectual": 4971,
      "lined": 4972,
      "coordinated": 4973,
      "meat": 4974,
      "Gender": 4975,
      "Richard": 4976,
      "wishes": 4977,
      "ilar": 4978,
      "Poli": 4979,
      "sha": 4980,
      "qualifications": 4981,
      "investments": 4982,
      "Ni": 4983,
      "Prime": 4984,
      "Your": 4985,
      "left": 4986,
      "Michael": 4987,
      "iss": 4988,
      "hazard": 4989,
      "diovisual": 4990,
      "abled": 4991,
      "approxim": 4992,
      "Service": 4993,
      "Posi": 4994,
      "patients": 4995,
      "Simple": 4996,
      "bac": 4997,
      "teed": 4998,
      "enjoy": 4999,
      "aircraft": 5000,
      "casion": 5001,
      "Sloven": 5002,
      "generation": 5003,
      "Angel": 5004,
      "milk": 5005,
      "petition": 5006,
      "phase": 5007,
      "Recalls": 5008,
      "margin": 5009,
      "ange": 5010,
      "weapons": 5011,
      "inquiry": 5012,
      "absten": 5013,
      "Regulations": 5014,
      "Sud": 5015,
      "incorporate": 5016,
      "Western": 5017,
      "seven": 5018,
      "eva": 5019,
      "minorities": 5020,
      "ali": 5021,
      "designated": 5022,
      "Title": 5023,
      "Ab": 5024,
      "guaranteed": 5025,
      "treated": 5026,
      "occasion": 5027,
      "transitional": 5028,
      "constitutes": 5029,
      "taxation": 5030,
      "described": 5031,
      "Alexander": 5032,
      "She": 5033,
      "Ferreira": 5034,
      "shared": 5035,
      "ULL": 5036,
      "smo": 5037,
      "BR": 5038,
      "wai": 5039,
      "subsequent": 5040,
      "exports": 5041,
      "precise": 5042,
      "advantage": 5043,
      "Kore": 5044,
      "increasingly": 5045,
      "innovative": 5046,
      "reply": 5047,
      "immigrants": 5048,
      "actual": 5049,
      "accounting": 5050,
      "tox": 5051,
      "ORT": 5052,
      "Year": 5053,
      "nutri": 5054,
      "duration": 5055,
      "115": 5056,
      "qui": 5057,
      "balanced": 5058,
      "seen": 5059,
      "showing": 5060,
      "influence": 5061,
      "advance": 5062,
      "weak": 5063,
      "Fir": 5064,
      "clause": 5065,
      "sale": 5066,
      "Antonio": 5067,
      "Ol": 5068,
      "notified": 5069,
      "thres": 5070,
      "Equality": 5071,
      "tise": 5072,
      "lez": 5073,
      "obvious": 5074,
      "aviation": 5075,
      "siz": 5076,
      "affecting": 5077,
      "plicit": 5078,
      "candidates": 5079,
      "estimates": 5080,
      "armed": 5081,
      "berg": 5082,
      "forthcoming": 5083,
      "chain": 5084,
      "exception": 5085,
      "original": 5086,
      "findings": 5087,
      "barriers": 5088,
      "build": 5089,
      "juris": 5090,
      "ula": 5091,
      "clari": 5092,
      "protocol": 5093,
      "significantly": 5094,
      "Middle": 5095,
      "tionality": 5096,
      "kers": 5097,
      "website": 5098,
      "Egy": 5099,
      "outhern": 5100,
      "voted": 5101,
      "tising": 5102,
      "firmed": 5103,
      "confirmed": 5104,
      "repeated": 5105,
      "Charles": 5106,
      "PROC": 5107,
      "EFA": 5108,
      "Sweden": 5109,
      "ken": 5110,
      "ligion": 5111,
      "rain": 5112,
      "mainly": 5113,
      "unish": 5114,
      "farming": 5115,
      "itage": 5116,
      "phen": 5117,
      "torture": 5118,
      "llo": 5119,
      "defini": 5120,
      "disaster": 5121,
      "ska": 5122,
      "biodiversity": 5123,
      "ala": 5124,
      "Pen": 5125,
      "Position": 5126,
      "conflicts": 5127,
      "subsidiarity": 5128,
      "expect": 5129,
      "tools": 5130,
      "discussed": 5131,
      "fle": 5132,
      "holds": 5133,
      "draftsman": 5134,
      "accident": 5135,
      "illing": 5136,
      "revised": 5137,
      "Defence": 5138,
      "mas": 5139,
      "Jose": 5140,
      "deemed": 5141,
      "ume": 5142,
      "thu": 5143,
      "onom": 5144,
      "tamin": 5145,
      "acted": 5146,
      "incenti": 5147,
      "tren": 5148,
      "appeal": 5149,
      "TFEU": 5150,
      "FULL": 5151,
      "goals": 5152,
      "today": 5153,
      "alleged": 5154,
      "ane": 5155,
      "PS": 5156,
      "iscal": 5157,
      "itiz": 5158,
      "indent": 5159,
      "stries": 5160,
      "accompany": 5161,
      "introducing": 5162,
      "mach": 5163,
      "fed": 5164,
      "fron": 5165,
      "teach": 5166,
      "beginning": 5167,
      "truc": 5168,
      "Croati": 5169,
      "CS": 5170,
      "Tan": 5171,
      "ert": 5172,
      "American": 5173,
      "adapt": 5174,
      "abuse": 5175,
      "atell": 5176,
      "base": 5177,
      "mac": 5178,
      "Sing": 5179,
      "generally": 5180,
      "accidents": 5181,
      "HA": 5182,
      "contracting": 5183,
      "Bre": 5184,
      "Citiz": 5185,
      "fixed": 5186,
      "stipul": 5187,
      "delegations": 5188,
      "settlement": 5189,
      "covering": 5190,
      "targeted": 5191,
      "exceptional": 5192,
      "drugs": 5193,
      "enced": 5194,
      "conn": 5195,
      "Mario": 5196,
      "fire": 5197,
      "Mari": 5198,
      "percentage": 5199,
      "quo": 5200,
      "Asks": 5201,
      "element": 5202,
      "fications": 5203,
      "extremely": 5204,
      "assu": 5205,
      "offered": 5206,
      "factory": 5207,
      "liberalisation": 5208,
      "respected": 5209,
      "comed": 5210,
      "Hen": 5211,
      "Marian": 5212,
      "numerous": 5213,
      "useful": 5214,
      "articles": 5215,
      "Exchange": 5216,
      "dez": 5217,
      "wee": 5218,
      "religion": 5219,
      "welcomed": 5220,
      "dealing": 5221,
      "quar": 5222,
      "obstacles": 5223,
      "unanim": 5224,
      "Initi": 5225,
      "minority": 5226,
      "intervention": 5227,
      "lights": 5228,
      "ATION": 5229,
      "Without": 5230,
      "medicines": 5231,
      "Finally": 5232,
      "PROP": 5233,
      "alle": 5234,
      "White": 5235,
      "places": 5236,
      "participants": 5237,
      "Kon": 5238,
      "iring": 5239,
      "gradu": 5240,
      "interpretation": 5241,
      "incentives": 5242,
      "disabled": 5243,
      "missible": 5244,
      "Portugu": 5245,
      "declar": 5246,
      "tering": 5247,
      "DEM": 5248,
      "PROPOS": 5249,
      "airport": 5250,
      "P6_TA": 5251,
      "PROCED": 5252,
      "Ter": 5253,
      "limin": 5254,
      "protecting": 5255,
      "announce": 5256,
      "monetary": 5257,
      "respond": 5258,
      "Delegation": 5259,
      "Mrs": 5260,
      "diplom": 5261,
      "remed": 5262,
      "lit": 5263,
      "havi": 5264,
      "suggested": 5265,
      "associations": 5266,
      "complaints": 5267,
      "thy": 5268,
      "Joh": 5269,
      "……": 5270,
      "flag": 5271,
      "ict": 5272,
      "Austria": 5273,
      "conferred": 5274,
      "West": 5275,
      "pil": 5276,
      "receiving": 5277,
      "grants": 5278,
      "peaceful": 5279,
      "Each": 5280,
      "Ministers": 5281,
      "Luc": 5282,
      "marked": 5283,
      "Oral": 5284,
      "foot": 5285,
      "micro": 5286,
      "derogation": 5287,
      "Deadline": 5288,
      "friend": 5289,
      "cells": 5290,
      "owski": 5291,
      "mandatory": 5292,
      "personnel": 5293,
      "testing": 5294,
      "Portuguese": 5295,
      "appointment": 5296,
      "Gal": 5297,
      "encouraging": 5298,
      "020": 5299,
      "identity": 5300,
      "Adopted": 5301,
      "rs": 5302,
      "anian": 5303,
      "discriminatory": 5304,
      "guid": 5305,
      "aint": 5306,
      "Ay": 5307,
      "zá": 5308,
      "organic": 5309,
      "Asia": 5310,
      "GDP": 5311,
      "Pas": 5312,
      "centre": 5313,
      "items": 5314,
      "discussions": 5315,
      "PROPOSAL": 5316,
      "suitable": 5317,
      "coherent": 5318,
      "Eas": 5319,
      "ada": 5320,
      "Slovak": 5321,
      "selection": 5322,
      "impose": 5323,
      "UC": 5324,
      "Instr": 5325,
      "whilst": 5326,
      "ght": 5327,
      "ighting": 5328,
      "reflect": 5329,
      "tisation": 5330,
      "haviour": 5331,
      "rely": 5332,
      "sectoral": 5333,
      "disasters": 5334,
      "willing": 5335,
      "1996": 5336,
      "statistical": 5337,
      "Polish": 5338,
      "bearing": 5339,
      "weeks": 5340,
      "ago": 5341,
      "First": 5342,
      "ING": 5343,
      "sufficiently": 5344,
      "vise": 5345,
      "doub": 5346,
      "Cohesion": 5347,
      "spoke": 5348,
      "Claude": 5349,
      "quid": 5350,
      "105": 5351,
      "envisaged": 5352,
      "tained": 5353,
      "factor": 5354,
      "María": 5355,
      "ague": 5356,
      "spending": 5357,
      "almost": 5358,
      "Fern": 5359,
      "uting": 5360,
      "engine": 5361,
      "industries": 5362,
      "belong": 5363,
      "ambi": 5364,
      "Ms": 5365,
      "inser": 5366,
      "ofuel": 5367,
      "recognise": 5368,
      "define": 5369,
      "aking": 5370,
      "dat": 5371,
      "mits": 5372,
      "underlines": 5373,
      "rez": 5374,
      "tative": 5375,
      "Barro": 5376,
      "supplementary": 5377,
      "Si": 5378,
      "journalists": 5379,
      "contains": 5380,
      "serve": 5381,
      "rejected": 5382,
      "soil": 5383,
      "transfers": 5384,
      "Wil": 5385,
      "spent": 5386,
      "highest": 5387,
      "Hein": 5388,
      "intellectual": 5389,
      "driving": 5390,
      "assessments": 5391,
      "explan": 5392,
      "131": 5393,
      "Takes": 5394,
      "economies": 5395,
      "failed": 5396,
      "aps": 5397,
      "Motions": 5398,
      "advice": 5399,
      "patent": 5400,
      "Lux": 5401,
      "HO": 5402,
      "stra": 5403,
      "irregular": 5404,
      "mod": 5405,
      "strongly": 5406,
      "class": 5407,
      "texts": 5408,
      "veter": 5409,
      "imbur": 5410,
      "Michel": 5411,
      "astro": 5412,
      "links": 5413,
      "Ministry": 5414,
      "mor": 5415,
      "inde": 5416,
      "contamin": 5417,
      "inste": 5418,
      "improvements": 5419,
      "room": 5420,
      "dead": 5421,
      "Sudan": 5422,
      "ets": 5423,
      "Cap": 5424,
      "behaviour": 5425,
      "understand": 5426,
      "Denmark": 5427,
      "facing": 5428,
      "Approves": 5429,
      "stuffs": 5430,
      "explicit": 5431,
      "pet": 5432,
      "Gaz": 5433,
      "raf": 5434,
      "offences": 5435,
      "posing": 5436,
      "maintaining": 5437,
      "lor": 5438,
      "Federation": 5439,
      "clean": 5440,
      "tivity": 5441,
      "load": 5442,
      "closer": 5443,
      "instead": 5444,
      "__": 5445,
      "Although": 5446,
      "structuring": 5447,
      "Latin": 5448,
      "fiscal": 5449,
      "pred": 5450,
      "Dimit": 5451,
      "Nat": 5452,
      "kept": 5453,
      "actively": 5454,
      "enabling": 5455,
      "Petitions": 5456,
      "Lithu": 5457,
      "students": 5458,
      "net": 5459,
      "Meet": 5460,
      "107": 5461,
      "trial": 5462,
      "stay": 5463,
      "invited": 5464,
      "awarded": 5465,
      "Du": 5466,
      "opened": 5467,
      "legitimate": 5468,
      "provider": 5469,
      "contrary": 5470,
      "consulting": 5471,
      "Sen": 5472,
      "commod": 5473,
      "Malta": 5474,
      "Tunis": 5475,
      "spirit": 5476,
      "trust": 5477,
      "Morocco": 5478,
      "transition": 5479,
      "pill": 5480,
      "doing": 5481,
      "During": 5482,
      "Plenary": 5483,
      "ikola": 5484,
      "punish": 5485,
      "Invest": 5486,
      "Gab": 5487,
      "goal": 5488,
      "distor": 5489,
      "Georgia": 5490,
      "ars": 5491,
      "violation": 5492,
      "bit": 5493,
      "Liby": 5494,
      "tonnes": 5495,
      "hun": 5496,
      "represents": 5497,
      "usal": 5498,
      "Christ": 5499,
      "falling": 5500,
      "constitutional": 5501,
      "atlantic": 5502,
      "IF": 5503,
      "Ul": 5504,
      "seas": 5505,
      "quick": 5506,
      "audiovisual": 5507,
      "istance": 5508,
      "schools": 5509,
      "Democr": 5510,
      "boost": 5511,
      "negotiating": 5512,
      "codi": 5513,
      "IP": 5514,
      "Moldo": 5515,
      "complaint": 5516,
      "Emp": 5517,
      "bul": 5518,
      "embourg": 5519,
      "look": 5520,
      "certificate": 5521,
      "Luxembourg": 5522,
      "accur": 5523,
      "errors": 5524,
      "CFSP": 5525,
      "heritage": 5526,
      "cluding": 5527,
      "check": 5528,
      "entail": 5529,
      "Eastern": 5530,
      "presentation": 5531,
      "sentence": 5532,
      "datab": 5533,
      "marking": 5534,
      "ATO": 5535,
      "facility": 5536,
      "reliable": 5537,
      "Weber": 5538,
      "weight": 5539,
      "annis": 5540,
      "encies": 5541,
      "Ren": 5542,
      "bab": 5543,
      "liquid": 5544,
      "Islam": 5545,
      "thous": 5546,
      "excluded": 5547,
      "happ": 5548,
      "oll": 5549,
      "Migu": 5550,
      "Instrument": 5551,
      "posts": 5552,
      "Statute": 5553,
      "restricted": 5554,
      "Lo": 5555,
      "Eri": 5556,
      "representation": 5557,
      "custom": 5558,
      "continues": 5559,
      "Yu": 5560,
      "causes": 5561,
      "Te": 5562,
      "send": 5563,
      "reimbur": 5564,
      "indirect": 5565,
      "Ash": 5566,
      "fur": 5567,
      "sport": 5568,
      "copy": 5569,
      "hop": 5570,
      "cel": 5571,
      "sharing": 5572,
      "ensus": 5573,
      "units": 5574,
      "remaining": 5575,
      "ables": 5576,
      "While": 5577,
      "Data": 5578,
      "receip": 5579,
      "chi": 5580,
      "mus": 5581,
      "Oper": 5582,
      "wn": 5583,
      "Frances": 5584,
      "Hungary": 5585,
      "sized": 5586,
      "regarded": 5587,
      "fruit": 5588,
      "Bra": 5589,
      "Romeva": 5590,
      "abstentions": 5591,
      "ariat": 5592,
      "Kla": 5593,
      "undertake": 5594,
      "Evans": 5595,
      "macro": 5596,
      "öm": 5597,
      "judgment": 5598,
      "Lou": 5599,
      "ström": 5600,
      "REG": 5601,
      "Alf": 5602,
      "declarations": 5603,
      "Air": 5604,
      "rig": 5605,
      "RAPH": 5606,
      "Cub": 5607,
      "GMO": 5608,
      "Sco": 5609,
      "Express": 5610,
      "missions": 5611,
      "PARAG": 5612,
      "Rueda": 5613,
      "usto": 5614,
      "dor": 5615,
      "PARAGRAPH": 5616,
      "ador": 5617,
      "But": 5618,
      "IG": 5619,
      "idea": 5620,
      "Emphas": 5621,
      "whom": 5622,
      "pestic": 5623,
      "streaming": 5624,
      "advertising": 5625,
      "arily": 5626,
      "threats": 5627,
      "én": 5628,
      "functions": 5629,
      "actually": 5630,
      "agno": 5631,
      "challenge": 5632,
      "Political": 5633,
      "components": 5634,
      "Discussed": 5635,
      "Adam": 5636,
      "participating": 5637,
      "Pos": 5638,
      "itt": 5639,
      "orders": 5640,
      "rating": 5641,
      "Schmid": 5642,
      "supplies": 5643,
      "neighbouring": 5644,
      "bl": 5645,
      "Kel": 5646,
      "compr": 5647,
      "interven": 5648,
      "correction": 5649,
      "Inte": 5650,
      "function": 5651,
      "kos": 5652,
      "paper": 5653,
      "recast": 5654,
      "foods": 5655,
      "Pier": 5656,
      "depos": 5657,
      "Paolo": 5658,
      "unfair": 5659,
      "wit": 5660,
      "Solid": 5661,
      "concentration": 5662,
      "managed": 5663,
      "Stability": 5664,
      "contra": 5665,
      "utch": 5666,
      "biofuel": 5667,
      "restructuring": 5668,
      "toral": 5669,
      "vereign": 5670,
      "pm": 5671,
      "mbols": 5672,
      "inated": 5673,
      "seems": 5674,
      "disabilities": 5675,
      "Climate": 5676,
      "ception": 5677,
      "availability": 5678,
      "Sust": 5679,
      "Writ": 5680,
      "bringing": 5681,
      "corrections": 5682,
      "educational": 5683,
      "Bos": 5684,
      "bound": 5685,
      "title": 5686,
      "468": 5687,
      "foreseen": 5688,
      "inspections": 5689,
      "Mul": 5690,
      "dequ": 5691,
      "Fra": 5692,
      "represented": 5693,
      "transit": 5694,
      "gs": 5695,
      "courts": 5696,
      "............": 5697,
      "designate": 5698,
      "Sk": 5699,
      "worldwide": 5700,
      "maintained": 5701,
      "broadcas": 5702,
      "histor": 5703,
      "mu": 5704,
      "flood": 5705,
      "suffering": 5706,
      "Written": 5707,
      "Forum": 5708,
      "Carlos": 5709,
      "minim": 5710,
      "earlier": 5711,
      "Single": 5712,
      "Services": 5713,
      "gives": 5714,
      "lia": 5715,
      "recall": 5716,
      "Meeting": 5717,
      "hne": 5718,
      "bold": 5719,
      "multiannual": 5720,
      "emphasises": 5721,
      "OSCE": 5722,
      "Those": 5723,
      "wine": 5724,
      "Ivo": 5725,
      "credi": 5726,
      "Andr": 5727,
      "permitted": 5728,
      "urgency": 5729,
      "lda": 5730,
      "enders": 5731,
      "tur": 5732,
      "www": 5733,
      "VOTE": 5734,
      "Expresses": 5735,
      "inger": 5736,
      "constitu": 5737,
      "issuing": 5738,
      "Brit": 5739,
      "sz": 5740,
      "words": 5741,
      "cohol": 5742,
      "expertise": 5743,
      "Rossa": 5744,
      "yan": 5745,
      "retail": 5746,
      "speech": 5747,
      "flexible": 5748,
      "option": 5749,
      "numbers": 5750,
      "Assent": 5751,
      "Gabri": 5752,
      "gio": 5753,
      "endors": 5754,
      "Vlad": 5755,
      "ara": 5756,
      "RESULT": 5757,
      "Citizens": 5758,
      "recycl": 5759,
      "Croatia": 5760,
      "enough": 5761,
      "raising": 5762,
      "online": 5763,
      "advan": 5764,
      "packaging": 5765,
      "Spe": 5766,
      "Emphasises": 5767,
      "SIS": 5768,
      "Ala": 5769,
      "licence": 5770,
      "Child": 5771,
      "duly": 5772,
      "relative": 5773,
      "Ney": 5774,
      "interested": 5775,
      "drivers": 5776,
      "ker": 5777,
      "ches": 5778,
      "jurisdiction": 5779,
      "allows": 5780,
      "tobac": 5781,
      "insi": 5782,
      "VII": 5783,
      "sam": 5784,
      "Arab": 5785,
      "uter": 5786,
      "demands": 5787,
      "favourable": 5788,
      "tile": 5789,
      "receipt": 5790,
      "attr": 5791,
      "tobacco": 5792,
      "gies": 5793,
      "seriously": 5794,
      "tore": 5795,
      "oming": 5796,
      "writing": 5797,
      "Thomas": 5798,
      "exchanges": 5799,
      "Reiterates": 5800,
      "ished": 5801,
      "sphere": 5802,
      "imported": 5803,
      "Neighbour": 5804,
      "Balk": 5805,
      "accompanying": 5806,
      "alone": 5807,
      "tool": 5808,
      "visi": 5809,
      "Marco": 5810,
      "Guidelines": 5811,
      "Deb": 5812,
      "ticip": 5813,
      "hazardous": 5814,
      "Pur": 5815,
      "Gaza": 5816,
      "rum": 5817,
      "itious": 5818,
      "investigate": 5819,
      "Leg": 5820,
      "ciliation": 5821,
      "consistency": 5822,
      "ez": 5823,
      "bann": 5824,
      "discuss": 5825,
      "ratification": 5826,
      "celona": 5827,
      "withdrawal": 5828,
      "fulf": 5829,
      "europa": 5830,
      "Barcelona": 5831,
      "acknowled": 5832,
      "specify": 5833,
      "appears": 5834,
      "cars": 5835,
      "civilian": 5836,
      "babwe": 5837,
      "unn": 5838,
      "resh": 5839,
      "Zimbabwe": 5840,
      "sovereign": 5841,
      "devices": 5842,
      "unable": 5843,
      "options": 5844,
      "Doc": 5845,
      "alter": 5846,
      "Ioannis": 5847,
      "housing": 5848,
      "incorporated": 5849,
      "Area": 5850,
      "881": 5851,
      "classification": 5852,
      "Ham": 5853,
      "aren": 5854,
      "reaching": 5855,
      "URAL": 5856,
      "reduc": 5857,
      "integrity": 5858,
      "Monitor": 5859,
      "encourages": 5860,
      "warn": 5861,
      "distinc": 5862,
      "fuels": 5863,
      "Dar": 5864,
      "gic": 5865,
      "vileg": 5866,
      "Staff": 5867,
      "iro": 5868,
      "fit": 5869,
      "sales": 5870,
      "beneficiaries": 5871,
      "contributing": 5872,
      "processed": 5873,
      "counterfe": 5874,
      "CM": 5875,
      "aba": 5876,
      "Initiative": 5877,
      "evaluate": 5878,
      "coherence": 5879,
      "Guid": 5880,
      "ops": 5881,
      "MA": 5882,
      "Solidarity": 5883,
      "abol": 5884,
      "emphasis": 5885,
      "apan": 5886,
      "fre": 5887,
      "anna": 5888,
      "cli": 5889,
      "composition": 5890,
      "securities": 5891,
      "hagen": 5892,
      "shows": 5893,
      "bara": 5894,
      "Japan": 5895,
      "EA": 5896,
      "breaches": 5897,
      "kis": 5898,
      "Mann": 5899,
      "Syria": 5900,
      "truction": 5901,
      "Democrats": 5902,
      "Baltic": 5903,
      "lifer": 5904,
      "inadequ": 5905,
      "notice": 5906,
      "curren": 5907,
      "alcohol": 5908,
      "uled": 5909,
      "nock": 5910,
      "AGE": 5911,
      "true": 5912,
      "Some": 5913,
      "ligence": 5914,
      "tender": 5915,
      "1990": 5916,
      "Eva": 5917,
      "late": 5918,
      "arri": 5919,
      "Underlines": 5920,
      "volume": 5921,
      "recalls": 5922,
      "spread": 5923,
      "hr": 5924,
      "execution": 5925,
      "classified": 5926,
      "él": 5927,
      "assessing": 5928,
      "ique": 5929,
      "justification": 5930,
      "Vote": 5931,
      "shares": 5932,
      "Youth": 5933,
      "Monitoring": 5934,
      "Institute": 5935,
      "losses": 5936,
      "win": 5937,
      "pursue": 5938,
      "ero": 5939,
      "ceiling": 5940,
      "Korea": 5941,
      "ika": 5942,
      "seeks": 5943,
      "omission": 5944,
      "NATO": 5945,
      "mix": 5946,
      "largest": 5947,
      "enhancing": 5948,
      "extr": 5949,
      "avy": 5950,
      "sides": 5951,
      "redund": 5952,
      "airports": 5953,
      "ratified": 5954,
      "CHAIR": 5955,
      "Yugo": 5956,
      "agents": 5957,
      "hope": 5958,
      "Slovenia": 5959,
      "hom": 5960,
      "ão": 5961,
      "Cer": 5962,
      "Jens": 5963,
      "achievement": 5964,
      "Bor": 5965,
      "ahead": 5966,
      "Su": 5967,
      "redi": 5968,
      "Wall": 5969,
      "ying": 5970,
      "ID": 5971,
      "treaty": 5972,
      "harmful": 5973,
      "virt": 5974,
      "updated": 5975,
      "Mas": 5976,
      "gres": 5977,
      "possibilities": 5978,
      "determining": 5979,
      "Franç": 5980,
      "ICT": 5981,
      "friendly": 5982,
      "Jar": 5983,
      "Kr": 5984,
      "assigned": 5985,
      "ambitious": 5986,
      "roo": 5987,
      "verify": 5988,
      "Kur": 5989,
      "mobilisation": 5990,
      "Neighbourhood": 5991,
      "proportionality": 5992,
      "comparable": 5993,
      "internet": 5994,
      "ISION": 5995,
      "1994": 5996,
      "161": 5997,
      "communicate": 5998,
      "promp": 5999,
      "ITS": 6000,
      "budgets": 6001,
      "Aid": 6002,
      "reinforce": 6003,
      "cis": 6004,
      "olf": 6005,
      "regrets": 6006,
      "completion": 6007,
      "ophob": 6008,
      "autonom": 6009,
      "NL": 6010,
      "ingredi": 6011,
      "Conclusion": 6012,
      "Sci": 6013,
      "minal": 6014,
      "BER": 6015,
      "partial": 6016,
      "cancer": 6017,
      "replies": 6018,
      "liferation": 6019,
      "atal": 6020,
      "oulos": 6021,
      "wider": 6022,
      "answered": 6023,
      "productive": 6024,
      "producer": 6025,
      "dispute": 6026,
      "timetable": 6027,
      "representing": 6028,
      "systematic": 6029,
      "Are": 6030,
      "requiring": 6031,
      "pilot": 6032,
      "UNC": 6033,
      "Administrative": 6034,
      "arek": 6035,
      "Conciliation": 6036,
      "tariff": 6037,
      "beings": 6038,
      "supplied": 6039,
      "1a": 6040,
      "transmitted": 6041,
      "solute": 6042,
      "bri": 6043,
      "underlying": 6044,
      "told": 6045,
      "covers": 6046,
      "certification": 6047,
      "flight": 6048,
      "discipline": 6049,
      "bear": 6050,
      "Commissioners": 6051,
      "Sit": 6052,
      "addressing": 6053,
      "120": 6054,
      "Er": 6055,
      "names": 6056,
      "allowances": 6057,
      "encouraged": 6058,
      "pring": 6059,
      "attack": 6060,
      "Democratic": 6061,
      "savings": 6062,
      "zon": 6063,
      "talks": 6064,
      "PT": 6065,
      "instruc": 6066,
      "manufacturers": 6067,
      "slaugh": 6068,
      "Work": 6069,
      "coastal": 6070,
      "Egypt": 6071,
      "optim": 6072,
      "eg": 6073,
      "satisfactory": 6074,
      "Moldova": 6075,
      "ès": 6076,
      "wording": 6077,
      "obliged": 6078,
      "lighting": 6079,
      "fem": 6080,
      "conclu": 6081,
      "proposing": 6082,
      "noise": 6083,
      "030": 6084,
      "bes": 6085,
      "Tannock": 6086,
      "PROCEDURAL": 6087,
      "Belgian": 6088,
      "Globalisation": 6089,
      "investors": 6090,
      "installations": 6091,
      "Roberta": 6092,
      "vacc": 6093,
      "loans": 6094,
      "Kyoto": 6095,
      "(+": 6096,
      "Gon": 6097,
      "Jer": 6098,
      "ül": 6099,
      "unit": 6100,
      "respectively": 6101,
      "Mu": 6102,
      "biom": 6103,
      "Adjust": 6104,
      "jointly": 6105,
      "daily": 6106,
      "Sak": 6107,
      "Pact": 6108,
      "plication": 6109,
      "interoper": 6110,
      "deterior": 6111,
      "thousands": 6112,
      "sures": 6113,
      "facts": 6114,
      "Regrets": 6115,
      "ennium": 6116,
      "scheduled": 6117,
      "debates": 6118,
      "located": 6119,
      "ownership": 6120,
      "Leban": 6121,
      "resi": 6122,
      "Second": 6123,
      "116": 6124,
      "veterinary": 6125,
      "Investment": 6126,
      "constant": 6127,
      "delivery": 6128,
      "foun": 6129,
      "dian": 6130,
      "ades": 6131,
      "strengthened": 6132,
      "sibly": 6133,
      "Bé": 6134,
      "otas": 6135,
      "customers": 6136,
      ")?": 6137,
      "band": 6138,
      "accountability": 6139,
      "dealt": 6140,
      "quiries": 6141,
      "neither": 6142,
      "verification": 6143,
      "pal": 6144,
      "previously": 6145,
      "core": 6146,
      "Pé": 6147,
      "EEAS": 6148,
      "Whereas": 6149,
      "owing": 6150,
      "foster": 6151,
      "yer": 6152,
      "absolute": 6153,
      "phone": 6154,
      "purchase": 6155,
      "hind": 6156,
      "transposition": 6157,
      "ensured": 6158,
      "youth": 6159,
      "assessed": 6160,
      "TR": 6161,
      "Commit": 6162,
      "Freedoms": 6163,
      "ases": 6164,
      "cycle": 6165,
      "Barroso": 6166,
      "Implementation": 6167,
      "PAGE": 6168,
      "marily": 6169,
      "commission": 6170,
      "changing": 6171,
      "starting": 6172,
      "Key": 6173,
      "Rad": 6174,
      "infringements": 6175,
      "arrested": 6176,
      "plores": 6177,
      "procedural": 6178,
      "dign": 6179,
      "Marg": 6180,
      "Serbia": 6181,
      "fighting": 6182,
      "ju": 6183,
      "mos": 6184,
      "openhagen": 6185,
      "sts": 6186,
      "Francis": 6187,
      "Copenhagen": 6188,
      "heavy": 6189,
      "validity": 6190,
      "conventions": 6191,
      "Ben": 6192,
      "Found": 6193,
      "enquiries": 6194,
      "Review": 6195,
      "spects": 6196,
      "Andreas": 6197,
      "Ale": 6198,
      "ith": 6199,
      "quotas": 6200,
      "Francesco": 6201,
      "Geneva": 6202,
      "elong": 6203,
      "Stav": 6204,
      "ène": 6205,
      "prene": 6206,
      "ulated": 6207,
      "PE46": 6208,
      "suspended": 6209,
      "city": 6210,
      "2015": 6211,
      "prescri": 6212,
      "Prize": 6213,
      "inking": 6214,
      "dos": 6215,
      "deficit": 6216,
      "lition": 6217,
      "prelimin": 6218,
      "abilisation": 6219,
      "increases": 6220,
      "suspension": 6221,
      "Paragraph": 6222,
      "preliminary": 6223,
      "Cre": 6224,
      "unacceptable": 6225,
      "interim": 6226,
      "Tim": 6227,
      "strict": 6228,
      "Criminal": 6229,
      "Dutch": 6230,
      "Luis": 6231,
      "AA": 6232,
      "vessel": 6233,
      "Recogn": 6234,
      "competences": 6235,
      "Minutes": 6236,
      "managing": 6237,
      "Jim": 6238,
      "incur": 6239,
      "veget": 6240,
      "porters": 6241,
      "fees": 6242,
      "convergence": 6243,
      "Sustain": 6244,
      "researchers": 6245,
      "attend": 6246,
      "campaigns": 6247,
      "%,": 6248,
      "Fernand": 6249,
      "Louis": 6250,
      "whereby": 6251,
      "hydro": 6252,
      "Millennium": 6253,
      "delays": 6254,
      "aceu": 6255,
      "153": 6256,
      "Maced": 6257,
      "108": 6258,
      "Mag": 6259,
      "path": 6260,
      "lief": 6261,
      "Kath": 6262,
      "contractual": 6263,
      "Lithuania": 6264,
      "celer": 6265,
      "ani": 6266,
      "outer": 6267,
      "defend": 6268,
      "handling": 6269,
      "cance": 6270,
      "rgen": 6271,
      "pel": 6272,
      "Adjustment": 6273,
      "primarily": 6274,
      "aceutical": 6275,
      "pending": 6276,
      "ński": 6277,
      "graphic": 6278,
      "Gio": 6279,
      "foodstuffs": 6280,
      "Fa": 6281,
      "ller": 6282,
      "advantages": 6283,
      "producing": 6284,
      "Accession": 6285,
      "globalisation": 6286,
      "Support": 6287,
      "rafts": 6288,
      "feasi": 6289,
      "Raül": 6290,
      "Elisabeth": 6291,
      "cities": 6292,
      "ive": 6293,
      "publicly": 6294,
      "sement": 6295,
      "Instit": 6296,
      "destruction": 6297,
      "passed": 6298,
      "zek": 6299,
      "consultations": 6300,
      "spital": 6301,
      "logy": 6302,
      "little": 6303,
      "satell": 6304,
      "preparations": 6305,
      "television": 6306,
      "tity": 6307,
      "accommod": 6308,
      "recommends": 6309,
      "Hél": 6310,
      "Schmidt": 6311,
      "lations": 6312,
      "degra": 6313,
      "refers": 6314,
      "Hélène": 6315,
      "threshold": 6316,
      "facilitating": 6317,
      "Foundation": 6318,
      "Parties": 6319,
      "negotiated": 6320,
      "ITAL": 6321,
      "Giov": 6322,
      "101": 6323,
      "search": 6324,
      "confidentiality": 6325,
      "Figue": 6326,
      "Symbols": 6327,
      "quickly": 6328,
      "eties": 6329,
      "mess": 6330,
      "adic": 6331,
      "solely": 6332,
      "Wer": 6333,
      "Stand": 6334,
      "250": 6335,
      "examined": 6336,
      "dissemination": 6337,
      "freight": 6338,
      "coll": 6339,
      "stein": 6340,
      "AB": 6341,
      "gers": 6342,
      "dependence": 6343,
      "citizenship": 6344,
      "Es": 6345,
      "sense": 6346,
      "TV": 6347,
      "Ho": 6348,
      "Anti": 6349,
      "Change": 6350,
      "Franço": 6351,
      "finally": 6352,
      "lost": 6353,
      "profit": 6354,
      "acek": 6355,
      "culation": 6356,
      "sof": 6357,
      "sections": 6358,
      "Burma": 6359,
      "Bernd": 6360,
      "connected": 6361,
      "Pierre": 6362,
      "plus": 6363,
      "Czar": 6364,
      "biofuels": 6365,
      "bid": 6366,
      "becoming": 6367,
      "impossible": 6368,
      "necki": 6369,
      "Libya": 6370,
      "Czarnecki": 6371,
      "determination": 6372,
      "cidal": 6373,
      "PHS": 6374,
      "Ilda": 6375,
      "Eurostat": 6376,
      "diplomatic": 6377,
      "ECD": 6378,
      "submission": 6379,
      "pread": 6380,
      "iredo": 6381,
      "Figueiredo": 6382,
      "vit": 6383,
      "ör": 6384,
      "fresh": 6385,
      "det": 6386,
      "adjustment": 6387,
      "controlled": 6388,
      "tu": 6389,
      "Finland": 6390,
      "mom": 6391,
      "banking": 6392,
      "RECITAL": 6393,
      "quan": 6394,
      "stimul": 6395,
      "dR": 6396,
      "Monica": 6397,
      "Meas": 6398,
      "insufficient": 6399,
      "charged": 6400,
      "analy": 6401,
      "CR": 6402,
      "ato": 6403,
      "removal": 6404,
      "socio": 6405,
      "nesses": 6406,
      "uz": 6407,
      "Proinsi": 6408,
      "deliber": 6409,
      "Proinsias": 6410,
      "Bow": 6411,
      "mort": 6412,
      "reconstruction": 6413,
      "1992": 6414,
      "oud": 6415,
      "bition": 6416,
      "prohibited": 6417,
      "Gonzá": 6418,
      "stages": 6419,
      "PE45": 6420,
      "quantities": 6421,
      "populations": 6422,
      "Chairman": 6423,
      "psy": 6424,
      "versities": 6425,
      "attain": 6426,
      "Bog": 6427,
      "Karin": 6428,
      "ester": 6429,
      "taxes": 6430,
      "played": 6431,
      "adaptation": 6432,
      "Sche": 6433,
      "flights": 6434,
      "vocational": 6435,
      "conclude": 6436,
      "offices": 6437,
      "Technical": 6438,
      "González": 6439,
      "location": 6440,
      "assurance": 6441,
      "electoral": 6442,
      "lingu": 6443,
      "crops": 6444,
      "Free": 6445,
      "els": 6446,
      "Nikola": 6447,
      "wides": 6448,
      "Process": 6449,
      "leng": 6450,
      "irable": 6451,
      "Angelilli": 6452,
      "quantity": 6453,
      "Specific": 6454,
      "inery": 6455,
      "team": 6456,
      "widespread": 6457,
      "fies": 6458,
      "putting": 6459,
      "Would": 6460,
      "incen": 6461,
      "guaranteeing": 6462,
      "subsequently": 6463,
      "Northern": 6464,
      "transferred": 6465,
      "Grow": 6466,
      "FdR": 6467,
      "Wo": 6468,
      "residents": 6469,
      "Integr": 6470,
      "Within": 6471,
      "vileges": 6472,
      "Rü": 6473,
      "inadequate": 6474,
      "lege": 6475,
      "Ly": 6476,
      "manag": 6477,
      "util": 6478,
      "diver": 6479,
      "Johannes": 6480,
      "ev": 6481,
      "capable": 6482,
      "Alain": 6483,
      "extending": 6484,
      "enses": 6485,
      "orizon": 6486,
      "Lab": 6487,
      "zio": 6488,
      "pled": 6489,
      "ruling": 6490,
      "Hol": 6491,
      "Bosn": 6492,
      "convin": 6493,
      "Ple": 6494,
      "completely": 6495,
      "omissions": 6496,
      "War": 6497,
      "behind": 6498,
      "comments": 6499,
      "suggests": 6500,
      "guidance": 6501,
      "toxic": 6502,
      "Nikolaos": 6503,
      "resource": 6504,
      "Rys": 6505,
      "reve": 6506,
      "Ryszard": 6507,
      "frame": 6508,
      "Iranian": 6509,
      "tin": 6510,
      "%.": 6511,
      "Why": 6512,
      "Open": 6513,
      "update": 6514,
      "join": 6515,
      "Salv": 6516,
      "era": 6517,
      "territories": 6518,
      "decreas": 6519,
      "Pi": 6520,
      "deployment": 6521,
      "Romanian": 6522,
      "engage": 6523,
      "nevertheless": 6524,
      "Over": 6525,
      "radi": 6526,
      "rew": 6527,
      "lays": 6528,
      "eradic": 6529,
      "recruit": 6530,
      "Fla": 6531,
      "helping": 6532,
      "oulou": 6533,
      "400": 6534,
      "applicants": 6535,
      "channel": 6536,
      "MS": 6537,
      "ppe": 6538,
      "reh": 6539,
      "belief": 6540,
      "database": 6541,
      "Bro": 6542,
      "simply": 6543,
      "definitions": 6544,
      "elder": 6545,
      "distance": 6546,
      "governed": 6547,
      "mur": 6548,
      "Alliance": 6549,
      "Giuse": 6550,
      "BA": 6551,
      "Jord": 6552,
      "delivered": 6553,
      "calculated": 6554,
      "fishery": 6555,
      "collected": 6556,
      "referen": 6557,
      "toler": 6558,
      "rapidly": 6559,
      "sil": 6560,
      "map": 6561,
      "Giuseppe": 6562,
      "edo": 6563,
      "persist": 6564,
      "unanimously": 6565,
      "112": 6566,
      "environmentally": 6567,
      "dynam": 6568,
      "offence": 6569,
      "Ts": 6570,
      "Environmental": 6571,
      "exemption": 6572,
      "Ram": 6573,
      "figure": 6574,
      "rant": 6575,
      "carriers": 6576,
      "worth": 6577,
      "flows": 6578,
      "privacy": 6579,
      "sports": 6580,
      "released": 6581,
      "Alban": 6582,
      "scre": 6583,
      "forcing": 6584,
      "recognises": 6585,
      "safeguards": 6586,
      "NR": 6587,
      "VIII": 6588,
      "ented": 6589,
      "expand": 6590,
      "hospital": 6591,
      "negotiation": 6592,
      "labor": 6593,
      "ín": 6594,
      "convic": 6595,
      "preparing": 6596,
      "pharmaceutical": 6597,
      "stable": 6598,
      "serv": 6599,
      "aculture": 6600,
      "currency": 6601,
      "moment": 6602,
      "reserve": 6603,
      "recycling": 6604,
      "summary": 6605,
      "exists": 6606,
      "furthermore": 6607,
      "playing": 6608,
      "insists": 6609,
      "ASP": 6610,
      "irds": 6611,
      "gap": 6612,
      "Santos": 6613,
      "requis": 6614,
      "PRO": 6615,
      "reductions": 6616,
      "bureau": 6617,
      "fear": 6618,
      "inations": 6619,
      "ora": 6620,
      "acceler": 6621,
      "clarification": 6622,
      "chos": 6623,
      "dens": 6624,
      "rees": 6625,
      "idal": 6626,
      "ventive": 6627,
      "stronger": 6628,
      "arming": 6629,
      "emor": 6630,
      "visas": 6631,
      "nit": 6632,
      "Sustainable": 6633,
      "exha": 6634,
      "officers": 6635,
      "Lambert": 6636,
      "green": 6637,
      "jeop": 6638,
      "nationality": 6639,
      "Som": 6640,
      "away": 6641,
      "hler": 6642,
      "Stock": 6643,
      "DI": 6644,
      "welcome": 6645,
      "exclusively": 6646,
      "From": 6647,
      "plural": 6648,
      "Soci": 6649,
      "Motion": 6650,
      "quota": 6651,
      "ends": 6652,
      "Before": 6653,
      "drafted": 6654,
      "older": 6655,
      "Ti": 6656,
      "admissible": 6657,
      "entreprene": 6658,
      "carrier": 6659,
      "permits": 6660,
      "combined": 6661,
      "Legis": 6662,
      "Estonia": 6663,
      "Drafts": 6664,
      "Conclusions": 6665,
      "ox": 6666,
      "prem": 6667,
      "town": 6668,
      "liers": 6669,
      "biocidal": 6670,
      "outermost": 6671,
      "ture": 6672,
      "itig": 6673,
      "Doha": 6674,
      "Lef": 6675,
      "integral": 6676,
      "balances": 6677,
      "simplification": 6678,
      "newsp": 6679,
      "herein": 6680,
      "widely": 6681,
      "eye": 6682,
      "Growth": 6683,
      "matically": 6684,
      "thorough": 6685,
      "rising": 6686,
      "pillar": 6687,
      "Federal": 6688,
      "object": 6689,
      "apparen": 6690,
      "warning": 6691,
      "expen": 6692,
      "selected": 6693,
      "ancy": 6694,
      "advoc": 6695,
      "executive": 6696,
      "Patric": 6697,
      "éndez": 6698,
      "'.": 6699,
      "Bus": 6700,
      "southern": 6701,
      "hon": 6702,
      "refuse": 6703,
      "Hy": 6704,
      "lika": 6705,
      "Access": 6706,
      "orientation": 6707,
      "occurred": 6708,
      "gle": 6709,
      "Janusz": 6710,
      "acio": 6711,
      "intermedi": 6712,
      "comparison": 6713,
      "usu": 6714,
      "slow": 6715,
      "gressive": 6716,
      "sold": 6717,
      "Watch": 6718,
      "Barbara": 6719,
      "certificates": 6720,
      "GMOs": 6721,
      "viation": 6722,
      "Swedish": 6723,
      "Situation": 6724,
      "timely": 6725,
      "refused": 6726,
      "vary": 6727,
      "BUDG": 6728,
      "oples": 6729,
      "COUNC": 6730,
      "presidential": 6731,
      "COUNCIL": 6732,
      "Jordan": 6733,
      "dignity": 6734,
      "possibly": 6735,
      "Bi": 6736,
      "1993": 6737,
      "geria": 6738,
      "calculation": 6739,
      "Klaus": 6740,
      "irregularities": 6741,
      "records": 6742,
      "aro": 6743,
      "double": 6744,
      "sue": 6745,
      "coordinate": 6746,
      "ultim": 6747,
      "features": 6748,
      "Vé": 6749,
      "chosen": 6750,
      "licences": 6751,
      "Ang": 6752,
      "corporate": 6753,
      "Should": 6754,
      "Macedonia": 6755,
      "eight": 6756,
      "biological": 6757,
      "ald": 6758,
      "consensus": 6759,
      "background": 6760,
      "dump": 6761,
      "Supports": 6762,
      "fal": 6763,
      "comment": 6764,
      "ILO": 6765,
      "DECISION": 6766,
      "phenomen": 6767,
      "vies": 6768,
      "administr": 6769,
      "jeopard": 6770,
      "adapted": 6771,
      "Tunisia": 6772,
      "Day": 6773,
      "OECD": 6774,
      "vast": 6775,
      "comings": 6776,
      "spectrum": 6777,
      "pesticides": 6778,
      "Giovanni": 6779,
      "hereinafter": 6780,
      "paralle": 6781,
      "easily": 6782,
      "Véron": 6783,
      "Véronique": 6784,
      "mine": 6785,
      "pipe": 6786,
      "oth": 6787,
      "female": 6788,
      "arbit": 6789,
      "remun": 6790,
      "observations": 6791,
      "cou": 6792,
      "Opinion": 6793,
      "Il": 6794,
      "destination": 6795,
      "Ps": 6796,
      "Sur": 6797,
      "Simp": 6798,
      "specifications": 6799,
      "computer": 6800,
      "minors": 6801,
      "20100": 6802,
      "survey": 6803,
      "ophobia": 6804,
      "ationally": 6805,
      "pez": 6806,
      "von": 6807,
      "disability": 6808,
      "adequately": 6809,
      "atform": 6810,
      "stations": 6811,
      "flu": 6812,
      "interinstitutional": 6813,
      "recorded": 6814,
      "partnerships": 6815,
      "extensive": 6816,
      "gent": 6817,
      "amongst": 6818,
      "preparatory": 6819,
      "pros": 6820,
      "kg": 6821,
      "Prof": 6822,
      "End": 6823,
      "refusal": 6824,
      "Luisa": 6825,
      "forum": 6826,
      "faced": 6827,
      "Danish": 6828,
      "ico": 6829,
      "discre": 6830,
      "Debate": 6831,
      "Bö": 6832,
      "Hu": 6833,
      "ELDR": 6834,
      "mitig": 6835,
      "defining": 6836,
      "infrastructures": 6837,
      "PD": 6838,
      "150": 6839,
      "machinery": 6840,
      "jection": 6841,
      "kop": 6842,
      "Scho": 6843,
      "Lud": 6844,
      "earth": 6845,
      "Institutions": 6846,
      "swi": 6847,
      "proliferation": 6848,
      "pensions": 6849,
      "built": 6850,
      "greg": 6851,
      "shortcomings": 6852,
      "Philippe": 6853,
      "DC": 6854,
      "CO2": 6855,
      "PBR": 6856,
      "valu": 6857,
      "University": 6858,
      "beneficiary": 6859,
      "vens": 6860,
      "causing": 6861,
      "professionals": 6862,
      "restrict": 6863,
      "iques": 6864,
      "chemicals": 6865,
      "Highlighting": 6866,
      "indeed": 6867,
      "Willi": 6868,
      "killed": 6869,
      "Agricultural": 6870,
      "Viet": 6871,
      "Ló": 6872,
      "regret": 6873,
      "Ign": 6874,
      "oman": 6875,
      "López": 6876,
      "offers": 6877,
      "identifying": 6878,
      "Four": 6879,
      "contacts": 6880,
      "abovementioned": 6881,
      "Pérez": 6882,
      "Regul": 6883,
      "consequence": 6884,
      "train": 6885,
      "Agreements": 6886,
      "undermine": 6887,
      "description": 6888,
      "book": 6889,
      "Cl": 6890,
      "tiana": 6891,
      "genetically": 6892,
      "satellite": 6893,
      "reiterates": 6894,
      "impacts": 6895,
      "waiver": 6896,
      "OM": 6897,
      "abuses": 6898,
      "Bulg": 6899,
      "expiry": 6900,
      "minister": 6901,
      "reviewed": 6902,
      "Fron": 6903,
      "Democracy": 6904,
      "oring": 6905,
      "putes": 6906,
      "Statement": 6907,
      "novation": 6908,
      "Balkans": 6909,
      "Equal": 6910,
      "FA": 6911,
      "tuna": 6912,
      "rique": 6913,
      "fires": 6914,
      "Costa": 6915,
      "petitions": 6916,
      "Hungarian": 6917,
      "science": 6918,
      "Kil": 6919,
      "Braz": 6920,
      "cs": 6921,
      "Del": 6922,
      "parallel": 6923,
      "2014": 6924,
      "airlines": 6925,
      "vatives": 6926,
      "Vietnam": 6927,
      "lod": 6928,
      "Christo": 6929,
      "emerging": 6930,
      "Islamic": 6931,
      "aming": 6932,
      "Drug": 6933,
      "engaged": 6934,
      "universities": 6935,
      "justify": 6936,
      "Muscard": 6937,
      "eliminate": 6938,
      "MDG": 6939,
      "interoperability": 6940,
      "Muscardini": 6941,
      "island": 6942,
      "documentation": 6943,
      "resolve": 6944,
      "Fe": 6945,
      "recital": 6946,
      "premises": 6947,
      "EDF": 6948,
      "Salvador": 6949,
      "zi": 6950,
      "Veld": 6951,
      "Coton": 6952,
      "textile": 6953,
      "eastern": 6954,
      "gave": 6955,
      "Secretariat": 6956,
      "leader": 6957,
      "renewed": 6958,
      "Cristiana": 6959,
      "lifelong": 6960,
      "dé": 6961,
      "undred": 6962,
      "Cotonou": 6963,
      "preventive": 6964,
      "ordination": 6965,
      "Dom": 6966,
      "tionary": 6967,
      "iles": 6968,
      "Undertaking": 6969,
      "techniques": 6970,
      "precau": 6971,
      "James": 6972,
      "running": 6973,
      "volution": 6974,
      "diox": 6975,
      "disclosure": 6976,
      "Bosnia": 6977,
      "Maritime": 6978,
      "Level": 6979,
      "woman": 6980,
      "999": 6981,
      "lles": 6982,
      "Vladim": 6983,
      "inees": 6984,
      "prospects": 6985,
      "Training": 6986,
      "persec": 6987,
      "players": 6988,
      "convinced": 6989,
      "anda": 6990,
      "diversi": 6991,
      "easier": 6992,
      "seekers": 6993,
      "ecke": 6994,
      "cease": 6995,
      "lyn": 6996,
      "shif": 6997,
      "hor": 6998,
      "employers": 6999,
      "aquaculture": 7000,
      "Tow": 7001,
      "exact": 7002,
      "dispar": 7003,
      "Na": 7004,
      "things": 7005,
      "depri": 7006,
      "renewal": 7007,
      "history": 7008,
      "oles": 7009,
      "PE47": 7010,
      "infec": 7011,
      ")),": 7012,
      "authorising": 7013,
      "tm": 7014,
      "affirms": 7015,
      "titude": 7016,
      "moved": 7017,
      "judge": 7018,
      "manage": 7019,
      "referendu": 7020,
      "wild": 7021,
      "dict": 7022,
      "Grand": 7023,
      "itology": 7024,
      "respecting": 7025,
      "compatibility": 7026,
      "repealing": 7027,
      "Syl": 7028,
      "delivering": 7029,
      "supervis": 7030,
      "Discussion": 7031,
      "brief": 7032,
      "Eurojust": 7033,
      "Red": 7034,
      "manufacturing": 7035,
      "Edit": 7036,
      "(\"": 7037,
      "tia": 7038,
      "activis": 7039,
      "complementary": 7040,
      "Tam": 7041,
      "sumed": 7042,
      "ingredients": 7043,
      "Committees": 7044,
      "urged": 7045,
      "afford": 7046,
      "abolition": 7047,
      "horizon": 7048,
      "annexed": 7049,
      "Christoph": 7050,
      "approaches": 7051,
      "tradition": 7052,
      "Mex": 7053,
      "ulate": 7054,
      "fif": 7055,
      "Bec": 7056,
      "Impro": 7057,
      "Fon": 7058,
      "huge": 7059,
      "arise": 7060,
      "shr": 7061,
      ".../": 7062,
      "Silk": 7063,
      "1605": 7064,
      "pursued": 7065,
      ",\"": 7066,
      "uk": 7067,
      "öt": 7068,
      "Colom": 7069,
      "Natura": 7070,
      "demonstrate": 7071,
      "Last": 7072,
      "arbitr": 7073,
      "obtaining": 7074,
      "Bulgarian": 7075,
      "Enh": 7076,
      "fleet": 7077,
      "inserted": 7078,
      "ditions": 7079,
      "considerations": 7080,
      "navig": 7081,
      "aiming": 7082,
      "Ear": 7083,
      "MAR": 7084,
      "Don": 7085,
      "ially": 7086,
      "audits": 7087,
      "Kilroy": 7088,
      "establishes": 7089,
      "Supervis": 7090,
      "wants": 7091,
      "resident": 7092,
      "ductory": 7093,
      "consolidated": 7094,
      "lists": 7095,
      "expenses": 7096,
      "Brazil": 7097,
      "station": 7098,
      "recruitment": 7099,
      "orio": 7100,
      "align": 7101,
      "cat": 7102,
      "Ord": 7103,
      "Comp": 7104,
      "Labour": 7105,
      "prosper": 7106,
      "isations": 7107,
      "explicitly": 7108,
      "activists": 7109,
      "Assess": 7110,
      "Henri": 7111,
      "Gros": 7112,
      "deleted": 7113,
      "ilo": 7114,
      "abroad": 7115,
      "Left": 7116,
      "enci": 7117,
      "vince": 7118,
      "ake": 7119,
      "hundred": 7120,
      "Marc": 7121,
      "relate": 7122,
      "detri": 7123,
      "lides": 7124,
      "embar": 7125,
      "forests": 7126,
      "river": 7127,
      "ija": 7128,
      "remove": 7129,
      "Towards": 7130,
      "signing": 7131,
      "requisite": 7132,
      "itta": 7133,
      "Kaz": 7134,
      "restrictive": 7135,
      "observers": 7136,
      "approximately": 7137,
      "civilians": 7138,
      "IR": 7139,
      "conferences": 7140,
      "subs": 7141,
      "derived": 7142,
      "provisional": 7143,
      "mag": 7144,
      "enberg": 7145,
      "ENVI": 7146,
      "selt": 7147,
      "nutrition": 7148,
      "Relations": 7149,
      "violent": 7150,
      "Keyser": 7151,
      "legisl": 7152,
      "acquired": 7153,
      "deaths": 7154,
      "Sol": 7155,
      "secondary": 7156,
      "movements": 7157,
      "disputes": 7158,
      "parents": 7159,
      "Carol": 7160,
      "stantin": 7161,
      "performed": 7162,
      "Many": 7163,
      "yle": 7164,
      "establishments": 7165,
      "ized": 7166,
      "2a": 7167,
      "BE": 7168,
      "utor": 7169,
      "gov": 7170,
      "lot": 7171,
      "models": 7172,
      "shar": 7173,
      "mium": 7174,
      "Posselt": 7175,
      "bing": 7176,
      "organise": 7177,
      "Approval": 7178,
      "Hor": 7179,
      "prospect": 7180,
      "plit": 7181,
      "Rem": 7182,
      "gments": 7183,
      "138": 7184,
      "slaughter": 7185,
      "coal": 7186,
      "codecision": 7187,
      "expresses": 7188,
      "Riitta": 7189,
      "Requ": 7190,
      "Buzek": 7191,
      "cycl": 7192,
      "Peace": 7193,
      "thi": 7194,
      "REV": 7195,
      "Pöt": 7196,
      "Galile": 7197,
      "decentral": 7198,
      "Pöttering": 7199,
      "Ice": 7200,
      "ló": 7201,
      "goes": 7202,
      "harov": 7203,
      "continuous": 7204,
      "bir": 7205,
      "Christa": 7206,
      "replacing": 7207,
      "enlar": 7208,
      "proof": 7209,
      "postal": 7210,
      "decides": 7211,
      "exc": 7212,
      "recas": 7213,
      "fine": 7214,
      "suffered": 7215,
      "edi": 7216,
      "Sakharov": 7217,
      "Woj": 7218,
      "Elmar": 7219,
      "Brian": 7220,
      "Galileo": 7221,
      "division": 7222,
      "Angelika": 7223,
      "refugee": 7224,
      "RULES": 7225,
      "Werner": 7226,
      "Men": 7227,
      "gir": 7228,
      "Simon": 7229,
      "choose": 7230,
      "Supervisory": 7231,
      "Nich": 7232,
      "seat": 7233,
      "expert": 7234,
      "cash": 7235,
      "Wojci": 7236,
      "Dr": 7237,
      "Reform": 7238,
      "ranca": 7239,
      "Panay": 7240,
      "accum": 7241,
      "Salaf": 7242,
      "signatures": 7243,
      "expects": 7244,
      "introductory": 7245,
      "leaving": 7246,
      "reti": 7247,
      "liable": 7248,
      "iew": 7249,
      "presidency": 7250,
      "Iceland": 7251,
      "Emil": 7252,
      "retain": 7253,
      "complied": 7254,
      "än": 7255,
      "peoples": 7256,
      "Latvia": 7257,
      "route": 7258,
      "unnecessary": 7259,
      "Lá": 7260,
      "irrespective": 7261,
      "earing": 7262,
      "came": 7263,
      "Gert": 7264,
      "bad": 7265,
      "destroy": 7266,
      "ization": 7267,
      "sought": 7268,
      "capacities": 7269,
      "direction": 7270,
      "Lebanon": 7271,
      "Coun": 7272,
      "transaction": 7273,
      "Tomas": 7274,
      "allo": 7275,
      "informal": 7276,
      "temper": 7277,
      "simple": 7278,
      "birth": 7279,
      "belonging": 7280,
      "Kam": 7281,
      "Mob": 7282,
      "moving": 7283,
      "Never": 7284,
      "advanced": 7285,
      "incurred": 7286,
      "strictly": 7287,
      "unal": 7288,
      "noting": 7289,
      "feel": 7290,
      "potentially": 7291,
      "Tibet": 7292,
      "tier": 7293,
      "Confed": 7294,
      "bench": 7295,
      "exceeding": 7296,
      "Lász": 7297,
      "FF": 7298,
      "Kor": 7299,
      "prob": 7300,
      "removed": 7301,
      "distributed": 7302,
      "ingent": 7303,
      "forestry": 7304,
      "initiated": 7305,
      "started": 7306,
      "lasting": 7307,
      "ermen": 7308,
      "Consequ": 7309,
      "Bart": 7310,
      "reveal": 7311,
      "inen": 7312,
      "petr": 7313,
      "transatlantic": 7314,
      "Qual": 7315,
      "aria": 7316,
      "pollut": 7317,
      "ratify": 7318,
      "drafting": 7319,
      "László": 7320,
      "vated": 7321,
      "Salafranca": 7322,
      "Road": 7323,
      "suggest": 7324,
      "donors": 7325,
      "Vitt": 7326,
      "usion": 7327,
      "atric": 7328,
      "ull": 7329,
      "perpetr": 7330,
      "suffer": 7331,
      "JU": 7332,
      "difference": 7333,
      "Tomasz": 7334,
      "Vittorio": 7335,
      "merely": 7336,
      "recommended": 7337,
      "Pet": 7338,
      "ole": 7339,
      "suppliers": 7340,
      "reflected": 7341,
      "cury": 7342,
      "Newton": 7343,
      "quarter": 7344,
      "utory": 7345,
      "intelligence": 7346,
      "seats": 7347,
      "Norway": 7348,
      "instructions": 7349,
      "DF": 7350,
      "nd": 7351,
      "urgently": 7352,
      ")).": 7353,
      "TIONS": 7354,
      "learn": 7355,
      "simplified": 7356,
      "tot": 7357,
      "Dunn": 7358,
      "aer": 7359,
      "Bet": 7360,
      "trend": 7361,
      "Tri": 7362,
      "vy": 7363,
      "selling": 7364,
      "resulted": 7365,
      "Atlantic": 7366,
      "specialised": 7367,
      "Electr": 7368,
      "attempt": 7369,
      "remarks": 7370,
      "Mit": 7371,
      "rey": 7372,
      "Prodi": 7373,
      "Swit": 7374,
      "installation": 7375,
      "Nevertheless": 7376,
      "entering": 7377,
      "satisfied": 7378,
      "P7_TA": 7379,
      "Ordinary": 7380,
      "smooth": 7381,
      "Joseph": 7382,
      "Water": 7383,
      "Mik": 7384,
      "intensi": 7385,
      "TH": 7386,
      "Renate": 7387,
      "PV": 7388,
      "ICATION": 7389,
      "remedy": 7390,
      "Miguel": 7391,
      "Françoise": 7392,
      "advis": 7393,
      "Caroline": 7394,
      "icz": 7395,
      "ury": 7396,
      "Ty": 7397,
      "Measures": 7398,
      "Diana": 7399,
      "survi": 7400,
      "fulfilled": 7401,
      "asing": 7402,
      "sian": 7403,
      "elect": 7404,
      "label": 7405,
      "Custo": 7406,
      "minis": 7407,
      "Cuba": 7408,
      "rehabil": 7409,
      "Vol": 7410,
      "kakis": 7411,
      "accurate": 7412,
      "EMPL": 7413,
      "600": 7414,
      "none": 7415,
      "shipping": 7416,
      "Gabriele": 7417,
      "observed": 7418,
      "Annexes": 7419,
      "ICC": 7420,
      "Chamber": 7421,
      "Fac": 7422,
      "annually": 7423,
      "IMF": 7424,
      "zerland": 7425,
      "Switzerland": 7426,
      "RC": 7427,
      "remuneration": 7428,
      "imer": 7429,
      "tam": 7430,
      "consequently": 7431,
      "constructive": 7432,
      "Ques": 7433,
      "Presentation": 7434,
      "Shar": 7435,
      "powered": 7436,
      "prud": 7437,
      "overcome": 7438,
      "modal": 7439,
      "swift": 7440,
      "neu": 7441,
      "PC": 7442,
      "cht": 7443,
      "arrangement": 7444,
      "Questions": 7445,
      "B5": 7446,
      "ír": 7447,
      "reconciliation": 7448,
      "assent": 7449,
      "Objec": 7450,
      "prefer": 7451,
      "iary": 7452,
      "Provision": 7453,
      "norm": 7454,
      "sell": 7455,
      "hearings": 7456,
      "Only": 7457,
      "equally": 7458,
      "Seán": 7459,
      "Mauro": 7460,
      "endorsed": 7461,
      "Oed": 7462,
      "linguistic": 7463,
      "Milan": 7464,
      "Dü": 7465,
      "Rein": 7466,
      "principal": 7467,
      "Recognises": 7468,
      "Customs": 7469,
      "Geringer": 7470,
      "referendum": 7471,
      "Oedenberg": 7472,
      "Ministerial": 7473,
      "broadcasting": 7474,
      "cla": 7475,
      "suggestions": 7476,
      "stating": 7477,
      "ony": 7478,
      "rape": 7479,
      "horizontal": 7480,
      "jour": 7481,
      "ils": 7482,
      "Valenci": 7483,
      "Ari": 7484,
      "Goals": 7485,
      "elderly": 7486,
      "gencies": 7487,
      "Darfur": 7488,
      "Produc": 7489,
      "Karl": 7490,
      "inal": 7491,
      "arti": 7492,
      "burg": 7493,
      "Danu": 7494,
      "worker": 7495,
      "quests": 7496,
      "Strategic": 7497,
      "ventions": 7498,
      "Bon": 7499,
      "art": 7500,
      "Intel": 7501,
      "authorise": 7502,
      "College": 7503,
      "rence": 7504,
      "AGEN": 7505,
      "bran": 7506,
      "wage": 7507,
      "enė": 7508,
      "claimed": 7509,
      "municipal": 7510,
      "Case": 7511,
      "Desp": 7512,
      "Soph": 7513,
      "fishermen": 7514,
      "speaking": 7515,
      "aspect": 7516,
      "Staes": 7517,
      "Out": 7518,
      "aband": 7519,
      "Schul": 7520,
      "Elena": 7521,
      "Mary": 7522,
      "organisms": 7523,
      "Dal": 7524,
      "licens": 7525,
      "Europeans": 7526,
      "1st": 7527,
      "tackling": 7528,
      "desirable": 7529,
      "indications": 7530,
      "patient": 7531,
      "ethical": 7532,
      "Despite": 7533,
      "promoted": 7534,
      "demographic": 7535,
      "Heads": 7536,
      "wood": 7537,
      "irk": 7538,
      "ESF": 7539,
      "Heinz": 7540,
      "igi": 7541,
      "ardo": 7542,
      "Ref": 7543,
      "assisted": 7544,
      "undering": 7545,
      "km": 7546,
      "alternatives": 7547,
      "Neyra": 7548,
      "entitle": 7549,
      "block": 7550,
      "journe": 7551,
      "heard": 7552,
      ".,": 7553,
      "rios": 7554,
      "died": 7555,
      "legitimacy": 7556,
      "Castro": 7557,
      "falls": 7558,
      "ende": 7559,
      "crew": 7560,
      "prohibition": 7561,
      "forming": 7562,
      "Addi": 7563,
      "isk": 7564,
      "prove": 7565,
      "Sarah": 7566,
      "JHA": 7567,
      "gel": 7568,
      "utmost": 7569,
      "Olle": 7570,
      "navigation": 7571,
      "ni": 7572,
      "ral": 7573,
      "endar": 7574,
      "acade": 7575,
      "mother": 7576,
      "repeatedly": 7577,
      "govina": 7578,
      "restore": 7579,
      "outstanding": 7580,
      "owners": 7581,
      "gases": 7582,
      "Miros": 7583,
      "substantive": 7584,
      "borne": 7585,
      "Brok": 7586,
      "demonstrated": 7587,
      "proved": 7588,
      "Requests": 7589,
      "mineral": 7590,
      "mainstreaming": 7591,
      "safeguarding": 7592,
      "northern": 7593,
      "adim": 7594,
      "aug": 7595,
      "ongly": 7596,
      "intensive": 7597,
      "Slovakia": 7598,
      "enlarged": 7599,
      "Schulz": 7600,
      "JUS": 7601,
      "excell": 7602,
      "struction": 7603,
      "defenders": 7604,
      "Konrad": 7605,
      "fix": 7606,
      "freely": 7607,
      "radioactive": 7608,
      "administrations": 7609,
      "blood": 7610,
      "Garri": 7611,
      "zones": 7612,
      "timber": 7613,
      "inflation": 7614,
      "codified": 7615,
      "please": 7616,
      "ligent": 7617,
      "Rosa": 7618,
      "Herze": 7619,
      "banned": 7620,
      "incidents": 7621,
      "summer": 7622,
      "officer": 7623,
      "gines": 7624,
      "hygi": 7625,
      "dep": 7626,
      "Gy": 7627,
      "Kal": 7628,
      "enshr": 7629,
      "founded": 7630,
      "isol": 7631,
      "codes": 7632,
      "contamination": 7633,
      "neutr": 7634,
      "Herzegovina": 7635,
      "\")": 7636,
      "ova": 7637,
      "news": 7638,
      "Des": 7639,
      "crises": 7640,
      "Silvia": 7641,
      "isive": 7642,
      "thereto": 7643,
      "Use": 7644,
      "junction": 7645,
      "page": 7646,
      "rational": 7647,
      "shore": 7648,
      "observation": 7649,
      "Csaba": 7650,
      "pling": 7651,
      "Luigi": 7652,
      "demonstration": 7653,
      "deploy": 7654,
      "paying": 7655,
      "director": 7656,
      "Camp": 7657,
      "Assessment": 7658,
      "archit": 7659,
      "ss": 7660,
      "internationally": 7661,
      "tega": 7662,
      "vency": 7663,
      "preserve": 7664,
      "enna": 7665,
      "uno": 7666,
      "Contr": 7667,
      "distinction": 7668,
      "GM": 7669,
      "tariffs": 7670,
      "hopes": 7671,
      "Society": 7672,
      "conditional": 7673,
      "indirectly": 7674,
      "detained": 7675,
      "chapter": 7676,
      "EPA": 7677,
      "Third": 7678,
      "Prevention": 7679,
      "ilia": 7680,
      "Conduct": 7681,
      "Islands": 7682,
      "avoiding": 7683,
      "TIF": 7684,
      "Guaran": 7685,
      "sittings": 7686,
      "Appropri": 7687,
      ".’": 7688,
      "ček": 7689,
      "rog": 7690,
      "partment": 7691,
      "combination": 7692,
      "Canada": 7693,
      "statutory": 7694,
      "Election": 7695,
      "hrkop": 7696,
      "Dührkop": 7697,
      "inside": 7698,
      ".....": 7699,
      "pris": 7700,
      "Congo": 7701,
      "migrant": 7702,
      "Ortega": 7703,
      "ková": 7704,
      "thematic": 7705,
      "Medicin": 7706,
      "Assistance": 7707,
      "pattern": 7708,
      "incident": 7709,
      "My": 7710,
      "poly": 7711,
      "urge": 7712,
      "Encoura": 7713,
      "phenomenon": 7714,
      "considerably": 7715,
      "Was": 7716,
      "donor": 7717,
      "restriction": 7718,
      "oda": 7719,
      "occupational": 7720,
      "entrust": 7721,
      "ISS": 7722,
      "preci": 7723,
      "decisive": 7724,
      "Austrian": 7725,
      "diagno": 7726,
      "lining": 7727,
      "length": 7728,
      "ee": 7729,
      "roz": 7730,
      "farms": 7731,
      "suspected": 7732,
      "eyer": 7733,
      "Carl": 7734,
      "voice": 7735,
      "Medina": 7736,
      "SH": 7737,
      "wanted": 7738,
      "Albert": 7739,
      "Rodi": 7740,
      "parent": 7741,
      "Media": 7742,
      "reality": 7743,
      "Jerzy": 7744,
      "Ludford": 7745,
      "bner": 7746,
      "clin": 7747,
      "mercury": 7748,
      "ascertain": 7749,
      "endor": 7750,
      "POL": 7751,
      "cau": 7752,
      "pir": 7753,
      "offering": 7754,
      "Dimitrios": 7755,
      "clarity": 7756,
      "glish": 7757,
      "differenti": 7758,
      "generated": 7759,
      "historical": 7760,
      "han": 7761,
      "114": 7762,
      "smaller": 7763,
      "south": 7764,
      "slav": 7765,
      "185": 7766,
      "Kac": 7767,
      "Meyer": 7768,
      "itative": 7769,
      "judiciary": 7770,
      "pure": 7771,
      "engines": 7772,
      "Conditions": 7773,
      "acceptance": 7774,
      "travelling": 7775,
      "borg": 7776,
      "005": 7777,
      "mines": 7778,
      "Yugoslav": 7779,
      "sight": 7780,
      "Ana": 7781,
      "hence": 7782,
      "inland": 7783,
      "dual": 7784,
      "trends": 7785,
      "deadlines": 7786,
      "Mission": 7787,
      "hoc": 7788,
      "haz": 7789,
      "UCITS": 7790,
      "Bill": 7791,
      "Flo": 7792,
      "weigh": 7793,
      "stitutes": 7794,
      "Advisory": 7795,
      "Pack": 7796,
      "andum": 7797,
      "apers": 7798,
      "integrate": 7799,
      "Graham": 7800,
      "indicative": 7801,
      "emorandum": 7802,
      "originating": 7803,
      "derogations": 7804,
      "frequently": 7805,
      "')": 7806,
      "format": 7807,
      "advisory": 7808,
      "driver": 7809,
      "NA": 7810,
      "Web": 7811,
      "ecological": 7812,
      "auer": 7813,
      "suspend": 7814,
      "roll": 7815,
      "oure": 7816,
      "ENP": 7817,
      "healthy": 7818,
      "surface": 7819,
      "Directorate": 7820,
      "Pursu": 7821,
      "roaming": 7822,
      "Paris": 7823,
      "ancies": 7824,
      "tock": 7825,
      "subjects": 7826,
      "itored": 7827,
      "sis": 7828,
      "rip": 7829,
      "partly": 7830,
      "chet": 7831,
      "Room": 7832,
      "dynamic": 7833,
      "ageing": 7834,
      "monitored": 7835,
      "economically": 7836,
      "Herbert": 7837,
      "indi": 7838,
      "coverage": 7839,
      "dumping": 7840,
      "orest": 7841,
      "hl": 7842,
      "Barn": 7843,
      "FM": 7844,
      "mous": 7845,
      "becomes": 7846,
      "credibility": 7847,
      "opoulou": 7848,
      "English": 7849,
      "breakdown": 7850,
      "blue": 7851,
      "quantitative": 7852,
      "Nuclear": 7853,
      "atori": 7854,
      "ACH": 7855,
      "preceding": 7856,
      "ountain": 7857,
      "additives": 7858,
      "accred": 7859,
      "correspond": 7860,
      "girls": 7861,
      "Gér": 7862,
      "adding": 7863,
      "9999": 7864,
      "Davies": 7865,
      "telecommunications": 7866,
      "Innovation": 7867,
      "oboda": 7868,
      "initiate": 7869,
      "profile": 7870,
      "Gérard": 7871,
      "Q999": 7872,
      "hin": 7873,
      "reaction": 7874,
      "Legislative": 7875,
      "AGENDA": 7876,
      "ieu": 7877,
      "fourth": 7878,
      "ál": 7879,
      "harass": 7880,
      "zej": 7881,
      "GB": 7882,
      "aten": 7883,
      "racism": 7884,
      "zes": 7885,
      "else": 7886,
      "Kris": 7887,
      "cused": 7888,
      "Swoboda": 7889,
      "3a": 7890,
      "focused": 7891,
      "file": 7892,
      "societies": 7893,
      "Perven": 7894,
      "persecution": 7895,
      "treaties": 7896,
      "Stavros": 7897,
      "Pervenche": 7898,
      "SK": 7899,
      "complies": 7900,
      "stood": 7901,
      "kin": 7902,
      "fault": 7903,
      "unil": 7904,
      "porter": 7905,
      "lawful": 7906,
      "atories": 7907,
      "cuts": 7908,
      "Jacek": 7909,
      "syner": 7910,
      "pluralism": 7911,
      "iten": 7912,
      "Governments": 7913,
      "gues": 7914,
      "condemns": 7915,
      "wan": 7916,
      "Chechn": 7917,
      "nine": 7918,
      "ledo": 7919,
      "Gö": 7920,
      "laundering": 7921,
      "underlined": 7922,
      "counterfeiting": 7923,
      "Garriga": 7924,
      "ribunal": 7925,
      "Pursuant": 7926,
      "Wolf": 7927,
      "valuation": 7928,
      "viable": 7929,
      "conjunction": 7930,
      "marri": 7931,
      "gibility": 7932,
      "automatically": 7933,
      "largely": 7934,
      "constituent": 7935,
      "bs": 7936,
      "enophobia": 7937,
      "subjected": 7938,
      "track": 7939,
      "continuation": 7940,
      "Dep": 7941,
      "clauses": 7942,
      "1989": 7943,
      "Polledo": 7944,
      "feeding": 7945,
      "Bogus": 7946,
      "Chechnya": 7947,
      "OW": 7948,
      "breed": 7949,
      "regardless": 7950,
      "invites": 7951,
      "saying": 7952,
      "JURI": 7953,
      "Guarantee": 7954,
      "Hannes": 7955,
      "rell": 7956,
      "victim": 7957,
      "finances": 7958,
      "ITRE": 7959,
      "Marek": 7960,
      "football": 7961,
      "gage": 7962,
      "illegally": 7963,
      "Erik": 7964,
      "Guido": 7965,
      "Dam": 7966,
      "Willy": 7967,
      "Dialogue": 7968,
      "dedic": 7969,
      "1991": 7970,
      "prohibit": 7971,
      "het": 7972,
      "examining": 7973,
      "Iraqi": 7974,
      "PP": 7975,
      "atorium": 7976,
      "agar": 7977,
      "Aviation": 7978,
      "Ins": 7979,
      "consolidation": 7980,
      "Kelam": 7981,
      "Paulo": 7982,
      "exposed": 7983,
      "Enhanced": 7984,
      "rehabilitation": 7985,
      "sumption": 7986,
      "uli": 7987,
      "tick": 7988,
      "admitted": 7989,
      "genous": 7990,
      "occupation": 7991,
      "disparities": 7992,
      "TRI": 7993,
      "extraordinary": 7994,
      "rever": 7995,
      "involves": 7996,
      "prevented": 7997,
      "Statis": 7998,
      "bureauc": 7999,
      "CFP": 8000,
      "Sever": 8001,
      "dol": 8002,
      "gna": 8003,
      "trace": 8004,
      "opposed": 8005,
      "umn": 8006,
      "indicating": 8007,
      "exemptions": 8008,
      "óz": 8009,
      "inhabit": 8010,
      "excluding": 8011,
      "cooper": 8012,
      "Franz": 8013,
      "Jac": 8014,
      "Nord": 8015,
      "acking": 8016,
      "constra": 8017,
      "simplify": 8018,
      "Future": 8019,
      "gins": 8020,
      "variety": 8021,
      "fails": 8022,
      "Insists": 8023,
      "leadership": 8024,
      "imbalances": 8025,
      "atically": 8026,
      "modifications": 8027,
      "vič": 8028,
      "calendar": 8029,
      "matern": 8030,
      "Christopher": 8031,
      "Lon": 8032,
      "odor": 8033,
      "deeply": 8034,
      "prisonment": 8035,
      "Tele": 8036,
      "encing": 8037,
      "progressive": 8038,
      "sidy": 8039,
      "excise": 8040,
      "emphasised": 8041,
      "structured": 8042,
      "JO": 8043,
      "culti": 8044,
      "5a": 8045,
      "lem": 8046,
      "Sarnez": 8047,
      "ingu": 8048,
      "Ayala": 8049,
      "hygiene": 8050,
      "pec": 8051,
      "seed": 8052,
      "minute": 8053,
      "privileges": 8054,
      "transnational": 8055,
      "functional": 8056,
      "speakers": 8057,
      "insist": 8058,
      "multiple": 8059,
      "MED": 8060,
      "atsa": 8061,
      "Mexico": 8062,
      "lymp": 8063,
      "Coven": 8064,
      "Tunne": 8065,
      "doubt": 8066,
      "Kou": 8067,
      "backed": 8068,
      "prosperity": 8069,
      "Józ": 8070,
      "answers": 8071,
      "Sender": 8072,
      "anticip": 8073,
      "riz": 8074,
      "Joanna": 8075,
      "Bogusław": 8076,
      "Sam": 8077,
      "Recommends": 8078,
      "prosecution": 8079,
      "normally": 8080,
      "IE": 8081,
      "accused": 8082,
      "ESDP": 8083,
      "fost": 8084,
      "transmit": 8085,
      "neighbourhood": 8086,
      "remin": 8087,
      "oured": 8088,
      "Che": 8089,
      "brea": 8090,
      "designation": 8091,
      "exhaust": 8092,
      "bek": 8093,
      "bian": 8094,
      "ETS": 8095,
      "thought": 8096,
      "incompatible": 8097,
      "istel": 8098,
      "automatic": 8099,
      "Mand": 8100,
      "Kratsa": 8101,
      "islands": 8102,
      "AU": 8103,
      "proven": 8104,
      "decline": 8105,
      "Princi": 8106,
      "Hig": 8107,
      "Olymp": 8108,
      "qualities": 8109,
      "necessarily": 8110,
      "courses": 8111,
      "stead": 8112,
      "newspaper": 8113,
      "birds": 8114,
      "uncertainty": 8115,
      "ultane": 8116,
      "teachers": 8117,
      "Higgins": 8118,
      "Math": 8119,
      "PNR": 8120,
      "Rail": 8121,
      "systematically": 8122,
      "hit": 8123,
      "tware": 8124,
      "relief": 8125,
      "spot": 8126,
      "London": 8127,
      "withstanding": 8128,
      "Sepp": 8129,
      "recognising": 8130,
      "biomass": 8131,
      "inclusive": 8132,
      "brid": 8133,
      "front": 8134,
      "moratorium": 8135,
      "teen": 8136,
      "composed": 8137,
      "invite": 8138,
      "trials": 8139,
      "Borrell": 8140,
      "endeav": 8141,
      "render": 8142,
      "Comb": 8143,
      "adjustments": 8144,
      "allegations": 8145,
      "urt": 8146,
      "imprisonment": 8147,
      "retire": 8148,
      "Black": 8149,
      "oui": 8150,
      "Adri": 8151,
      "threatened": 8152,
      ".....................................": 8153,
      "successfully": 8154,
      "Tsagar": 8155,
      "Blo": 8156,
      "Pac": 8157,
      "Pay": 8158,
      "ERDF": 8159,
      "osis": 8160,
      "Scientific": 8161,
      "ishing": 8162,
      "earmarked": 8163,
      "Ant": 8164,
      "productivity": 8165,
      "modification": 8166,
      "Cur": 8167,
      "acced": 8168,
      "transl": 8169,
      "psych": 8170,
      "Tsagaropoulou": 8171,
      ".”": 8172,
      "fill": 8173,
      "Heading": 8174,
      "Wallis": 8175,
      "Khad": 8176,
      "therein": 8177,
      "precautionary": 8178,
      "reloc": 8179,
      "conventional": 8180,
      "meets": 8181,
      "Nice": 8182,
      "comitology": 8183,
      "Count": 8184,
      "stipulates": 8185,
      "Cari": 8186,
      "Art": 8187,
      "TIFICATION": 8188,
      "104": 8189,
      "versary": 8190,
      "Adriana": 8191,
      "intra": 8192,
      "exceptions": 8193,
      "exclude": 8194,
      "Sah": 8195,
      "architect": 8196,
      "cz": 8197,
      "umber": 8198,
      "assembly": 8199,
      "depth": 8200,
      "Vil": 8201,
      "XX": 8202,
      "Which": 8203,
      "necessity": 8204,
      "mediation": 8205,
      "Socialist": 8206,
      "Every": 8207,
      "una": 8208,
      "276": 8209,
      "Bat": 8210,
      "arma": 8211,
      "Cau": 8212,
      "Gill": 8213,
      "insu": 8214,
      "outline": 8215,
      "references": 8216,
      "Seven": 8217,
      "Guine": 8218,
      "reception": 8219,
      "livestock": 8220,
      "occasions": 8221,
      "dorf": 8222,
      "incentive": 8223,
      "Mathieu": 8224,
      "formally": 8225,
      "umb": 8226,
      "camps": 8227,
      "simultane": 8228,
      "Ba": 8229,
      "authorisations": 8230,
      "mir": 8231,
      "ballot": 8232,
      "imposing": 8233,
      "tene": 8234,
      "translation": 8235,
      "IIA": 8236,
      "pharmac": 8237,
      "Alo": 8238,
      "newly": 8239,
      "sessions": 8240,
      "oulis": 8241,
      "communicated": 8242,
      "eligibility": 8243,
      "performing": 8244,
      "Svens": 8245,
      "hm": 8246,
      "army": 8247,
      "Pod": 8248,
      "ured": 8249,
      "message": 8250,
      "enshrined": 8251,
      "Svensson": 8252,
      "Small": 8253,
      "LIB": 8254,
      "WHO": 8255,
      "debated": 8256,
      "holm": 8257,
      "ecosystems": 8258,
      "ministers": 8259,
      "Uz": 8260,
      "aux": 8261,
      "Cristian": 8262,
      "Opening": 8263,
      "800": 8264,
      "drop": 8265,
      "1049": 8266,
      "aired": 8267,
      "inspect": 8268,
      "rek": 8269,
      "reserves": 8270,
      "Panayoto": 8271,
      "conversion": 8272,
      "vac": 8273,
      "whenever": 8274,
      "sometimes": 8275,
      "match": 8276,
      "Montene": 8277,
      "Ku": 8278,
      "outlined": 8279,
      "laboration": 8280,
      "Progress": 8281,
      "Buiten": 8282,
      "Technology": 8283,
      "fortun": 8284,
      "Final": 8285,
      "LL": 8286,
      "Sab": 8287,
      "ká": 8288,
      "estimate": 8289,
      "condemned": 8290,
      "roads": 8291,
      "raoui": 8292,
      "failing": 8293,
      "Papadim": 8294,
      "telephone": 8295,
      "tric": 8296,
      "Papadimoulis": 8297,
      "Six": 8298,
      "175": 8299,
      "highlights": 8300,
      "shop": 8301,
      "MDGs": 8302,
      "Día": 8303,
      "outs": 8304,
      "disproportionate": 8305,
      "visits": 8306,
      "distribut": 8307,
      "advantaged": 8308,
      "willingness": 8309,
      "toll": 8310,
      "regn": 8311,
      "surround": 8312,
      "lending": 8313,
      "Call": 8314,
      "flav": 8315,
      "stringent": 8316,
      "fiable": 8317,
      "accommodation": 8318,
      "Díaz": 8319,
      "(‘": 8320,
      "yers": 8321,
      "sums": 8322,
      "minent": 8323,
      "electrical": 8324,
      "Berès": 8325,
      "greatest": 8326,
      "uster": 8327,
      "Hed": 8328,
      "Albania": 8329,
      "atz": 8330,
      "protec": 8331,
      "usian": 8332,
      "went": 8333,
      "disciplinary": 8334,
      "Khadraoui": 8335,
      "Hague": 8336,
      "Jud": 8337,
      "eni": 8338,
      "ecting": 8339,
      "Sahar": 8340,
      "Opport": 8341,
      "Cal": 8342,
      "Jor": 8343,
      "xe": 8344,
      "Sti": 8345,
      "fel": 8346,
      "consci": 8347,
      "olson": 8348,
      "Frank": 8349,
      "Nicholson": 8350,
      "CAR": 8351,
      "wealth": 8352,
      "ECON": 8353,
      "modernisation": 8354,
      "iv": 8355,
      "tians": 8356,
      "Juan": 8357,
      "judgments": 8358,
      "cere": 8359,
      "USD": 8360,
      "Madrid": 8361,
      "”.": 8362,
      "heating": 8363,
      "ield": 8364,
      "LD": 8365,
      "owned": 8366,
      "entirely": 8367,
      "Heiner": 8368,
      "valuable": 8369,
      "repression": 8370,
      "Gior": 8371,
      "sm": 8372,
      "mining": 8373,
      "vigil": 8374,
      "Jaros": 8375,
      "software": 8376,
      "William": 8377,
      "JUSTIFICATION": 8378,
      "criterion": 8379,
      "denied": 8380,
      "Mera": 8381,
      "deterioration": 8382,
      "heat": 8383,
      "upgra": 8384,
      "collaboration": 8385,
      "intentions": 8386,
      "affects": 8387,
      "organs": 8388,
      "Uzbek": 8389,
      "medic": 8390,
      "refrain": 8391,
      "clinical": 8392,
      "black": 8393,
      "impartial": 8394,
      "Again": 8395,
      "customer": 8396,
      "Lange": 8397,
      "Products": 8398,
      "ril": 8399,
      "…/": 8400,
      "device": 8401,
      "regulate": 8402,
      "rapporteurs": 8403,
      "methodology": 8404,
      "pipeline": 8405,
      "SHORT": 8406,
      "focusing": 8407,
      "avier": 8408,
      "Sophia": 8409,
      "isc": 8410,
      "dones": 8411,
      "relatively": 8412,
      "temperature": 8413,
      "homes": 8414,
      "attitude": 8415,
      "icing": 8416,
      "virtue": 8417,
      "vate": 8418,
      "earthqu": 8419,
      "aes": 8420,
      "tivities": 8421,
      "enor": 8422,
      "Anders": 8423,
      "correctly": 8424,
      "troops": 8425,
      "Encourages": 8426,
      "officially": 8427,
      "Ramos": 8428,
      "Presedo": 8429,
      "retirement": 8430,
      "Pie": 8431,
      "dissemin": 8432,
      "Ve": 8433,
      "Indones": 8434,
      "RULE": 8435,
      "approximation": 8436,
      "____": 8437,
      "screening": 8438,
      "atever": 8439,
      "modes": 8440,
      "Meij": 8441,
      "reimbursement": 8442,
      "announcements": 8443,
      "Rübig": 8444,
      "Equ": 8445,
      "mountain": 8446,
      "empowered": 8447,
      "otto": 8448,
      "dioxide": 8449,
      "Pacific": 8450,
      "Sahara": 8451,
      "vide": 8452,
      "actor": 8453,
      "Agu": 8454,
      "strid": 8455,
      "Scot": 8456,
      "Meijer": 8457,
      "massive": 8458,
      "decentralised": 8459,
      "rio": 8460,
      "Strongly": 8461,
      "IGC": 8462,
      "dedicated": 8463,
      "Made": 8464,
      "poorest": 8465,
      "Department": 8466,
      "relevance": 8467,
      "REACH": 8468,
      "Cypri": 8469,
      "Eli": 8470,
      "inj": 8471,
      "displaced": 8472,
      "broader": 8473,
      "contributes": 8474,
      "EEE": 8475,
      "frequency": 8476,
      "looking": 8477,
      "Integrated": 8478,
      "218": 8479,
      "Azer": 8480,
      "rejection": 8481,
      "resc": 8482,
      "efficiently": 8483,
      "ofer": 8484,
      "reasoned": 8485,
      "sentenced": 8486,
      "Administration": 8487,
      "Opportunities": 8488,
      "icht": 8489,
      "Southern": 8490,
      "accessibility": 8491,
      "Astrid": 8492,
      "disadvantaged": 8493,
      "photo": 8494,
      "sulph": 8495,
      "sovereignty": 8496,
      "ratisation": 8497,
      "epide": 8498,
      "legality": 8499,
      "Consue": 8500,
      "securing": 8501,
      "Deplores": 8502,
      "realistic": 8503,
      "Consuegra": 8504,
      "ewska": 8505,
      "depending": 8506,
      "hundreds": 8507,
      "hardt": 8508,
      "tolerance": 8509,
      "Bend": 8510,
      "politic": 8511,
      "CHAP": 8512,
      "evaluating": 8513,
      "isch": 8514,
      "teaching": 8515,
      "unchanged": 8516,
      "ranging": 8517,
      "ISSION": 8518,
      "negotiate": 8519,
      "Luci": 8520,
      "Organ": 8521,
      "Orden": 8522,
      "consisting": 8523,
      "resa": 8524,
      "premium": 8525,
      "Cross": 8526,
      "sakis": 8527,
      "rupt": 8528,
      "separation": 8529,
      "routes": 8530,
      "Matsakis": 8531,
      "Pilar": 8532,
      "reinsurance": 8533,
      "…………": 8534,
      "intervene": 8535,
      "degrad": 8536,
      "shift": 8537,
      "felt": 8538,
      "limitation": 8539,
      "Christians": 8540,
      "Universal": 8541,
      "Zb": 8542,
      "wr": 8543,
      "Somalia": 8544,
      "Gay": 8545,
      "007": 8546,
      "vez": 8547,
      "solve": 8548,
      "fostering": 8549,
      "Imp": 8550,
      "fast": 8551,
      "Congress": 8552,
      "qualitative": 8553,
      "measurement": 8554,
      "faction": 8555,
      "igniew": 8556,
      "Marios": 8557,
      "Zbigniew": 8558,
      "Vic": 8559,
      "ECSC": 8560,
      "Prosec": 8561,
      "millions": 8562,
      "punishment": 8563,
      "worked": 8564,
      "saw": 8565,
      "bom": 8566,
      "nothing": 8567,
      "groundwater": 8568,
      "hands": 8569,
      "Belarusian": 8570,
      "acquisition": 8571,
      "expectations": 8572,
      "Eras": 8573,
      "tend": 8574,
      "bean": 8575,
      "Fré": 8576,
      "Cambo": 8577,
      "anniversary": 8578,
      "lob": 8579,
      "echow": 8580,
      "006": 8581,
      "Point": 8582,
      "remit": 8583,
      "cially": 8584,
      "Konstantin": 8585,
      "harassment": 8586,
      "CHAPTER": 8587,
      "university": 8588,
      "Syrian": 8589,
      "feasibility": 8590,
      "inhabitants": 8591,
      "auditing": 8592,
      "replacement": 8593,
      "Valle": 8594,
      "Papas": 8595,
      "elimination": 8596,
      "predic": 8597,
      "deposit": 8598,
      "acknowledged": 8599,
      "Nistel": 8600,
      "hour": 8601,
      "ize": 8602,
      "Miroslav": 8603,
      "URE": 8604,
      "Wats": 8605,
      "Inf": 8606,
      "Guinea": 8607,
      "Watson": 8608,
      "Ist": 8609,
      "Pass": 8610,
      "Also": 8611,
      "repair": 8612,
      "rooij": 8613,
      "Consequently": 8614,
      "tamkos": 8615,
      "Nistelrooij": 8616,
      "Ja": 8617,
      "Respon": 8618,
      "echowski": 8619,
      "Papastamkos": 8620,
      "gross": 8621,
      "Lehne": 8622,
      "directed": 8623,
      "inant": 8624,
      "orská": 8625,
      "obstacle": 8626,
      "argued": 8627,
      "Kelly": 8628,
      "Sor": 8629,
      "SCH": 8630,
      "invo": 8631,
      "shareholders": 8632,
      "season": 8633,
      "LIBE": 8634,
      "Frédé": 8635,
      "withdrawn": 8636,
      "resolved": 8637,
      "Stockholm": 8638,
      "Wojciechowski": 8639,
      "rob": 8640,
      "%)": 8641,
      "git": 8642,
      "mixed": 8643,
      "preservation": 8644,
      "ún": 8645,
      "charging": 8646,
      "puts": 8647,
      "pregn": 8648,
      "solvency": 8649,
      "GA": 8650,
      "Ped": 8651,
      "Indian": 8652,
      "unique": 8653,
      "Nicole": 8654,
      "oning": 8655,
      "subscri": 8656,
      "expl": 8657,
      "batter": 8658,
      "’?": 8659,
      "workplace": 8660,
      "soldi": 8661,
      "2nd": 8662,
      "Mur": 8663,
      "emporary": 8664,
      "carriage": 8665,
      "announcement": 8666,
      "moreover": 8667,
      "ANCE": 8668,
      "properties": 8669,
      "cutting": 8670,
      "gradual": 8671,
      "entially": 8672,
      "WIT": 8673,
      "inks": 8674,
      "north": 8675,
      "Speaking": 8676,
      "Seventh": 8677,
      "arding": 8678,
      "pursuit": 8679,
      "exempt": 8680,
      "106": 8681,
      "Margallo": 8682,
      "pollutants": 8683,
      "Erasmus": 8684,
      "enterprise": 8685,
      "Two": 8686,
      "input": 8687,
      "continent": 8688,
      "burdens": 8689,
      "flavour": 8690,
      "Bad": 8691,
      "split": 8692,
      "eck": 8693,
      "missing": 8694,
      "Documents": 8695,
      "thiop": 8696,
      "exercising": 8697,
      "Multi": 8698,
      "Lar": 8699,
      "guide": 8700,
      "larger": 8701,
      "heart": 8702,
      "murder": 8703,
      "mański": 8704,
      "COMMISSION": 8705,
      "analyse": 8706,
      "patterns": 8707,
      "113": 8708,
      "pursuing": 8709,
      "gained": 8710,
      "uts": 8711,
      "qualification": 8712,
      "Discrimin": 8713,
      "genetic": 8714,
      "Montenegro": 8715,
      "TEU": 8716,
      "ctic": 8717,
      "agrees": 8718,
      "Anim": 8719,
      "gather": 8720,
      "ijing": 8721,
      "Police": 8722,
      "Sky": 8723,
      "parame": 8724,
      "decades": 8725,
      "Andrew": 8726,
      "Borg": 8727,
      "capabilities": 8728,
      "allowance": 8729,
      "dates": 8730,
      "imes": 8731,
      "kill": 8732,
      "rying": 8733,
      "Det": 8734,
      "USED": 8735,
      "Beijing": 8736,
      "Sergio": 8737,
      "Tax": 8738,
      "decomm": 8739,
      "fell": 8740,
      "measured": 8741,
      "bra": 8742,
      "Stabilisation": 8743,
      "print": 8744,
      "Ali": 8745,
      "ţu": 8746,
      "alling": 8747,
      "respects": 8748,
      "operated": 8749,
      "arians": 8750,
      "misleading": 8751,
      "reliability": 8752,
      "EFSA": 8753,
      "Creţu": 8754,
      "hola": 8755,
      "expan": 8756,
      "steel": 8757,
      "nish": 8758,
      "utta": 8759,
      "TING": 8760,
      "satisfaction": 8761,
      "Pir": 8762,
      "province": 8763,
      "coordinating": 8764,
      "push": 8765,
      "Roc": 8766,
      "Implementing": 8767,
      "Korhola": 8768,
      "vor": 8769,
      "examples": 8770,
      "Total": 8771,
      "inational": 8772,
      "sut": 8773,
      "standardisation": 8774,
      "evaluated": 8775,
      "Azerba": 8776,
      "Its": 8777,
      "pical": 8778,
      "redress": 8779,
      "122": 8780,
      "plays": 8781,
      "dispens": 8782,
      "Britt": 8783,
      "killing": 8784,
      "senior": 8785,
      "oulas": 8786,
      "president": 8787,
      "Alfred": 8788,
      "graphy": 8789,
      "revenues": 8790,
      "declare": 8791,
      "001": 8792,
      "distingu": 8793,
      "Ethiop": 8794,
      "antini": 8795,
      "121": 8796,
      "asive": 8797,
      "exposures": 8798,
      "Azerbaij": 8799,
      "CIA": 8800,
      "Eija": 8801,
      "imper": 8802,
      "synergies": 8803,
      "Bil": 8804,
      "Marine": 8805,
      "PE43": 8806,
      "Saï": 8807,
      "oting": 8808,
      "subsidy": 8809,
      "comparative": 8810,
      "Capoulas": 8811,
      "servants": 8812,
      "olesale": 8813,
      "fifth": 8814,
      "Decisions": 8815,
      "Aguilar": 8816,
      "Pio": 8817,
      "whatever": 8818,
      "Marfil": 8819,
      "protest": 8820,
      "circulation": 8821,
      "precisely": 8822,
      "Jü": 8823,
      "Morg": 8824,
      "urship": 8825,
      "broadband": 8826,
      "GH": 8827,
      "mono": 8828,
      "satisfy": 8829,
      "channels": 8830,
      "Refuge": 8831,
      "Konstantinos": 8832,
      "intim": 8833,
      "absor": 8834,
      "constraints": 8835,
      "Ewa": 8836,
      "inequalities": 8837,
      "replied": 8838,
      "JOINT": 8839,
      "Jürgen": 8840,
      "Austr": 8841,
      "criticised": 8842,
      "Ivoire": 8843,
      "Objective": 8844,
      "Jutta": 8845,
      "SS": 8846,
      "uci": 8847,
      "signature": 8848,
      "expansion": 8849,
      "cape": 8850,
      "partially": 8851,
      "word": 8852,
      "stored": 8853,
      "Glen": 8854,
      "DRC": 8855,
      "Kazak": 8856,
      "spring": 8857,
      "”,": 8858,
      "iera": 8859,
      "tourist": 8860,
      "dossi": 8861,
      "Vladimír": 8862,
      "Av": 8863,
      "gone": 8864,
      "reproductive": 8865,
      "DEVE": 8866,
      "tility": 8867,
      "inique": 8868,
      "oultry": 8869,
      "Prepar": 8870,
      "pient": 8871,
      "oling": 8872,
      "Activities": 8873,
      "occupied": 8874,
      "situated": 8875,
      "Armen": 8876,
      "launching": 8877,
      "Cô": 8878,
      "Name": 8879,
      "fines": 8880,
      "bases": 8881,
      "Guy": 8882,
      "separately": 8883,
      "derivatives": 8884,
      "nomination": 8885,
      "Sat": 8886,
      "Amster": 8887,
      "ideas": 8888,
      "Langen": 8889,
      "autonomous": 8890,
      "Amsterdam": 8891,
      "gor": 8892,
      "htm": 8893,
      "subsidiary": 8894,
      "unions": 8895,
      "crop": 8896,
      "radiation": 8897,
      "Mitche": 8898,
      "aggreg": 8899,
      "possession": 8900,
      "ultinational": 8901,
      "João": 8902,
      "avoided": 8903,
      "arer": 8904,
      "strength": 8905,
      "visible": 8906,
      "thanks": 8907,
      "drinking": 8908,
      "ax": 8909,
      "hman": 8910,
      "revo": 8911,
      "guin": 8912,
      "enormous": 8913,
      "Mitchell": 8914,
      "Javier": 8915,
      "zys": 8916,
      "iden": 8917,
      "wastes": 8918,
      "Person": 8919,
      "Lucas": 8920,
      "Caucas": 8921,
      "Côte": 8922,
      "aca": 8923,
      "Jacques": 8924,
      "Cut": 8925,
      "1976": 8926,
      "pectives": 8927,
      "Capp": 8928,
      "prize": 8929,
      "achievements": 8930,
      "sues": 8931,
      "soli": 8932,
      "ESMA": 8933,
      "163": 8934,
      "organisational": 8935,
      "persistent": 8936,
      "ang": 8937,
      "ales": 8938,
      "Countries": 8939,
      "Thus": 8940,
      "easy": 8941,
      "Against": 8942,
      "excess": 8943,
      "camera": 8944,
      "Carib": 8945,
      "Dub": 8946,
      "forecas": 8947,
      "choices": 8948,
      "floods": 8949,
      "Caribbean": 8950,
      "regimes": 8951,
      "CONS": 8952,
      "definitive": 8953,
      "Erika": 8954,
      "macroeconomic": 8955,
      "fined": 8956,
      "Ignacio": 8957,
      "ESR": 8958,
      "Condemn": 8959,
      "Actions": 8960,
      "democratisation": 8961,
      "Moraes": 8962,
      "visibility": 8963,
      "HU": 8964,
      "Oth": 8965,
      "airspace": 8966,
      "jury": 8967,
      "catches": 8968,
      "Spring": 8969,
      "............................................": 8970,
      "bels": 8971,
      "TRAN": 8972,
      "indigenous": 8973,
      "dues": 8974,
      "registers": 8975,
      "urch": 8976,
      "vals": 8977,
      "ranz": 8978,
      "indicates": 8979,
      "honour": 8980,
      "Riera": 8981,
      "004": 8982,
      "Swiss": 8983,
      "Additional": 8984,
      "acid": 8985,
      "Discrimination": 8986,
      "Sø": 8987,
      "serving": 8988,
      "recipient": 8989,
      "overview": 8990,
      "employer": 8991,
      "collect": 8992,
      "Herranz": 8993,
      "iii": 8994,
      "purely": 8995,
      "diesel": 8996,
      "Clau": 8997,
      "Simpli": 8998,
      "pone": 8999,
      "twel": 9000,
      "therap": 9001,
      "reaffir": 9002,
      "audi": 9003,
      "Othmar": 9004,
      "poultry": 9005,
      "commerce": 9006,
      "WITH": 9007,
      "Even": 9008,
      "pd": 9009,
      "207": 9010,
      "biggest": 9011,
      "Isler": 9012,
      "(*": 9013,
      "BO": 9014,
      "udy": 9015,
      "grave": 9016,
      "ensures": 9017,
      "relates": 9018,
      "Finance": 9019,
      "Fernando": 9020,
      "Business": 9021,
      "Sri": 9022,
      "ounted": 9023,
      "crossing": 9024,
      "aret": 9025,
      "urell": 9026,
      "oversight": 9027,
      "arbitrary": 9028,
      "Appropriations": 9029,
      "Website": 9030,
      "4a": 9031,
      "cards": 9032,
      "iled": 9033,
      "leads": 9034,
      "ATTEN": 9035,
      "Baron": 9036,
      "film": 9037,
      "viči": 9038,
      "soldiers": 9039,
      "Cec": 9040,
      "entists": 9041,
      "AFET": 9042,
      "beneficial": 9043,
      "attempts": 9044,
      "Mich": 9045,
      "cha": 9046,
      "123": 9047,
      "redundant": 9048,
      "PROV": 9049,
      "Ole": 9050,
      "connections": 9051,
      "Condemns": 9052,
      "119": 9053,
      "race": 9054,
      "euros": 9055,
      "Madurell": 9056,
      "Blok": 9057,
      "gradually": 9058,
      "GR": 9059,
      "élez": 9060,
      "reiter": 9061,
      "kel": 9062,
      "Miguélez": 9063,
      "syn": 9064,
      "acknowledge": 9065,
      "stimulate": 9066,
      "lean": 9067,
      "referring": 9068,
      "Transatlantic": 9069,
      "analyses": 9070,
      "Perspective": 9071,
      "aster": 9072,
      "008": 9073,
      "llation": 9074,
      "mortality": 9075,
      "ultimately": 9076,
      "dismis": 9077,
      "apping": 9078,
      "equity": 9079,
      "Béguin": 9080,
      "airy": 9081,
      "mart": 9082,
      "Nigeria": 9083,
      "draws": 9084,
      "divided": 9085,
      "Martine": 9086,
      "explained": 9087,
      "Eff": 9088,
      "009": 9089,
      "Transparen": 9090,
      "incin": 9091,
      "demonstrations": 9092,
      "foresee": 9093,
      "rd": 9094,
      "mong": 9095,
      "organising": 9096,
      "Eng": 9097,
      "].": 9098,
      "interference": 9099,
      "fat": 9100,
      "compound": 9101,
      "dispatch": 9102,
      "Cecilia": 9103,
      "quite": 9104,
      "151": 9105,
      "Luca": 9106,
      "east": 9107,
      "Monika": 9108,
      "explanations": 9109,
      "recalled": 9110,
      "Impact": 9111,
      "CI": 9112,
      "makers": 9113,
      "eradication": 9114,
      "detection": 9115,
      "oriented": 9116,
      "Transparency": 9117,
      "vine": 9118,
      "esty": 9119,
      "judges": 9120,
      "aside": 9121,
      "Former": 9122,
      "Competition": 9123,
      "ROM": 9124,
      "Prosecutor": 9125,
      "Recon": 9126,
      "informing": 9127,
      "Antoni": 9128,
      "Draw": 9129,
      "Sem": 9130,
      "hren": 9131,
      "Guant": 9132,
      "Berg": 9133,
      "Ashton": 9134,
      "owner": 9135,
      "Vigo": 9136,
      "Cappato": 9137,
      "fred": 9138,
      "departure": 9139,
      "Stihler": 9140,
      "tein": 9141,
      "ECHR": 9142,
      "Subcommittee": 9143,
      "Vey": 9144,
      "bot": 9145,
      "Financing": 9146,
      "decrease": 9147,
      "swit": 9148,
      "öl": 9149,
      "Reimer": 9150,
      "licensing": 9151,
      "ár": 9152,
      "Manfred": 9153,
      "neighbours": 9154,
      "bestos": 9155,
      "intimid": 9156,
      "Avril": 9157,
      "Roberto": 9158,
      "cludes": 9159,
      "gani": 9160,
      "BUD": 9161,
      "autonomy": 9162,
      "enforced": 9163,
      "sentences": 9164,
      "Karas": 9165,
      "hunger": 9166,
      "hus": 9167,
      "nar": 9168,
      "understood": 9169,
      "elho": 9170,
      "career": 9171,
      "pas": 9172,
      "asking": 9173,
      "adjusted": 9174,
      "minimise": 9175,
      "Caucasus": 9176,
      "Neil": 9177,
      "Bio": 9178,
      "Gau": 9179,
      "dish": 9180,
      "Alv": 9181,
      "vanova": 9182,
      "experiences": 9183,
      "apparently": 9184,
      "cow": 9185,
      "decent": 9186,
      "Coelho": 9187,
      "receives": 9188,
      "Asian": 9189,
      "assume": 9190,
      "totally": 9191,
      "Olympic": 9192,
      "ugen": 9193,
      "die": 9194,
      "Karim": 9195,
      "pin": 9196,
      "resistance": 9197,
      "traceability": 9198,
      "armament": 9199,
      "izel": 9200,
      "Palestine": 9201,
      "Stef": 9202,
      "Fraga": 9203,
      "Colombia": 9204,
      "Veyrac": 9205,
      "Of": 9206,
      "Sir": 9207,
      "Grä": 9208,
      "Marianne": 9209,
      "redundancies": 9210,
      "Have": 9211,
      "holdings": 9212,
      "entrusted": 9213,
      "Loc": 9214,
      "abor": 9215,
      "measuring": 9216,
      "fragment": 9217,
      "Dominique": 9218,
      "Eve": 9219,
      "Sport": 9220,
      "pict": 9221,
      "rela": 9222,
      "requesting": 9223,
      "Busut": 9224,
      "reinforced": 9225,
      "Taj": 9226,
      "Busuttil": 9227,
      "reper": 9228,
      "contributed": 9229,
      "warned": 9230,
      "Categ": 9231,
      "gun": 9232,
      "transportation": 9233,
      "Doyle": 9234,
      "Programmes": 9235,
      "agnoli": 9236,
      "ediatric": 9237,
      "List": 9238,
      "MFF": 9239,
      "lum": 9240,
      "andro": 9241,
      "formed": 9242,
      "..............": 9243,
      "Böge": 9244,
      "returned": 9245,
      "distortions": 9246,
      "Parliaments": 9247,
      "158": 9248,
      "Securities": 9249,
      "Supervisor": 9250,
      "opt": 9251,
      "limiting": 9252,
      "generate": 9253,
      "fortunately": 9254,
      "Tom": 9255,
      "moti": 9256,
      "readmission": 9257,
      "significance": 9258,
      "remote": 9259,
      "Cashman": 9260,
      "interpreted": 9261,
      "Persons": 9262,
      "évez": 9263,
      "tification": 9264,
      "licit": 9265,
      "deser": 9266,
      "Estévez": 9267,
      "vegetables": 9268,
      "aph": 9269,
      "calculating": 9270,
      "TEC": 9271,
      "Frass": 9272,
      "Gomes": 9273,
      "wheel": 9274,
      "Invites": 9275,
      "household": 9276,
      "managers": 9277,
      "Sug": 9278,
      "cin": 9279,
      "Particip": 9280,
      "fee": 9281,
      "postpone": 9282,
      "Kyri": 9283,
      "[...": 9284,
      "ratio": 9285,
      "thresholds": 9286,
      "diversification": 9287,
      "adj": 9288,
      "Lastly": 9289,
      "Blokland": 9290,
      "Szy": 9291,
      "reb": 9292,
      "revise": 9293,
      "strike": 9294,
      "RY": 9295,
      "spa": 9296,
      "gration": 9297,
      "carefully": 9298,
      "certified": 9299,
      "parameters": 9300,
      "Frassoni": 9301,
      "Filip": 9302,
[...]
