{
  "version": "1.0",
  "truncation": null,
  "padding": null,
  "added_tokens": [
    {
      "id": 0,
      "content": "[UNK]",
      "single_word": false,
      "lstrip": false,
      "rstrip": false,
      "normalized": false,
      "special": true
    },
    {
      "id": 1,
      "content": "[PAD]",
      "single_word": false,
      "lstrip": false,
      "rstrip": false,
      "normalized": false,
      "special": true
    },
    {
      "id": 2,
      "content": "[BOS]",
      "single_word": false,
      "lstrip": false,
      "rstrip": false,
      "normalized": false,
      "special": true
    },
    {
      "id": 3,
      "content": "[EOS]",
      "single_word": false,
      "lstrip": false,
      "rstrip": false,
      "normalized": false,
      "special": true
    }
  ],
  "normalizer": null,
  "pre_tokenizer": {
    "type": "Whitespace"
  },
  "post_processor": null,
  "decoder": null,
  "model": {
    "type": "BPE",
    "dropout": null,
    "unk_token": "[UNK]",
    "continuing_subword_prefix": null,
    "end_of_word_suffix": null,
    "fuse_unk": false,
    "byte_fallback": false,
    "ignore_merges": false,
    "vocab": {
      "[UNK]": 0,
      "[PAD]": 1,
      "[BOS]": 2,
      "[EOS]": 3,
      "!": 4,
      "\"": 5,
      "#": 6,
      "$": 7,
      "%": 8,
      "&": 9,
      "'": 10,
      "(": 11,
      ")": 12,
      "*": 13,
      "+": 14,
      ",": 15,
      "-": 16,
      ".": 17,
      "/": 18,
      "0": 19,
      "1": 20,
      "2": 21,
      "3": 22,
      "4": 23,
      "5": 24,
      "6": 25,
      "7": 26,
      "8": 27,
      "9": 28,
      ":": 29,
      ";": 30,
      "<": 31,
      "=": 32,
      ">": 33,
      "?": 34,
      "@": 35,
      "A": 36,
      "B": 37,
      "C": 38,
      "D": 39,
      "E": 40,
      "F": 41,
      "G": 42,
      "H": 43,
      "I": 44,
      "J": 45,
      "K": 46,
      "L": 47,
      "M": 48,
      "N": 49,
      "O": 50,
      "P": 51,
      "Q": 52,
      "R": 53,
      "S": 54,
      "T": 55,
      "U": 56,
      "V": 57,
      "W": 58,
      "X": 59,
      "Y": 60,
      "Z": 61,
      "[": 62,
      "\\": 63,
      "]": 64,
      "^": 65,
      "_": 66,
      "`": 67,
      "a": 68,
      "b": 69,
      "c": 70,
      "d": 71,
      "e": 72,
      "f": 73,
      "g": 74,
      "h": 75,
      "i": 76,
      "j": 77,
      "k": 78,
      "l": 79,
      "m": 80,
      "n": 81,
      "o": 82,
      "p": 83,
      "q": 84,
      "r": 85,
      "s": 86,
      "t": 87,
      "u": 88,
      "v": 89,
      "w": 90,
      "x": 91,
      "y": 92,
      "z": 93,
      "{": 94,
      "|": 95,
      "}": 96,
      "~": 97,
      "": 98,
      "¡": 99,
      "£": 100,
      "¤": 101,
      "¦": 102,
      "§": 103,
      "¨": 104,
      "©": 105,
      "ª": 106,
      "«": 107,
      "¬": 108,
      "­": 109,
      "®": 110,
      "°": 111,
      "±": 112,
      "²": 113,
      "³": 114,
      "´": 115,
      "µ": 116,
      "·": 117,
      "¸": 118,
      "¹": 119,
      "º": 120,
      "»": 121,
      "¼": 122,
      "½": 123,
      "¾": 124,
      "À": 125,
      "Á": 126,
      "Â": 127,
      "Ã": 128,
      "Ä": 129,
      "Å": 130,
      "Æ": 131,
      "Ç": 132,
      "È": 133,
      "É": 134,
      "Ê": 135,
      "Ë": 136,
      "Ì": 137,
      "Í": 138,
      "Î": 139,
      "Ï": 140,
      "Ð": 141,
      "Ñ": 142,
      "Ò": 143,
      "Ó": 144,
      "Ô": 145,
      "Õ": 146,
      "Ö": 147,
      "×": 148,
      "Ø": 149,
      "Ù": 150,
      "Ú": 151,
      "Û": 152,
      "Ü": 153,
      "Ý": 154,
      "ß": 155,
      "à": 156,
      "á": 157,
      "â": 158,
      "ã": 159,
      "ä": 160,
      "å": 161,
      "æ": 162,
      "ç": 163,
      "è": 164,
      "é": 165,
      "ê": 166,
      "ë": 167,
      "ì": 168,
      "í": 169,
      "î": 170,
      "ï": 171,
      "ð": 172,
      "ñ": 173,
      "ò": 174,
      "ó": 175,
      "ô": 176,
      "õ": 177,
      "ö": 178,
      "ø": 179,
      "ù": 180,
      "ú": 181,
      "û": 182,
      "ü": 183,
      "ý": 184,
      "ÿ": 185,
      "Ā": 186,
      "ā": 187,
      "Ă": 188,
      "ă": 189,
      "Ą": 190,
      "ą": 191,
      "Ć": 192,
      "ć": 193,
      "Ċ": 194,
      "ċ": 195,
      "Č": 196,
      "č": 197,
      "Ď": 198,
      "ď": 199,
      "Đ": 200,
      "đ": 201,
      "Ē": 202,
      "ē": 203,
      "Ĕ": 204,
      "ĕ": 205,
      "Ė": 206,
      "ė": 207,
      "Ę": 208,
      "ę": 209,
      "Ě": 210,
      "ě": 211,
      "Ğ": 212,
      "ğ": 213,
      "Ġ": 214,
      "ġ": 215,
      "Ģ": 216,
      "ģ": 217,
      "Ħ": 218,
      "ħ": 219,
      "Ī": 220,
      "ī": 221,
      "Į": 222,
      "į": 223,
      "İ": 224,
      "ı": 225,
      "Ķ": 226,
      "ķ": 227,
      "ļ": 228,
      "Ľ": 229,
      "ľ": 230,
      "Ł": 231,
      "ł": 232,
      "Ń": 233,
      "ń": 234,
      "Ņ": 235,
      "ņ": 236,
      "Ň": 237,
      "ň": 238,
      "Ő": 239,
      "ő": 240,
      "Œ": 241,
      "œ": 242,
      "ŕ": 243,
      "Ř": 244,
      "ř": 245,
      "Ś": 246,
      "ś": 247,
      "Ŝ": 248,
      "Ş": 249,
      "ş": 250,
      "Š": 251,
      "š": 252,
      "Ţ": 253,
      "ţ": 254,
      "Ť": 255,
      "ť": 256,
      "ũ": 257,
      "Ū": 258,
      "ū": 259,
      "ŭ": 260,
      "Ů": 261,
      "ů": 262,
      "Ű": 263,
      "ű": 264,
      "ų": 265,
      "Ÿ": 266,
      "Ź": 267,
      "ź": 268,
      "Ż": 269,
      "ż": 270,
      "Ž": 271,
      "ž": 272,
      "ƒ": 273,
      "Ơ": 274,
      "ǎ": 275,
      "ǔ": 276,
      "Ǻ": 277,
      "ǻ": 278,
      "Ǿ": 279,
      "Ș": 280,
      "ș": 281,
      "Ț": 282,
      "ț": 283,
      "˚": 284,
      "˝": 285,
      "̀": 286,
      "́": 287,
      ";": 288,
      "΄": 289,
      "Ά": 290,
      "·": 291,
      "Έ": 292,
      "Ί": 293,
      "Ό": 294,
      "Ύ": 295,
      "ΐ": 296,
      "Α": 297,
      "Β": 298,
      "Γ": 299,
      "Δ": 300,
      "Ε": 301,
      "Ζ": 302,
      "Η": 303,
      "Θ": 304,
      "Ι": 305,
      "Κ": 306,
      "Λ": 307,
      "Μ": 308,
      "Ν": 309,
      "Ο": 310,
      "Π": 311,
      "Ρ": 312,
      "Σ": 313,
      "Τ": 314,
      "Υ": 315,
      "Φ": 316,
      "Χ": 317,
      "Ψ": 318,
      "Ω": 319,
      "ά": 320,
      "έ": 321,
      "ή": 322,
      "ί": 323,
      "ΰ": 324,
      "α": 325,
      "β": 326,
      "γ": 327,
      "δ": 328,
      "ε": 329,
      "ζ": 330,
      "η": 331,
      "θ": 332,
      "ι": 333,
      "κ": 334,
      "λ": 335,
      "μ": 336,
      "ν": 337,
      "ξ": 338,
      "ο": 339,
      "π": 340,
      "ρ": 341,
      "ς": 342,
      "σ": 343,
      "τ": 344,
      "υ": 345,
      "φ": 346,
      "χ": 347,
      "ψ": 348,
      "ω": 349,
      "ϊ": 350,
      "ϋ": 351,
      "ό": 352,
      "ύ": 353,
      "ώ": 354,
      "Ё": 355,
      "І": 356,
      "А": 357,
      "Б": 358,
      "В": 359,
      "Г": 360,
      "Д": 361,
      "Е": 362,
      "Ж": 363,
      "З": 364,
      "И": 365,
      "Й": 366,
      "К": 367,
      "Л": 368,
      "М": 369,
      "Н": 370,
      "О": 371,
      "П": 372,
      "Р": 373,
      "С": 374,
      "Т": 375,
      "У": 376,
      "Ф": 377,
      "Х": 378,
      "Ч": 379,
      "Ш": 380,
      "Щ": 381,
      "Ю": 382,
      "Я": 383,
      "а": 384,
      "б": 385,
      "в": 386,
      "г": 387,
      "д": 388,
      "е": 389,
      "ж": 390,
      "з": 391,
      "и": 392,
      "й": 393,
      "к": 394,
      "л": 395,
      "м": 396,
      "н": 397,
      "о": 398,
      "п": 399,
      "р": 400,
      "с": 401,
      "т": 402,
      "у": 403,
      "ф": 404,
      "х": 405,
      "ц": 406,
      "ч": 407,
      "ш": 408,
      "щ": 409,
      "ъ": 410,
      "ю": 411,
      "я": 412,
      "ї": 413,
      "ӑ": 414,
      "Ա": 415,
      "կ": 416,
      "ս": 417,
      "օ": 418,
      "ả": 419,
      "ặ": 420,
      "ế": 421,
      "Ố": 422,
      "ộ": 423,
      "ỡ": 424,
      "​": 425,
      "‎": 426,
      "‐": 427,
      "‑": 428,
      "‒": 429,
      "–": 430,
      "—": 431,
      "―": 432,
      "‘": 433,
      "’": 434,
      "‚": 435,
      "“": 436,
      "”": 437,
      "„": 438,
      "•": 439,
      "…": 440,
      "‰": 441,
      "′": 442,
      "″": 443,
      "‹": 444,
      "›": 445,
      "⁄": 446,
      "€": 447,
      "→": 448,
      "↓": 449,
      "⇒": 450,
      "∑": 451,
      "−": 452,
      "∕": 453,
      "∗": 454,
      "∙": 455,
      "√": 456,
      "≠": 457,
      "≡": 458,
      "≤": 459,
      "≥": 460,
      "─": 461,
      "║": 462,
      "█": 463,
      "▌": 464,
      "▐": 465,
      "■": 466,
      "□": 467,
      "▪": 468,
      "►": 469,
      "◄": 470,
      "◉": 471,
      "●": 472,
      "◙": 473,
      "♥": 474,
      "♦": 475,
      "": 476,
      "": 477,
      "": 478,
      "": 479,
      "": 480,
      "": 481,
      "": 482,
      "": 483,
      "": 484,
      "ﬂ": 485,
      "es": 486,
      "on": 487,
      "en": 488,
      "ti": 489,
      "de": 490,
      "an": 491,
      "ur": 492,
      "le": 493,
      "la": 494,
      "ent": 495,
      "re": 496,
      "is": 497,
      "tion": 498,
      "er": 499,
      "qu": 500,
      "in": 501,
      "et": 502,
      "ar": 503,
      "it": 504,
      "les": 505,
      "pr": 506,
      "po": 507,
      "om": 508,
      "au": 509,
      "si": 510,
      "ment": 511,
      "des": 512,
      "ra": 513,
      "ne": 514,
      "du": 515,
      "te": 516,
      "con": 517,
      "que": 518,
      "or": 519,
      "ou": 520,
      "ation": 521,
      "li": 522,
      "ce": 523,
      "omm": 524,
      "dé": 525,
      "ant": 526,
      "par": 527,
      "se": 528,
      "il": 529,
      "ta": 530,
      "és": 531,
      "res": 532,
      "op": 533,
      "pro": 534,
      "ve": 535,
      "un": 536,
      "ans": 537,
      "di": 538,
      "sion": 539,
      "ré": 540,
      "ch": 541,
      "ci": 542,
      "20": 543,
      "me": 544,
      "eur": 545,
      "tr": 546,
      "al": 547,
      "té": 548,
      "ac": 549,
      "el": 550,
      "pour": 551,
      "ission": 552,
      "lement": 553,
      "sur": 554,
      "ité": 555,
      "ai": 556,
      "dans": 557,
      "une": 558,
      "ommission": 559,
      "aux": 560,
      "as": 561,
      "opé": 562,
      "200": 563,
      "ag": 564,
      "tre": 565,
      "ces": 566,
      "ri": 567,
      "us": 568,
      "fi": 569,
      "opéen": 570,
      "vi": 571,
      "pe": 572,
      "Commission": 573,
      "..": 574,
      "européen": 575,
      "ts": 576,
      "ex": 577,
      "ont": 578,
      "ter": 579,
      "né": 580,
      "mb": 581,
      "ion": 582,
      "for": 583,
      "tions": 584,
      "por": 585,
      "ap": 586,
      "qui": 587,
      "pl": 588,
      "co": 589,
      "ques": 590,
      "ro": 591,
      "tra": 592,
      "est": 593,
      "oi": 594,
      "com": 595,
      "tic": 596,
      "mes": 597,
      "comm": 598,
      "ma": 599,
      "su": 600,
      "sé": 601,
      "urs": 602,
      "rap": 603,
      "fin": 604,
      "ad": 605,
      "tu": 606,
      "mo": 607,
      "Con": 608,
      "mé": 609,
      "ère": 610,
      "ins": 611,
      "ten": 612,
      "ure": 613,
      "ations": 614,
      "pré": 615,
      "lu": 616,
      "so": 617,
      "ticle": 618,
      "posi": 619,
      "at": 620,
      "cer": 621,
      "man": 622,
      "ab": 623,
      "ers": 624,
      "pu": 625,
      "aut": 626,
      "im": 627,
      "elle": 628,
      "ff": 629,
      "ég": 630,
      "port": 631,
      "pé": 632,
      "memb": 633,
      "av": 634,
      "ni": 635,
      "Éta": 636,
      "cti": 637,
      "rè": 638,
      "Par": 639,
      "ob": 640,
      "seil": 641,
      "ction": 642,
      "ance": 643,
      "ser": 644,
      "aire": 645,
      "ée": 646,
      "Conseil": 647,
      "pas": 648,
      "ie": 649,
      "ite": 650,
      "....": 651,
      "cu": 652,
      "ys": 653,
      "Parlement": 654,
      "glement": 655,
      "tou": 656,
      "Un": 657,
      "tes": 658,
      "ence": 659,
      "sou": 660,
      "prés": 661,
      "its": 662,
      "ments": 663,
      "00": 664,
      "our": 665,
      "dis": 666,
      "pa": 667,
      "européenne": 668,
      "membres": 669,
      "ver": 670,
      "vu": 671,
      "am": 672,
      "no": 673,
      "ain": 674,
      "jet": 675,
      "ge": 676,
      "vis": 677,
      "présent": 678,
      "aires": 679,
      "entre": 680,
      "ale": 681,
      "sont": 682,
      "cé": 683,
      "ave": 684,
      "La": 685,
      "position": 686,
      "États": 687,
      "mar": 688,
      "end": 689,
      "ration": 690,
      "article": 691,
      "vo": 692,
      "ct": 693,
      "ise": 694,
      "ités": 695,
      "UE": 696,
      "ire": 697,
      "Le": 698,
      "être": 699,
      "tique": 700,
      "Union": 701,
      "cation": 702,
      "règlement": 703,
      "acc": 704,
      "déc": 705,
      "he": 706,
      "ait": 707,
      "éta": 708,
      "dire": 709,
      "201": 710,
      "lis": 711,
      "dro": 712,
      "ord": 713,
      "ées": 714,
      "min": 715,
      "vel": 716,
      "inter": 717,
      "avec": 718,
      "ures": 719,
      "bli": 720,
      "pli": 721,
      "plus": 722,
      "ux": 723,
      "cons": 724,
      "concer": 725,
      "nation": 726,
      "form": 727,
      "fon": 728,
      "ves": 729,
      "lo": 730,
      "bu": 731,
      "ès": 732,
      "été": 733,
      "per": 734,
      "trans": 735,
      "ir": 736,
      "commun": 737,
      "//": 738,
      "poli": 739,
      "tri": 740,
      "che": 741,
      "uv": 742,
      "ven": 743,
      "agrap": 744,
      "nes": 745,
      "paragrap": 746,
      "do": 747,
      "deman": 748,
      "sidé": 749,
      "mi": 750,
      "nement": 751,
      "cet": 752,
      "age": 753,
      "Les": 754,
      "ens": 755,
      "ants": 756,
      "titu": 757,
      "lég": 758,
      "CE": 759,
      "gr": 760,
      "ca": 761,
      "sa": 762,
      "lle": 763,
      "met": 764,
      "teur": 765,
      "nou": 766,
      "lati": 767,
      "paragraphe": 768,
      "gra": 769,
      "ctive": 770,
      "em": 771,
      "gu": 772,
      "ut": 773,
      "son": 774,
      "rés": 775,
      "dent": 776,
      "publi": 777,
      "pon": 778,
      "ique": 779,
      "gé": 780,
      "pays": 781,
      "parti": 782,
      "soci": 783,
      "ON": 784,
      "va": 785,
      "ille": 786,
      "teurs": 787,
      "posé": 788,
      "ér": 789,
      "lig": 790,
      "considé": 791,
      "tiques": 792,
      "comp": 793,
      "don": 794,
      "rant": 795,
      "TI": 796,
      "oir": 797,
      "der": 798,
      "pri": 799,
      "autor": 800,
      "nom": 801,
      "pos": 802,
      "commission": 803,
      "),": 804,
      "pris": 805,
      "év": 806,
      "inté": 807,
      "ul": 808,
      "produ": 809,
      "Ar": 810,
      "appli": 811,
      "ses": 812,
      "ine": 813,
      "cess": 814,
      "velop": 815,
      "cur": 816,
      "DE": 817,
      "TE": 818,
      "ème": 819,
      "ner": 820,
      "ors": 821,
      "dev": 822,
      "céd": 823,
      "ales": 824,
      "ision": 825,
      "demande": 826,
      "iss": 827,
      "........": 828,
      "19": 829,
      "ffi": 830,
      "ères": 831,
      "dévelop": 832,
      "rég": 833,
      "ble": 834,
      "leur": 835,
      "ouver": 836,
      "tant": 837,
      "cette": 838,
      "directive": 839,
      "ron": 840,
      "fs": 841,
      "Article": 842,
      "elles": 843,
      "men": 844,
      "tru": 845,
      "veau": 846,
      "org": 847,
      "pers": 848,
      "tés": 849,
      "uti": 850,
      "adop": 851,
      "décision": 852,
      "je": 853,
      "na": 854,
      "finan": 855,
      "ju": 856,
      "to": 857,
      "nu": 858,
      "inform": 859,
      "droits": 860,
      "da": 861,
      "PE": 862,
      "mesures": 863,
      "pement": 864,
      "march": 865,
      "10": 866,
      "ainsi": 867,
      "rapport": 868,
      "enti": 869,
      "isation": 870,
      "bi": 871,
      "conom": 872,
      "cr": 873,
      "non": 874,
      "ges": 875,
      "rait": 876,
      "lation": 877,
      "économ": 878,
      "cad": 879,
      "considérant": 880,
      "mon": 881,
      "gram": 882,
      "lution": 883,
      "ren": 884,
      "nées": 885,
      "ilité": 886,
      "quel": 887,
      "nant": 888,
      "relati": 889,
      "Pro": 890,
      "lon": 891,
      "ois": 892,
      "autres": 893,
      "développement": 894,
      "tent": 895,
      "cadre": 896,
      "anti": 897,
      "cas": 898,
      "mbre": 899,
      "ig": 900,
      "mment": 901,
      "confor": 902,
      "TION": 903,
      "int": 904,
      "contre": 905,
      "sident": 906,
      "cré": 907,
      "accord": 908,
      "lé": 909,
      "person": 910,
      "politique": 911,
      "mati": 912,
      "program": 913,
      "vent": 914,
      "positions": 915,
      "utilis": 916,
      "servi": 917,
      "PR": 918,
      "organ": 919,
      "nel": 920,
      "os": 921,
      "pla": 922,
      "11": 923,
      "proposition": 924,
      "financi": 925,
      "bre": 926,
      "ali": 927,
      "procéd": 928,
      "nécess": 929,
      "curité": 930,
      "Il": 931,
      "ard": 932,
      "dg": 933,
      "rer": 934,
      "rieur": 935,
      "Eur": 936,
      "sécurité": 937,
      "mément": 938,
      "légis": 939,
      "peut": 940,
      "gie": 941,
      "compé": 942,
      "Mar": 943,
      "mise": 944,
      "tis": 945,
      "budg": 946,
      "trava": 947,
      "ies": 948,
      "uation": 949,
      "able": 950,
      "ôle": 951,
      "tamment": 952,
      "fait": 953,
      "projet": 954,
      "inci": 955,
      "alité": 956,
      "bles": 957,
      "LE": 958,
      "amen": 959,
      "grou": 960,
      "oy": 961,
      "sui": 962,
      "sys": 963,
      "gar": 964,
      "difi": 965,
      "2010": 966,
      "eff": 967,
      "conformément": 968,
      "concernant": 969,
      "and": 970,
      "2005": 971,
      "pre": 972,
      "acti": 973,
      "ient": 974,
      "ba": 975,
      "communau": 976,
      "comme": 977,
      "région": 978,
      "géné": 979,
      "mis": 980,
      "Ob": 981,
      "matière": 982,
      "En": 983,
      "eu": 984,
      "mettre": 985,
      "fa": 986,
      "CO": 987,
      "point": 988,
      "iti": 989,
      "ris": 990,
      "posée": 991,
      "01": 992,
      "État": 993,
      "éle": 994,
      "ticu": 995,
      "2008": 996,
      "2006": 997,
      "particu": 998,
      "2007": 999,
      "alement": 1000,
      "contr": 1001,
      "jus": 1002,
      "lt": 1003,
      "ences": 1004,
      "vé": 1005,
      "syst": 1006,
      "lors": 1007,
      "cher": 1008,
      "opération": 1009,
      "afin": 1010,
      "iques": 1011,
      "aff": 1012,
      "internation": 1013,
      "modifi": 1014,
      "particuli": 1015,
      "notamment": 1016,
      "import": 1017,
      "marché": 1018,
      "ires": 1019,
      "RI": 1020,
      "doit": 1021,
      "olution": 1022,
      "Qu": 1023,
      "sant": 1024,
      "obje": 1025,
      "communauta": 1026,
      "Objet": 1027,
      "uvre": 1028,
      "tection": 1029,
      "2011": 1030,
      "els": 1031,
      "près": 1032,
      "ati": 1033,
      "viron": 1034,
      "oc": 1035,
      "th": 1036,
      "lan": 1037,
      "dement": 1038,
      "EN": 1039,
      "cours": 1040,
      "deux": 1041,
      "services": 1042,
      "sement": 1043,
      "respe": 1044,
      "objecti": 1045,
      "appro": 1046,
      "traité": 1047,
      "indi": 1048,
      "environ": 1049,
      "princi": 1050,
      "An": 1051,
      "tel": 1052,
      "droit": 1053,
      "pres": 1054,
      "sta": 1055,
      "dom": 1056,
      "12": 1057,
      "éch": 1058,
      "prises": 1059,
      "ctions": 1060,
      "ils": 1061,
      "cla": 1062,
      "protection": 1063,
      "vue": 1064,
      "leurs": 1065,
      "2009": 1066,
      "ds": 1067,
      "ES": 1068,
      "ense": 1069,
      "œuvre": 1070,
      "15": 1071,
      "clu": 1072,
      "vers": 1073,
      "dép": 1074,
      "gouver": 1075,
      "homm": 1076,
      "institu": 1077,
      "car": 1078,
      "également": 1079,
      "péri": 1080,
      "plé": 1081,
      "Comm": 1082,
      "médi": 1083,
      "assur": 1084,
      "spé": 1085,
      "sit": 1086,
      "ol": 1087,
      "née": 1088,
      "tribu": 1089,
      "répon": 1090,
      "premi": 1091,
      "membre": 1092,
      "généra": 1093,
      "cit": 1094,
      "tout": 1095,
      "erci": 1096,
      "ope": 1097,
      "compte": 1098,
      "bilité": 1099,
      "cep": 1100,
      "ist": 1101,
      "prend": 1102,
      "environnement": 1103,
      "mê": 1104,
      "char": 1105,
      "groupe": 1106,
      "informations": 1107,
      "procédure": 1108,
      "tech": 1109,
      "cent": 1110,
      "sec": 1111,
      "EP": 1112,
      "autorités": 1113,
      "ons": 1114,
      "xe": 1115,
      "lib": 1116,
      "aine": 1117,
      "cri": 1118,
      "uri": 1119,
      "pes": 1120,
      "II": 1121,
      "spéci": 1122,
      "tous": 1123,
      "certa": 1124,
      "Ch": 1125,
      "mais": 1126,
      "Europe": 1127,
      "faire": 1128,
      "condi": 1129,
      "alis": 1130,
      "suiv": 1131,
      "éner": 1132,
      "rê": 1133,
      "ph": 1134,
      "ran": 1135,
      "sig": 1136,
      "organis": 1137,
      "avant": 1138,
      "sub": 1139,
      "orité": 1140,
      "garanti": 1141,
      "ante": 1142,
      "amé": 1143,
      "2004": 1144,
      "tenu": 1145,
      "inv": 1146,
      "coopération": 1147,
      "travail": 1148,
      "dispositions": 1149,
      "produits": 1150,
      "iter": 1151,
      "hu": 1152,
      "activ": 1153,
      "avis": 1154,
      "ple": 1155,
      "eng": 1156,
      "possi": 1157,
      "30": 1158,
      "Pré": 1159,
      "Dans": 1160,
      "esti": 1161,
      "présente": 1162,
      "niveau": 1163,
      "soit": 1164,
      "QUE": 1165,
      "nouveau": 1166,
      "programme": 1167,
      "politiques": 1168,
      "vention": 1169,
      "nouvel": 1170,
      "oivent": 1171,
      "tement": 1172,
      "nombre": 1173,
      "mani": 1174,
      "contrôle": 1175,
      "2003": 1176,
      "commune": 1177,
      "log": 1178,
      "diff": 1179,
      "application": 1180,
      "vote": 1181,
      "ents": 1182,
      "ange": 1183,
      "éval": 1184,
      "lè": 1185,
      "OC": 1186,
      "ML": 1187,
      "XML": 1188,
      "V0": 1189,
      "-//": 1190,
      "**": 1191,
      "tex": 1192,
      "QUES": 1193,
      "décla": 1194,
      "dépu": 1195,
      "Commun": 1196,
      "empl": 1197,
      ").": 1198,
      "oire": 1199,
      "base": 1200,
      "FR": 1201,
      "doivent": 1202,
      "199": 1203,
      "publique": 1204,
      "cap": 1205,
      "2002": 1206,
      "enco": 1207,
      "four": 1208,
      "toute": 1209,
      "................": 1210,
      "ouv": 1211,
      "action": 1212,
      "respon": 1213,
      "dre": 1214,
      "personnes": 1215,
      "économique": 1216,
      "mil": 1217,
      "résolution": 1218,
      "QUESTION": 1219,
      "ode": 1220,
      "jour": 1221,
      "homme": 1222,
      "st": 1223,
      "lations": 1224,
      "16": 1225,
      "ets": 1226,
      "santé": 1227,
      "13": 1228,
      "lar": 1229,
      "même": 1230,
      "ables": 1231,
      "uridi": 1232,
      "go": 1233,
      "compétent": 1234,
      "ill": 1235,
      "sous": 1236,
      "sans": 1237,
      "tin": 1238,
      "juridi": 1239,
      "public": 1240,
      "cture": 1241,
      "ances": 1242,
      "pê": 1243,
      "effi": 1244,
      "concerne": 1245,
      "prom": 1246,
      "fé": 1247,
      "eurs": 1248,
      "COM": 1249,
      "constitu": 1250,
      "devrait": 1251,
      "sup": 1252,
      "aus": 1253,
      "défin": 1254,
      "traté": 1255,
      "consomm": 1256,
      "dur": 1257,
      "18": 1258,
      "tifi": 1259,
      "minis": 1260,
      "système": 1261,
      "quer": 1262,
      "données": 1263,
      "uvent": 1264,
      "après": 1265,
      "rais": 1266,
      "gestion": 1267,
      "mission": 1268,
      "soulig": 1269,
      "fér": 1270,
      "peuvent": 1271,
      "communi": 1272,
      "communautaire": 1273,
      "bon": 1274,
      "DOC": 1275,
      "In": 1276,
      "conna": 1277,
      "ang": 1278,
      "14": 1279,
      "ari": 1280,
      "renfor": 1281,
      "Président": 1282,
      "tenir": 1283,
      "fonction": 1284,
      "cor": 1285,
      "02": 1286,
      "De": 1287,
      "rappor": 1288,
      "17": 1289,
      "cha": 1290,
      "actu": 1291,
      "Amen": 1292,
      "avoir": 1293,
      "conditions": 1294,
      "PPE": 1295,
      "tien": 1296,
      "ines": 1297,
      "place": 1298,
      "tro": 1299,
      "étab": 1300,
      "question": 1301,
      "cult": 1302,
      "dont": 1303,
      "can": 1304,
      "ÉC": 1305,
      "cra": 1306,
      "raient": 1307,
      "09": 1308,
      "antes": 1309,
      "straté": 1310,
      "IM": 1311,
      "bis": 1312,
      "députés": 1313,
      "lui": 1314,
      "000": 1315,
      "tats": 1316,
      "recher": 1317,
      "forme": 1318,
      "moins": 1319,
      "part": 1320,
      "président": 1321,
      "adopté": 1322,
      "rédu": 1323,
      "stru": 1324,
      "terr": 1325,
      "améli": 1326,
      "contra": 1327,
      "situation": 1328,
      "oient": 1329,
      "invite": 1330,
      "SI": 1331,
      "texte": 1332,
      "autre": 1333,
      "TA": 1334,
      "nexe": 1335,
      "questions": 1336,
      "PRES": 1337,
      "dus": 1338,
      "25": 1339,
      "entreprises": 1340,
      "citoy": 1341,
      "SE": 1342,
      "fer": 1343,
      "Ré": 1344,
      "cations": 1345,
      "particulier": 1346,
      "législati": 1347,
      "RITE": 1348,
      "tte": 1349,
      "gouvernement": 1350,
      "rée": 1351,
      "ÉCRITE": 1352,
      "règ": 1353,
      "issance": 1354,
      "affaires": 1355,
      "initi": 1356,
      "secteur": 1357,
      "nor": 1358,
      "sid": 1359,
      "Rap": 1360,
      "sions": 1361,
      "moy": 1362,
      "fem": 1363,
      "aliment": 1364,
      "ora": 1365,
      "sour": 1366,
      "inf": 1367,
      "hé": 1368,
      "partici": 1369,
      "aide": 1370,
      "tem": 1371,
      "PRESS": 1372,
      "jo": 1373,
      "derni": 1374,
      "prendre": 1375,
      "domaine": 1376,
      "maj": 1377,
      "où": 1378,
      "ateurs": 1379,
      "gue": 1380,
      "tention": 1381,
      "établis": 1382,
      "lab": 1383,
      "accès": 1384,
      "dit": 1385,
      "2001": 1386,
      "toutes": 1387,
      "oblig": 1388,
      "période": 1389,
      "différ": 1390,
      "utilisation": 1391,
      "représent": 1392,
      "auté": 1393,
      "prob": 1394,
      "ec": 1395,
      "fois": 1396,
      "tif": 1397,
      "direc": 1398,
      "préc": 1399,
      "suff": 1400,
      "sor": 1401,
      "agri": 1402,
      "nent": 1403,
      "manière": 1404,
      "proposé": 1405,
      "contribu": 1406,
      "intérieur": 1407,
      "Amendement": 1408,
      "ga": 1409,
      "respect": 1410,
      "respons": 1411,
      "puis": 1412,
      "ième": 1413,
      "vision": 1414,
      "recherche": 1415,
      "objectifs": 1416,
      "ps": 1417,
      "spécifi": 1418,
      "permet": 1419,
      "budget": 1420,
      "consu": 1421,
      "Communauté": 1422,
      "vie": 1423,
      "illeurs": 1424,
      "sep": 1425,
      "relative": 1426,
      "déce": 1427,
      "Proposition": 1428,
      "démo": 1429,
      "aient": 1430,
      "activités": 1431,
      "écu": 1432,
      "bat": 1433,
      "crit": 1434,
      "soient": 1435,
      "gence": 1436,
      "enne": 1437,
      "mer": 1438,
      "lieu": 1439,
      "amélio": 1440,
      "prise": 1441,
      "décembre": 1442,
      "règles": 1443,
      "pouv": 1444,
      "ru": 1445,
      "information": 1446,
      "férence": 1447,
      "conclu": 1448,
      "visant": 1449,
      "exécu": 1450,
      "TEX": 1451,
      "convi": 1452,
      "IN": 1453,
      "mble": 1454,
      "milli": 1455,
      "réun": 1456,
      "ellement": 1457,
      "déf": 1458,
      "estime": 1459,
      "actions": 1460,
      "prof": 1461,
      "hi": 1462,
      "mesure": 1463,
      "TEXT": 1464,
      "jou": 1465,
      "03": 1466,
      "ministra": 1467,
      "résul": 1468,
      "tal": 1469,
      "budgéta": 1470,
      "Com": 1471,
      "abilité": 1472,
      "séqu": 1473,
      "législation": 1474,
      "rou": 1475,
      "veaux": 1476,
      "lecture": 1477,
      "partie": 1478,
      "sources": 1479,
      "selon": 1480,
      "lim": 1481,
      "tiers": 1482,
      "ancement": 1483,
      "Tex": 1484,
      "heur": 1485,
      "sus": 1486,
      "PO": 1487,
      "évaluation": 1488,
      "bé": 1489,
      "parten": 1490,
      "isme": 1491,
      "administra": 1492,
      "femmes": 1493,
      "ler": 1494,
      "aussi": 1495,
      "réponse": 1496,
      "Dé": 1497,
      "quelle": 1498,
      "charge": 1499,
      "parlement": 1500,
      "assurer": 1501,
      "IS": 1502,
      "zon": 1503,
      "pêche": 1504,
      "ay": 1505,
      "énergie": 1506,
      "négo": 1507,
      "réglement": 1508,
      "négoci": 1509,
      "démocra": 1510,
      "techni": 1511,
      "nat": 1512,
      "annu": 1513,
      "citoyens": 1514,
      "AR": 1515,
      "Au": 1516,
      "Ce": 1517,
      "conséqu": 1518,
      "déla": 1519,
      "acité": 1520,
      "souligne": 1521,
      "ck": 1522,
      "ais": 1523,
      "étu": 1524,
      "emploi": 1525,
      "initiati": 1526,
      "alisation": 1527,
      "exis": 1528,
      "instru": 1529,
      "UR": 1530,
      "pourrait": 1531,
      "pose": 1532,
      "ass": 1533,
      "endant": 1534,
      "ate": 1535,
      "22": 1536,
      "plo": 1537,
      "compris": 1538,
      "suite": 1539,
      "04": 1540,
      "auc": 1541,
      "européens": 1542,
      "ess": 1543,
      "fron": 1544,
      "juin": 1545,
      "pai": 1546,
      "plan": 1547,
      "app": 1548,
      "mars": 1549,
      "nécessaire": 1550,
      "tionnel": 1551,
      "voi": 1552,
      "docu": 1553,
      "mai": 1554,
      "liber": 1555,
      "traite": 1556,
      "bil": 1557,
      "équi": 1558,
      "cro": 1559,
      "hésion": 1560,
      "bien": 1561,
      "général": 1562,
      "appr": 1563,
      "intérê": 1564,
      "act": 1565,
      "reg": 1566,
      "05": 1567,
      "main": 1568,
      "rier": 1569,
      "première": 1570,
      "mondi": 1571,
      "européennes": 1572,
      "devraient": 1573,
      "Pour": 1574,
      "fix": 1575,
      "\",": 1576,
      "rations": 1577,
      "ET": 1578,
      "trois": 1579,
      "commerci": 1580,
      "jan": 1581,
      "relatives": 1582,
      "ande": 1583,
      "garantir": 1584,
      "inves": 1585,
      "programmes": 1586,
      "ing": 1587,
      "23": 1588,
      "titre": 1589,
      "dements": 1590,
      "majorité": 1591,
      "judi": 1592,
      "27": 1593,
      "iné": 1594,
      "2000": 1595,
      "Rés": 1596,
      "béné": 1597,
      "Cet": 1598,
      "iser": 1599,
      "adoption": 1600,
      "tée": 1601,
      "intég": 1602,
      "fonda": 1603,
      "recomm": 1604,
      "égard": 1605,
      "lic": 1606,
      "établi": 1607,
      "entes": 1608,
      "pra": 1609,
      "nés": 1610,
      "rées": 1611,
      "24": 1612,
      "vier": 1613,
      "projets": 1614,
      "supplé": 1615,
      "indus": 1616,
      "Re": 1617,
      "rem": 1618,
      "annexe": 1619,
      "vembre": 1620,
      "rése": 1621,
      "ctob": 1622,
      "novembre": 1623,
      "ret": 1624,
      "cl": 1625,
      "aines": 1626,
      "juridique": 1627,
      "fondament": 1628,
      "particip": 1629,
      "mont": 1630,
      "ctobre": 1631,
      "ril": 1632,
      "28": 1633,
      "Jo": 1634,
      "réunion": 1635,
      "acte": 1636,
      "tice": 1637,
      "bénéfi": 1638,
      "struct": 1639,
      "Fon": 1640,
      "octobre": 1641,
      "cole": 1642,
      "formation": 1643,
      "stratégie": 1644,
      "exem": 1645,
      "fonds": 1646,
      "Su": 1647,
      "entifi": 1648,
      "financière": 1649,
      "quelles": 1650,
      "veill": 1651,
      "id": 1652,
      "cessus": 1653,
      "tég": 1654,
      "élec": 1655,
      "convient": 1656,
      "plu": 1657,
      "prim": 1658,
      "pouvoir": 1659,
      "sera": 1660,
      "rique": 1661,
      "èmes": 1662,
      "financement": 1663,
      "crimin": 1664,
      "quels": 1665,
      "ensemble": 1666,
      "enf": 1667,
      "processus": 1668,
      "temps": 1669,
      "seu": 1670,
      "ports": 1671,
      "exig": 1672,
      "chaque": 1673,
      "économiques": 1674,
      "consommateurs": 1675,
      "compétente": 1676,
      "ture": 1677,
      "certains": 1678,
      "élé": 1679,
      "gueur": 1680,
      "io": 1681,
      "Texte": 1682,
      "Rapport": 1683,
      "fac": 1684,
      "Nations": 1685,
      "Cour": 1686,
      "bes": 1687,
      "production": 1688,
      "nécessaires": 1689,
      "ani": 1690,
      "exerci": 1691,
      "06": 1692,
      "uni": 1693,
      "profes": 1694,
      "ef": 1695,
      "institutions": 1696,
      "Ques": 1697,
      "débat": 1698,
      "change": 1699,
      "dépend": 1700,
      "ton": 1701,
      "venir": 1702,
      "29": 1703,
      "explo": 1704,
      "procédures": 1705,
      "AL": 1706,
      "encore": 1707,
      "vement": 1708,
      "transport": 1709,
      "térieur": 1710,
      "qualité": 1711,
      "tembre": 1712,
      "cel": 1713,
      "objectif": 1714,
      "confi": 1715,
      "rôle": 1716,
      "uses": 1717,
      "final": 1718,
      "septembre": 1719,
      "élab": 1720,
      "coû": 1721,
      "engage": 1722,
      "communication": 1723,
      "26": 1724,
      "erce": 1725,
      "ALE": 1726,
      "Procéd": 1727,
      "janvier": 1728,
      "ager": 1729,
      "rapporteur": 1730,
      "normes": 1731,
      "Si": 1732,
      "21": 1733,
      "effic": 1734,
      "aug": 1735,
      "lutte": 1736,
      "exercice": 1737,
      "rie": 1738,
      "cul": 1739,
      "appropri": 1740,
      "sociale": 1741,
      "ages": 1742,
      "vigueur": 1743,
      "territ": 1744,
      "illet": 1745,
      "associ": 1746,
      "culture": 1747,
      "ffici": 1748,
      "cli": 1749,
      "investis": 1750,
      "infra": 1751,
      "dée": 1752,
      "ber": 1753,
      "justice": 1754,
      "budgétaire": 1755,
      "vale": 1756,
      "ites": 1757,
      "ente": 1758,
      "subst": 1759,
      "ressources": 1760,
      "raison": 1761,
      "atte": 1762,
      "prévu": 1763,
      "unies": 1764,
      "nationales": 1765,
      "Procédure": 1766,
      "régions": 1767,
      "autorité": 1768,
      "Po": 1769,
      "bonne": 1770,
      "avril": 1771,
      "crite": 1772,
      "possible": 1773,
      "Pa": 1774,
      "essenti": 1775,
      "sie": 1776,
      "LA": 1777,
      "pi": 1778,
      "ka": 1779,
      "um": 1780,
      "off": 1781,
      "sein": 1782,
      "exécution": 1783,
      "République": 1784,
      "cal": 1785,
      "poser": 1786,
      "propositions": 1787,
      "tées": 1788,
      "vation": 1789,
      "jà": 1790,
      "techno": 1791,
      "RÉ": 1792,
      "qué": 1793,
      "évrier": 1794,
      "déjà": 1795,
      "ctives": 1796,
      "PRO": 1797,
      "février": 1798,
      "termin": 1799,
      "systèmes": 1800,
      "objet": 1801,
      "profession": 1802,
      "popu": 1803,
      "année": 1804,
      "civi": 1805,
      "société": 1806,
      "effet": 1807,
      "ination": 1808,
      "nements": 1809,
      "juillet": 1810,
      "Fonds": 1811,
      "international": 1812,
      "Question": 1813,
      "euros": 1814,
      "applic": 1815,
      "réalis": 1816,
      "curr": 1817,
      "régu": 1818,
      "aur": 1819,
      "étr": 1820,
      "tifs": 1821,
      "augment": 1822,
      "fourni": 1823,
      "beso": 1824,
      "encour": 1825,
      "rec": 1826,
      "arrê": 1827,
      "cour": 1828,
      "porte": 1829,
      "ki": 1830,
      "aé": 1831,
      "soutien": 1832,
      "écrite": 1833,
      "voir": 1834,
      "itaire": 1835,
      "Cette": 1836,
      "amp": 1837,
      "sieurs": 1838,
      "régi": 1839,
      "desti": 1840,
      "EUR": 1841,
      "effor": 1842,
      "***": 1843,
      "nouvelles": 1844,
      "conti": 1845,
      "marchés": 1846,
      "anim": 1847,
      "fication": 1848,
      "déclaration": 1849,
      "financier": 1850,
      "étrang": 1851,
      "dits": 1852,
      "ectu": 1853,
      "délai": 1854,
      "èrement": 1855,
      "fourn": 1856,
      "exam": 1857,
      "mom": 1858,
      "bénéfici": 1859,
      "dou": 1860,
      "délég": 1861,
      "communautaires": 1862,
      "prog": 1863,
      "trodu": 1864,
      "nouvelle": 1865,
      "vre": 1866,
      "tive": 1867,
      "parties": 1868,
      "Ver": 1869,
      "mois": 1870,
      "çon": 1871,
      "effectu": 1872,
      "isant": 1873,
      "ticles": 1874,
      "orig": 1875,
      "sements": 1876,
      "nelle": 1877,
      "recommand": 1878,
      "nouveaux": 1879,
      "moment": 1880,
      "ty": 1881,
      "prix": 1882,
      "mod": 1883,
      "Li": 1884,
      "har": 1885,
      "tali": 1886,
      "\".": 1887,
      "coord": 1888,
      "long": 1889,
      "deuxième": 1890,
      "principe": 1891,
      "introdu": 1892,
      "08": 1893,
      "articles": 1894,
      "Se": 1895,
      "amendements": 1896,
      "améliorer": 1897,
      "JO": 1898,
      "voy": 1899,
      "date": 1900,
      "ouve": 1901,
      "07": 1902,
      "eux": 1903,
      "ches": 1904,
      "AN": 1905,
      "nécessité": 1906,
      "tation": 1907,
      "exemple": 1908,
      "compéten": 1909,
      "quê": 1910,
      "CEE": 1911,
      "affi": 1912,
      "commerce": 1913,
      "RE": 1914,
      "jours": 1915,
      "han": 1916,
      "net": 1917,
      "PSE": 1918,
      "sim": 1919,
      "libre": 1920,
      "millions": 1921,
      "internationale": 1922,
      "Al": 1923,
      "Ces": 1924,
      "plusieurs": 1925,
      "terme": 1926,
      "personnel": 1927,
      "cir": 1928,
      "ue": 1929,
      "ori": 1930,
      "lée": 1931,
      "unique": 1932,
      "renforcer": 1933,
      "premier": 1934,
      "ITE": 1935,
      "nationaux": 1936,
      "concurr": 1937,
      "connaissance": 1938,
      "aveur": 1939,
      "laquelle": 1940,
      "national": 1941,
      "faveur": 1942,
      "quant": 1943,
      "session": 1944,
      "the": 1945,
      "SO": 1946,
      "importance": 1947,
      "issent": 1948,
      "obser": 1949,
      "ariat": 1950,
      "outre": 1951,
      "respec": 1952,
      "tie": 1953,
      "117": 1954,
      "émission": 1955,
      "1999": 1956,
      "huma": 1957,
      "donc": 1958,
      "Ma": 1959,
      "agne": 1960,
      "porter": 1961,
      "occu": 1962,
      "conf": 1963,
      "constru": 1964,
      "ateur": 1965,
      "détermin": 1966,
      "ayant": 1967,
      "négociations": 1968,
      "extérieur": 1969,
      "façon": 1970,
      "telle": 1971,
      "résultats": 1972,
      "Tou": 1973,
      "alo": 1974,
      "Date": 1975,
      "tives": 1976,
      "Br": 1977,
      "travailleurs": 1978,
      "san": 1979,
      "ban": 1980,
      "surveill": 1981,
      "enfants": 1982,
      "consult": 1983,
      "0901": 1984,
      "création": 1985,
      "accords": 1986,
      "égalité": 1987,
      "relations": 1988,
      "accor": 1989,
      "matique": 1990,
      "Mi": 1991,
      "divers": 1992,
      "Une": 1993,
      "esp": 1994,
      "condu": 1995,
      "risque": 1996,
      "élabo": 1997,
      "navi": 1998,
      "tat": 1999,
      "cace": 2000,
      "issant": 2001,
      "transpar": 2002,
      "den": 2003,
      "imp": 2004,
      "enquê": 2005,
      "Sch": 2006,
      "traitement": 2007,
      "éléments": 2008,
      "principes": 2009,
      "moyen": 2010,
      "ia": 2011,
      "tels": 2012,
      "surveillance": 2013,
      "20050901": 2014,
      "exploit": 2015,
      "val": 2016,
      "efficace": 2017,
      "rapp": 2018,
      "AC": 2019,
      "initiative": 2020,
      "ST": 2021,
      "technolog": 2022,
      "ov": 2023,
      "dat": 2024,
      "ement": 2025,
      "31": 2026,
      "Or": 2027,
      "fav": 2028,
      "très": 2029,
      "durable": 2030,
      "alités": 2031,
      "ceux": 2032,
      "trie": 2033,
      "entra": 2034,
      "comptes": 2035,
      "déci": 2036,
      "étant": 2037,
      "ITEM": 2038,
      "ints": 2039,
      "entend": 2040,
      "emb": 2041,
      "As": 2042,
      "taux": 2043,
      "organisations": 2044,
      "efficacité": 2045,
      "examen": 2046,
      "techniques": 2047,
      "édu": 2048,
      "rent": 2049,
      "pendant": 2050,
      "fonctionnement": 2051,
      "LU": 2052,
      "portant": 2053,
      "erre": 2054,
      "vant": 2055,
      "risques": 2056,
      "pression": 2057,
      "iste": 2058,
      "celle": 2059,
      "voit": 2060,
      "Agence": 2061,
      "celui": 2062,
      "50": 2063,
      "promouv": 2064,
      "critères": 2065,
      "participation": 2066,
      "Résolution": 2067,
      "relatif": 2068,
      "continu": 2069,
      "lob": 2070,
      "adhésion": 2071,
      "qua": 2072,
      ");": 2073,
      "og": 2074,
      "offici": 2075,
      "discrimin": 2076,
      "donné": 2077,
      "séance": 2078,
      "ôt": 2079,
      "centra": 2080,
      "aliné": 2081,
      "certaines": 2082,
      "affir": 2083,
      "be": 2084,
      "service": 2085,
      "statu": 2086,
      "documents": 2087,
      "tenant": 2088,
      "origine": 2089,
      "financiers": 2090,
      "Lors": 2091,
      "liberté": 2092,
      "envis": 2093,
      "dès": 2094,
      "oires": 2095,
      "sidence": 2096,
      "permettre": 2097,
      "souh": 2098,
      "depuis": 2099,
      "celles": 2100,
      "licite": 2101,
      "suffis": 2102,
      "état": 2103,
      "évent": 2104,
      "Considé": 2105,
      "................................": 2106,
      "Bar": 2107,
      "gaz": 2108,
      "pratiques": 2109,
      "DU": 2110,
      "Es": 2111,
      "pol": 2112,
      "posent": 2113,
      "alinéa": 2114,
      "concurrence": 2115,
      "Considérant": 2116,
      "pec": 2117,
      "appel": 2118,
      "seront": 2119,
      "promouvoir": 2120,
      "iller": 2121,
      "vée": 2122,
      "bio": 2123,
      "indépend": 2124,
      "unes": 2125,
      "intention": 2126,
      "exprim": 2127,
      "spécifiques": 2128,
      "exigences": 2129,
      "années": 2130,
      "sen": 2131,
      "énergé": 2132,
      "itaires": 2133,
      "ussie": 2134,
      "sci": 2135,
      "pren": 2136,
      "adap": 2137,
      "compag": 2138,
      "Etats": 2139,
      "intérêt": 2140,
      "soli": 2141,
      "sujet": 2142,
      "telles": 2143,
      "tres": 2144,
      "anal": 2145,
      "crise": 2146,
      "lin": 2147,
      "lèmes": 2148,
      "Unis": 2149,
      "évo": 2150,
      "LUTION": 2151,
      "candi": 2152,
      "pass": 2153,
      "ition": 2154,
      "tour": 2155,
      "ordre": 2156,
      "fond": 2157,
      "fu": 2158,
      "ception": 2159,
      "ront": 2160,
      "SOLUTION": 2161,
      "RÉSOLUTION": 2162,
      "consultation": 2163,
      "pati": 2164,
      "Car": 2165,
      "entreprise": 2166,
      "grande": 2167,
      "alimentaire": 2168,
      "jusqu": 2169,
      "mul": 2170,
      "déch": 2171,
      "abs": 2172,
      "attein": 2173,
      "43": 2174,
      "méth": 2175,
      "animaux": 2176,
      "euro": 2177,
      "lit": 2178,
      "problèmes": 2179,
      "MEN": 2180,
      "ana": 2181,
      "mécan": 2182,
      "isse": 2183,
      "ventions": 2184,
      "orient": 2185,
      "législative": 2186,
      "efforts": 2187,
      "crédits": 2188,
      "ption": 2189,
      "régime": 2190,
      "financières": 2191,
      "rend": 2192,
      "éventu": 2193,
      "groupes": 2194,
      "réseau": 2195,
      "all": 2196,
      "autoris": 2197,
      "quent": 2198,
      "publics": 2199,
      "ître": 2200,
      "Verts": 2201,
      "tas": 2202,
      "45": 2203,
      "fins": 2204,
      "domaines": 2205,
      "industrie": 2206,
      "alogue": 2207,
      "lex": 2208,
      "rès": 2209,
      "formes": 2210,
      "amendement": 2211,
      "territoire": 2212,
      "46": 2213,
      "activité": 2214,
      "inno": 2215,
      "let": 2216,
      "vertu": 2217,
      "était": 2218,
      "comité": 2219,
      "Ex": 2220,
      "transports": 2221,
      "istance": 2222,
      "éché": 2223,
      "taire": 2224,
      "social": 2225,
      "instruments": 2226,
      "éducation": 2227,
      "judici": 2228,
      "chi": 2229,
      "fondamentaux": 2230,
      "hicu": 2231,
      "pen": 2232,
      "mention": 2233,
      "heures": 2234,
      "montant": 2235,
      "adopter": 2236,
      "Je": 2237,
      "meille": 2238,
      "laire": 2239,
      "clé": 2240,
      "A6": 2241,
      "BRI": 2242,
      "issement": 2243,
      "déchets": 2244,
      "mentaires": 2245,
      "véhicu": 2246,
      "sau": 2247,
      "vio": 2248,
      "nature": 2249,
      "poni": 2250,
      "hér": 2251,
      "rapi": 2252,
      "ous": 2253,
      "99": 2254,
      "disponi": 2255,
      "but": 2256,
      "of": 2257,
      "vaux": 2258,
      "mises": 2259,
      "OP": 2260,
      "gi": 2261,
      "aéri": 2262,
      "compétentes": 2263,
      "enses": 2264,
      "cau": 2265,
      "annuel": 2266,
      "possibilité": 2267,
      "OR": 2268,
      "actes": 2269,
      "ert": 2270,
      "nationale": 2271,
      "ises": 2272,
      "ric": 2273,
      "cre": 2274,
      "réduire": 2275,
      "responsabilité": 2276,
      "fut": 2277,
      "décisions": 2278,
      "lorsque": 2279,
      "félicite": 2280,
      "peu": 2281,
      "évalu": 2282,
      "civile": 2283,
      "important": 2284,
      "défense": 2285,
      "van": 2286,
      "fronti": 2287,
      "moyens": 2288,
      "Russie": 2289,
      "fig": 2290,
      "rages": 2291,
      "différents": 2292,
      "lutions": 2293,
      "terror": 2294,
      "éviter": 2295,
      "table": 2296,
      "viol": 2297,
      "avait": 2298,
      "dam": 2299,
      "structures": 2300,
      "téri": 2301,
      "ajou": 2302,
      "glob": 2303,
      "promo": 2304,
      "33": 2305,
      "coûts": 2306,
      "autorisation": 2307,
      "dialogue": 2308,
      "OM": 2309,
      "semb": 2310,
      "consid": 2311,
      "avi": 2312,
      "III": 2313,
      "émissions": 2314,
      "HE": 2315,
      "Lu": 2316,
      "contrô": 2317,
      "mu": 2318,
      "prior": 2319,
      "NE": 2320,
      "croissance": 2321,
      "vité": 2322,
      "médica": 2323,
      "obligations": 2324,
      "monde": 2325,
      "ref": 2326,
      "rele": 2327,
      "ici": 2328,
      "serait": 2329,
      "cin": 2330,
      "complé": 2331,
      "alimentaires": 2332,
      "consul": 2333,
      "intégration": 2334,
      "coles": 2335,
      "convention": 2336,
      "dés": 2337,
      "Tur": 2338,
      "Inter": 2339,
      "loi": 2340,
      "dio": 2341,
      "regis": 2342,
      "présenter": 2343,
      "vés": 2344,
      "points": 2345,
      "disposition": 2346,
      "pén": 2347,
      "travaux": 2348,
      "tron": 2349,
      "savoir": 2350,
      "stratég": 2351,
      "ALDE": 2352,
      "économie": 2353,
      "partenariat": 2354,
      "Lis": 2355,
      "POSI": 2356,
      "Ni": 2357,
      "proch": 2358,
      "contexte": 2359,
      "sais": 2360,
      "POSITION": 2361,
      "exprimés": 2362,
      "zone": 2363,
      "personne": 2364,
      "exclu": 2365,
      "PAR": 2366,
      "réser": 2367,
      "référence": 2368,
      "Aut": 2369,
      "NG": 2370,
      "réduction": 2371,
      "avantage": 2372,
      "pau": 2373,
      "hab": 2374,
      "liste": 2375,
      "scientifi": 2376,
      "établissement": 2377,
      "ladi": 2378,
      "Sa": 2379,
      "impli": 2380,
      "pleine": 2381,
      "dépenses": 2382,
      "zones": 2383,
      "conclusions": 2384,
      "grand": 2385,
      "visée": 2386,
      "produit": 2387,
      "Co": 2388,
      "cteurs": 2389,
      "cultur": 2390,
      "permettant": 2391,
      "promotion": 2392,
      "face": 2393,
      "organisation": 2394,
      "Ne": 2395,
      "ls": 2396,
      "colle": 2397,
      "annon": 2398,
      "aucune": 2399,
      "population": 2400,
      "C6": 2401,
      "élar": 2402,
      "progrès": 2403,
      "suivi": 2404,
      "tification": 2405,
      "hes": 2406,
      "yn": 2407,
      "organismes": 2408,
      "fam": 2409,
      "GUE": 2410,
      "illes": 2411,
      "suffrages": 2412,
      "protég": 2413,
      "échange": 2414,
      "Rom": 2415,
      "accep": 2416,
      "tocole": 2417,
      "multi": 2418,
      "tenus": 2419,
      "fournir": 2420,
      "considère": 2421,
      "DES": 2422,
      "préoccu": 2423,
      "trop": 2424,
      "constitue": 2425,
      "heure": 2426,
      "Brux": 2427,
      "cée": 2428,
      "approche": 2429,
      "prévues": 2430,
      "Bruxelles": 2431,
      "PROPOSITION": 2432,
      "impact": 2433,
      "loc": 2434,
      "suivant": 2435,
      "rog": 2436,
      "LEMEN": 2437,
      "tock": 2438,
      "ze": 2439,
      "déta": 2440,
      "instal": 2441,
      "réglementation": 2442,
      "col": 2443,
      "gues": 2444,
      "consta": 2445,
      "codécision": 2446,
      "cc": 2447,
      "naires": 2448,
      "mor": 2449,
      "elon": 2450,
      "catif": 2451,
      "contribuer": 2452,
      "liv": 2453,
      "effets": 2454,
      "cité": 2455,
      "facil": 2456,
      "37": 2457,
      "entrée": 2458,
      "47": 2459,
      "générale": 2460,
      "LES": 2461,
      "compétences": 2462,
      "internationales": 2463,
      "analy": 2464,
      "large": 2465,
      "compl": 2466,
      "tur": 2467,
      "actuellement": 2468,
      "requ": 2469,
      "rejet": 2470,
      "échéant": 2471,
      "seulement": 2472,
      "juridiques": 2473,
      "examin": 2474,
      "nie": 2475,
      "mun": 2476,
      "valeur": 2477,
      "effe": 2478,
      "Lisbonne": 2479,
      "nous": 2480,
      "cées": 2481,
      "cue": 2482,
      "victi": 2483,
      "substances": 2484,
      "besoins": 2485,
      "NGL": 2486,
      "voie": 2487,
      "éli": 2488,
      "professionnel": 2489,
      "ko": 2490,
      "nég": 2491,
      "font": 2492,
      "rir": 2493,
      "mie": 2494,
      "recours": 2495,
      "durée": 2496,
      "jeunes": 2497,
      "cela": 2498,
      "trait": 2499,
      "autés": 2500,
      "eau": 2501,
      "ME": 2502,
      "natur": 2503,
      "prévoit": 2504,
      "Des": 2505,
      "veiller": 2506,
      "rapports": 2507,
      "ennes": 2508,
      "transparence": 2509,
      "bas": 2510,
      "lème": 2511,
      "intérêts": 2512,
      "fran": 2513,
      "Quelles": 2514,
      "conseil": 2515,
      "ach": 2516,
      "fier": 2517,
      "Ber": 2518,
      "appliquer": 2519,
      "énergétique": 2520,
      "suivantes": 2521,
      "problème": 2522,
      "changement": 2523,
      "itali": 2524,
      "concernés": 2525,
      "type": 2526,
      "49": 2527,
      "ît": 2528,
      "technique": 2529,
      "parlementaire": 2530,
      "dernier": 2531,
      "Gar": 2532,
      "sens": 2533,
      "48": 2534,
      "sû": 2535,
      "Af": 2536,
      "donner": 2537,
      "dats": 2538,
      "démocratie": 2539,
      "rur": 2540,
      "particulièrement": 2541,
      "électron": 2542,
      "35": 2543,
      "renforce": 2544,
      "quie": 2545,
      "soutenir": 2546,
      "Man": 2547,
      "pects": 2548,
      "36": 2549,
      "tient": 2550,
      "laté": 2551,
      "IT": 2552,
      "somm": 2553,
      "frontali": 2554,
      "construction": 2555,
      "réguli": 2556,
      "harmon": 2557,
      "arité": 2558,
      "male": 2559,
      "use": 2560,
      "Convention": 2561,
      "satis": 2562,
      "transmettre": 2563,
      "numé": 2564,
      "suppléant": 2565,
      "instrument": 2566,
      "désig": 2567,
      "quit": 2568,
      "cident": 2569,
      "cohér": 2570,
      "odes": 2571,
      "conséquent": 2572,
      "hy": 2573,
      "Cor": 2574,
      "culation": 2575,
      "exer": 2576,
      "ía": 2577,
      "DT": 2578,
      "octr": 2579,
      "mondiale": 2580,
      "atoire": 2581,
      "initiatives": 2582,
      "tégor": 2583,
      "Gu": 2584,
      "v01": 2585,
      "structur": 2586,
      "peti": 2587,
      "coordination": 2588,
      "télé": 2589,
      "aven": 2590,
      "opéra": 2591,
      "Fran": 2592,
      "visés": 2593,
      "cou": 2594,
      "tenti": 2595,
      "étude": 2596,
      "urgence": 2597,
      "quet": 2598,
      "alors": 2599,
      "IPR": 2600,
      "registre": 2601,
      "tend": 2602,
      "cessi": 2603,
      "raph": 2604,
      "établir": 2605,
      "identifi": 2606,
      "engagement": 2607,
      "prépar": 2608,
      "El": 2609,
      "perspe": 2610,
      "document": 2611,
      "visées": 2612,
      "rappelle": 2613,
      "claire": 2614,
      "partir": 2615,
      "libertés": 2616,
      "Comité": 2617,
      "utilisés": 2618,
      "procé": 2619,
      "statut": 2620,
      "réalisation": 2621,
      "cés": 2622,
      "max": 2623,
      "cales": 2624,
      "avenir": 2625,
      "ssi": 2626,
      "sociales": 2627,
      "applicables": 2628,
      "amélioration": 2629,
      "ène": 2630,
      "gen": 2631,
      "précé": 2632,
      "nuclé": 2633,
      "faut": 2634,
      "indiquer": 2635,
      "toujours": 2636,
      "lequel": 2637,
      "capit": 2638,
      "modalités": 2639,
      "VE": 2640,
      "NI": 2641,
      "Char": 2642,
      "infor": 2643,
      "conséquences": 2644,
      "stitu": 2645,
      "Elle": 2646,
      "catégor": 2647,
      "modifiant": 2648,
      "lesquels": 2649,
      "total": 2650,
      "prévue": 2651,
      "assistance": 2652,
      "étrangères": 2653,
      "sensi": 2654,
      "liés": 2655,
      "caract": 2656,
      "agriculture": 2657,
      "VI": 2658,
      "capacité": 2659,
      "Ri": 2660,
      "rance": 2661,
      "ailleurs": 2662,
      "gouvernements": 2663,
      "prévention": 2664,
      "obligation": 2665,
      "suivre": 2666,
      "devant": 2667,
      "spécifique": 2668,
      "libé": 2669,
      "enquête": 2670,
      "cus": 2671,
      "expli": 2672,
      "maladi": 2673,
      "laires": 2674,
      "administration": 2675,
      "manif": 2676,
      "rempla": 2677,
      "existe": 2678,
      "industri": 2679,
      "phy": 2680,
      "amb": 2681,
      "Annexe": 2682,
      "ressor": 2683,
      "véri": 2684,
      "asi": 2685,
      "ède": 2686,
      "án": 2687,
      "cle": 2688,
      "prop": 2689,
      "ger": 2690,
      "véhicules": 2691,
      "figur": 2692,
      "augmentation": 2693,
      "justifi": 2694,
      "électri": 2695,
      "renforcement": 2696,
      "aspects": 2697,
      "conform": 2698,
      "élections": 2699,
      "39": 2700,
      "technologies": 2701,
      "caractère": 2702,
      "los": 2703,
      "réseaux": 2704,
      "reconna": 2705,
      "institutionnel": 2706,
      "frontières": 2707,
      "victimes": 2708,
      "protocole": 2709,
      "Ro": 2710,
      "quée": 2711,
      "hommes": 2712,
      "tage": 2713,
      "discrimination": 2714,
      "ja": 2715,
      "modification": 2716,
      "délégation": 2717,
      "compéti": 2718,
      "38": 2719,
      "Rob": 2720,
      "»,": 2721,
      "termes": 2722,
      "répondre": 2723,
      "stock": 2724,
      "2012": 2725,
      "correspon": 2726,
      "lorsqu": 2727,
      "publiques": 2728,
      "era": 2729,
      "Vi": 2730,
      "cohésion": 2731,
      "stabilité": 2732,
      "anci": 2733,
      "actuelle": 2734,
      "davantage": 2735,
      "aucun": 2736,
      "Roy": 2737,
      "Ad": 2738,
      "nal": 2739,
      "fis": 2740,
      "étés": 2741,
      "favor": 2742,
      "immédi": 2743,
      "Ge": 2744,
      "BE": 2745,
      "ath": 2746,
      "cy": 2747,
      "mandat": 2748,
      "32": 2749,
      "secteurs": 2750,
      "proven": 2751,
      "paix": 2752,
      "condition": 2753,
      "potenti": 2754,
      "médicaments": 2755,
      "ros": 2756,
      "quali": 2757,
      "del": 2758,
      "sition": 2759,
      "conc": 2760,
      "présents": 2761,
      "conta": 2762,
      "OPÉ": 2763,
      "agit": 2764,
      "réforme": 2765,
      "études": 2766,
      "human": 2767,
      "opérations": 2768,
      "expéri": 2769,
      "révision": 2770,
      "situ": 2771,
      "Turquie": 2772,
      "ira": 2773,
      "immi": 2774,
      "princip": 2775,
      "AD": 2776,
      "Conférence": 2777,
      "Mé": 2778,
      "adoptée": 2779,
      "LEMENT": 2780,
      "tor": 2781,
      "uel": 2782,
      "Jan": 2783,
      "insta": 2784,
      "venu": 2785,
      "Is": 2786,
      "nombreux": 2787,
      "40": 2788,
      "exploitation": 2789,
      "reç": 2790,
      "conclusion": 2791,
      "asse": 2792,
      "respecter": 2793,
      "appu": 2794,
      "élaboration": 2795,
      "logique": 2796,
      "sex": 2797,
      "suivants": 2798,
      "OPÉEN": 2799,
      "adé": 2800,
      "Uni": 2801,
      "propri": 2802,
      "EUROPÉEN": 2803,
      "Selon": 2804,
      "sociaux": 2805,
      "attention": 2806,
      "voix": 2807,
      "différentes": 2808,
      "valeurs": 2809,
      "Chris": 2810,
      "connu": 2811,
      "aume": 2812,
      "pauvre": 2813,
      "2013": 2814,
      "destin": 2815,
      "Vo": 2816,
      "aides": 2817,
      "ala": 2818,
      "andis": 2819,
      "pertin": 2820,
      "alle": 2821,
      "encourager": 2822,
      "aces": 2823,
      "structure": 2824,
      "recommandations": 2825,
      "pleinement": 2826,
      "FE": 2827,
      "dence": 2828,
      "modifier": 2829,
      "paiement": 2830,
      "raisons": 2831,
      "législatif": 2832,
      "mée": 2833,
      "entraî": 2834,
      "Royaume": 2835,
      "pléni": 2836,
      "fai": 2837,
      "consommation": 2838,
      "rit": 2839,
      "quées": 2840,
      "pace": 2841,
      "candidats": 2842,
      "mal": 2843,
      "COD": 2844,
      "conser": 2845,
      "créer": 2846,
      "ligne": 2847,
      "représentants": 2848,
      "recommandation": 2849,
      "Autorité": 2850,
      "ché": 2851,
      "analyse": 2852,
      "tribution": 2853,
      "SION": 2854,
      "».": 2855,
      "navires": 2856,
      "tter": 2857,
      "institution": 2858,
      "partenaires": 2859,
      "Pet": 2860,
      "assurance": 2861,
      "adres": 2862,
      "pauvreté": 2863,
      "investissement": 2864,
      "propres": 2865,
      "monéta": 2866,
      "ski": 2867,
      "accro": 2868,
      "PARLEMENT": 2869,
      "az": 2870,
      "propose": 2871,
      "directement": 2872,
      "solid": 2873,
      "porteur": 2874,
      "88": 2875,
      "clure": 2876,
      "niveaux": 2877,
      "élarg": 2878,
      "applicable": 2879,
      "crédit": 2880,
      "contenu": 2881,
      "pales": 2882,
      "semblée": 2883,
      "hau": 2884,
      "accompag": 2885,
      "circulation": 2886,
      "tard": 2887,
      "propor": 2888,
      "acqu": 2889,
      "commissions": 2890,
      "67": 2891,
      "climatique": 2892,
      "définition": 2893,
      "Toute": 2894,
      "export": 2895,
      "sol": 2896,
      "démocratique": 2897,
      "COMM": 2898,
      "exper": 2899,
      "ctu": 2900,
      "phé": 2901,
      "ouverture": 2902,
      "proc": 2903,
      "transfrontali": 2904,
      "vice": 2905,
      "inte": 2906,
      "réunions": 2907,
      "60": 2908,
      "plénière": 2909,
      "cueil": 2910,
      "précédent": 2911,
      "décharge": 2912,
      "volon": 2913,
      "instamment": 2914,
      "ak": 2915,
      "enseig": 2916,
      "quoi": 2917,
      "logie": 2918,
      "posés": 2919,
      "Gi": 2920,
      "AP": 2921,
      "pratique": 2922,
      "mieux": 2923,
      "faciliter": 2924,
      "absence": 2925,
      "ow": 2926,
      "diction": 2927,
      "ards": 2928,
      "comb": 2929,
      "condam": 2930,
      "centrale": 2931,
      "transfer": 2932,
      "bour": 2933,
      "ina": 2934,
      "dernière": 2935,
      "couv": 2936,
      "presse": 2937,
      "ouvé": 2938,
      "pens": 2939,
      "périeur": 2940,
      "supérieur": 2941,
      "imum": 2942,
      "liées": 2943,
      "récent": 2944,
      "conforme": 2945,
      "Jean": 2946,
      "lignes": 2947,
      "fab": 2948,
      "sées": 2949,
      "dées": 2950,
      "nex": 2951,
      "signi": 2952,
      "sorte": 2953,
      "correspond": 2954,
      "75": 2955,
      "ureau": 2956,
      "...": 2957,
      "CON": 2958,
      "vois": 2959,
      "adoptés": 2960,
      "diter": 2961,
      "handi": 2962,
      "soumis": 2963,
      "quanti": 2964,
      "commiss": 2965,
      "quo": 2966,
      "handicap": 2967,
      "présidence": 2968,
      "agers": 2969,
      "applique": 2970,
      "confir": 2971,
      "Rè": 2972,
      "prê": 2973,
      "anges": 2974,
      "Chine": 2975,
      "médias": 2976,
      "relè": 2977,
      "bilités": 2978,
      "éco": 2979,
      "Grè": 2980,
      "Hon": 2981,
      "investissements": 2982,
      "istes": 2983,
      "évolution": 2984,
      "Cas": 2985,
      "habit": 2986,
      "diterran": 2987,
      "illég": 2988,
      "régional": 2989,
      "pourraient": 2990,
      "auprès": 2991,
      "faisant": 2992,
      "lande": 2993,
      "protéger": 2994,
      "Ko": 2995,
      "art": 2996,
      "infrastructures": 2997,
      "lesquelles": 2998,
      "version": 2999,
      "mariti": 3000,
      "inqui": 3001,
      "gration": 3002,
      "dition": 3003,
      "atteindre": 3004,
      "DTD": 3005,
      "engag": 3006,
      "préjudi": 3007,
      "qualifi": 3008,
      "Mon": 3009,
      "istan": 3010,
      "terrorisme": 3011,
      "modifications": 3012,
      "demandes": 3013,
      "80": 3014,
      "dû": 3015,
      "ative": 3016,
      "bar": 3017,
      "sanctions": 3018,
      "statis": 3019,
      "STY": 3020,
      "HEET": 3021,
      "LESHEET": 3022,
      "STYLESHEET": 3023,
      "bilisation": 3024,
      "perman": 3025,
      "agno": 3026,
      "Kar": 3027,
      "communes": 3028,
      "diversité": 3029,
      "délais": 3030,
      "orable": 3031,
      "prév": 3032,
      "lent": 3033,
      "proposée": 3034,
      "Euro": 3035,
      "Grèce": 3036,
      "contrôles": 3037,
      "rendre": 3038,
      "Résul": 3039,
      "association": 3040,
      "fondée": 3041,
      "Be": 3042,
      "fournit": 3043,
      "Dire": 3044,
      "réso": 3045,
      "troisième": 3046,
      "naire": 3047,
      "bur": 3048,
      "disponibles": 3049,
      "engagements": 3050,
      "besoin": 3051,
      "préoccup": 3052,
      "souhait": 3053,
      "cinq": 3054,
      "échanges": 3055,
      "priorités": 3056,
      "présidents": 3057,
      "agricoles": 3058,
      "organes": 3059,
      "denrées": 3060,
      "expri": 3061,
      "98": 3062,
      "intes": 3063,
      "concernées": 3064,
      "destinés": 3065,
      "fic": 3066,
      "55": 3067,
      "innovation": 3068,
      "éti": 3069,
      "èces": 3070,
      "44": 3071,
      "relig": 3072,
      "mation": 3073,
      "budgets": 3074,
      "supplémentaires": 3075,
      "atta": 3076,
      "solution": 3077,
      "essentiel": 3078,
      "internationaux": 3079,
      "relatifs": 3080,
      "gré": 3081,
      "toutefois": 3082,
      "sée": 3083,
      "mêmes": 3084,
      "vil": 3085,
      "Mo": 3086,
      "ace": 3087,
      "inclu": 3088,
      "fr": 3089,
      "armes": 3090,
      "Dro": 3091,
      "refus": 3092,
      "cause": 3093,
      "sociétés": 3094,
      "vise": 3095,
      "votes": 3096,
      "mentaire": 3097,
      "proportion": 3098,
      "matéri": 3099,
      "hui": 3100,
      "latéra": 3101,
      "UL": 3102,
      "cili": 3103,
      "Communautés": 3104,
      "préjudice": 3105,
      "apit": 3106,
      "tt": 3107,
      "cepti": 3108,
      "eth": 3109,
      "possibilités": 3110,
      "dernières": 3111,
      "approvision": 3112,
      "trices": 3113,
      "))": 3114,
      "Est": 3115,
      "89": 3116,
      "judiciaire": 3117,
      "seul": 3118,
      "agricole": 3119,
      "mondial": 3120,
      "directives": 3121,
      "AG": 3122,
      "dispose": 3123,
      "six": 3124,
      "tenue": 3125,
      "vées": 3126,
      "Me": 3127,
      "appar": 3128,
      "établissant": 3129,
      "Règlement": 3130,
      "gan": 3131,
      "présentée": 3132,
      "champ": 3133,
      "conjo": 3134,
      "restri": 3135,
      "hom": 3136,
      "site": 3137,
      "intitu": 3138,
      "minist": 3139,
      "existant": 3140,
      "suscepti": 3141,
      "espace": 3142,
      "C5": 3143,
      "parmi": 3144,
      "due": 3145,
      "taires": 3146,
      "élimin": 3147,
      "Acc": 3148,
      "acteurs": 3149,
      "Ils": 3150,
      "yer": 3151,
      "déclaré": 3152,
      "producteurs": 3153,
      "obtenir": 3154,
      "soins": 3155,
      "34": 3156,
      "adéqu": 3157,
      "Afrique": 3158,
      "contribution": 3159,
      "élevé": 3160,
      "raux": 3161,
      "indivi": 3162,
      "Bu": 3163,
      "instaur": 3164,
      "occa": 3165,
      "pouvoirs": 3166,
      "tini": 3167,
      "charg": 3168,
      "intérieures": 3169,
      "section": 3170,
      "ats": 3171,
      "agences": 3172,
      "rural": 3173,
      "budgétaires": 3174,
      "pte": 3175,
      "TIF": 3176,
      "ements": 3177,
      "preu": 3178,
      "76": 3179,
      "He": 3180,
      "anni": 3181,
      "ao": 3182,
      "tota": 3183,
      "présenté": 3184,
      "ano": 3185,
      "ète": 3186,
      "rables": 3187,
      "dimen": 3188,
      "CA": 3189,
      "posées": 3190,
      "précis": 3191,
      "clairement": 3192,
      "outi": 3193,
      "signifi": 3194,
      "Itali": 3195,
      "adoptées": 3196,
      "compati": 3197,
      "encontre": 3198,
      "représentant": 3199,
      "tivité": 3200,
      "ples": 3201,
      "législatives": 3202,
      "sûre": 3203,
      "âce": 3204,
      "Ser": 3205,
      "physi": 3206,
      "violence": 3207,
      "qués": 3208,
      "souha": 3209,
      "mini": 3210,
      "TIC": 3211,
      "intéres": 3212,
      "parlements": 3213,
      "Assemblée": 3214,
      "A5": 3215,
      "acté": 3216,
      "déliv": 3217,
      "déclarations": 3218,
      "MO": 3219,
      "employ": 3220,
      "administratives": 3221,
      "relevant": 3222,
      "concerné": 3223,
      "reste": 3224,
      "OMC": 3225,
      "biens": 3226,
      "communications": 3227,
      "Mari": 3228,
      "manie": 3229,
      "ministre": 3230,
      "tran": 3231,
      "régionale": 3232,
      "examiner": 3233,
      "nance": 3234,
      "haut": 3235,
      "locales": 3236,
      "demander": 3237,
      "las": 3238,
      "cte": 3239,
      "paragraphes": 3240,
      "lutter": 3241,
      "ane": 3242,
      "ismes": 3243,
      "reconnaissance": 3244,
      "inaire": 3245,
      "méthodes": 3246,
      "Bal": 3247,
      "tâ": 3248,
      "asile": 3249,
      "demandé": 3250,
      "pora": 3251,
      "denti": 3252,
      "souvent": 3253,
      "coût": 3254,
      "péti": 3255,
      "donnée": 3256,
      "développer": 3257,
      "simpli": 3258,
      "emplois": 3259,
      "85": 3260,
      "approuver": 3261,
      "propre": 3262,
      "empê": 3263,
      "EC": 3264,
      "95": 3265,
      "autant": 3266,
      "ût": 3267,
      "ke": 3268,
      "gent": 3269,
      "dépl": 3270,
      "appropriées": 3271,
      "modè": 3272,
      "nomm": 3273,
      "autom": 3274,
      "Ban": 3275,
      "dispens": 3276,
      "offre": 3277,
      "itée": 3278,
      "ressortis": 3279,
      "série": 3280,
      "ras": 3281,
      "interdiction": 3282,
      "établissements": 3283,
      "franç": 3284,
      "utiliser": 3285,
      "cô": 3286,
      "Rapporteur": 3287,
      "eaux": 3288,
      "garantie": 3289,
      "renouve": 3290,
      "venus": 3291,
      "PME": 3292,
      "extra": 3293,
      "Sta": 3294,
      "Droits": 3295,
      "chez": 3296,
      "landa": 3297,
      "caracté": 3298,
      "ini": 3299,
      "progres": 3300,
      "occasion": 3301,
      "apporter": 3302,
      "conformité": 3303,
      "lables": 3304,
      "Peter": 3305,
      "envisage": 3306,
      "humaine": 3307,
      "we": 3308,
      "Her": 3309,
      "grâce": 3310,
      "INI": 3311,
      "NO": 3312,
      "violation": 3313,
      "usage": 3314,
      "hors": 3315,
      "ORALE": 3316,
      "quatre": 3317,
      "AV": 3318,
      "PI": 3319,
      "étro": 3320,
      "accé": 3321,
      "consac": 3322,
      "professionnelle": 3323,
      "grec": 3324,
      "tourisme": 3325,
      "tances": 3326,
      "ry": 3327,
      "tionnelles": 3328,
      "juge": 3329,
      "rel": 3330,
      "dérog": 3331,
      "ili": 3332,
      "males": 3333,
      "mécanismes": 3334,
      "Italie": 3335,
      "Mal": 3336,
      "usion": 3337,
      "acquis": 3338,
      "pements": 3339,
      "priorité": 3340,
      "formu": 3341,
      "tempora": 3342,
      "inten": 3343,
      "étudi": 3344,
      "credi": 3345,
      "camp": 3346,
      "ha": 3347,
      "humains": 3348,
      "sy": 3349,
      "rovi": 3350,
      "approvisionnement": 3351,
      "compétitivité": 3352,
      "matiques": 3353,
      "cru": 3354,
      "évaluer": 3355,
      "prison": 3356,
      "Tra": 3357,
      "dite": 3358,
      "meilleure": 3359,
      "effective": 3360,
      "comprom": 3361,
      "thé": 3362,
      "Afin": 3363,
      "procéder": 3364,
      "Lorsque": 3365,
      "oix": 3366,
      "cemment": 3367,
      "78": 3368,
      "extérieures": 3369,
      "Bi": 3370,
      "mécanisme": 3371,
      "ell": 3372,
      "Esp": 3373,
      "graves": 3374,
      "96": 3375,
      "Sur": 3376,
      "étaient": 3377,
      "nomination": 3378,
      "responsable": 3379,
      "él": 3380,
      "Rou": 3381,
      "vér": 3382,
      "ferrovi": 3383,
      "trafic": 3384,
      "corre": 3385,
      "JET": 3386,
      "nombreuses": 3387,
      "dépôt": 3388,
      "AM": 3389,
      "ÉG": 3390,
      "ISSION": 3391,
      "traités": 3392,
      "élargissement": 3393,
      "présence": 3394,
      "andes": 3395,
      "minu": 3396,
      "commerciales": 3397,
      "obsta": 3398,
      "permis": 3399,
      "réfu": 3400,
      "informe": 3401,
      "experts": 3402,
      "indiqué": 3403,
      "AS": 3404,
      "compétence": 3405,
      "lits": 3406,
      "COMMISSION": 3407,
      "intégr": 3408,
      "oli": 3409,
      "parlementaires": 3410,
      "PROJET": 3411,
      "blement": 3412,
      "dation": 3413,
      "puissent": 3414,
      "Di": 3415,
      "Organ": 3416,
      "ACP": 3417,
      "accident": 3418,
      "encourage": 3419,
      "concili": 3420,
      "sug": 3421,
      "compar": 3422,
      "èrent": 3423,
      "échelle": 3424,
      "équit": 3425,
      "visé": 3426,
      "rus": 3427,
      "affec": 3428,
      "tradu": 3429,
      "sive": 3430,
      "Comment": 3431,
      "plans": 3432,
      "mobi": 3433,
      "amment": 3434,
      "flex": 3435,
      "aider": 3436,
      "fficul": 3437,
      "constituent": 3438,
      "frais": 3439,
      "directeur": 3440,
      "lant": 3441,
      "conduite": 3442,
      "énon": 3443,
      "Espagne": 3444,
      "maladies": 3445,
      "1er": 3446,
      "90": 3447,
      "stitution": 3448,
      "fonctions": 3449,
      "apitre": 3450,
      "rapide": 3451,
      "réserve": 3452,
      "65": 3453,
      "Bul": 3454,
      "actuel": 3455,
      "ennent": 3456,
      "LÉG": 3457,
      "enseignement": 3458,
      "statistiques": 3459,
      "concrè": 3460,
      "70": 3461,
      "NS": 3462,
      "mement": 3463,
      "publication": 3464,
      "solidarité": 3465,
      "difficul": 3466,
      "suit": 3467,
      "réfugi": 3468,
      "EX": 3469,
      "Sud": 3470,
      "préser": 3471,
      "importante": 3472,
      "Martin": 3473,
      "Alle": 3474,
      "dimension": 3475,
      "scientifiques": 3476,
      "manque": 3477,
      "août": 3478,
      "sema": 3479,
      "José": 3480,
      "indispens": 3481,
      "passagers": 3482,
      "participer": 3483,
      "civiles": 3484,
      "compter": 3485,
      "83": 3486,
      "dange": 3487,
      "acités": 3488,
      "récemment": 3489,
      "sexu": 3490,
      "tirer": 3491,
      "nucléaire": 3492,
      "109": 3493,
      "Maria": 3494,
      "coordon": 3495,
      "puisse": 3496,
      "Accord": 3497,
      "commissaire": 3498,
      "aliments": 3499,
      "dangere": 3500,
      "abil": 3501,
      "Position": 3502,
      "estations": 3503,
      "simple": 3504,
      "dix": 3505,
      "couver": 3506,
      "contrats": 3507,
      "mutu": 3508,
      "perspectives": 3509,
      "résolutions": 3510,
      "transfert": 3511,
      "composent": 3512,
      "interinstitutionnel": 3513,
      "caractéris": 3514,
      "bation": 3515,
      "prévoir": 3516,
      "Décla": 3517,
      "tari": 3518,
      "Marie": 3519,
      "conférence": 3520,
      "mobilité": 3521,
      "éten": 3522,
      "exist": 3523,
      "nez": 3524,
      "déposée": 3525,
      "appliquent": 3526,
      "ordon": 3527,
      "2020": 3528,
      "atom": 3529,
      "Jour": 3530,
      "vues": 3531,
      "verse": 3532,
      "individu": 3533,
      "ibilité": 3534,
      "semble": 3535,
      "organisme": 3536,
      "tastrop": 3537,
      "électronique": 3538,
      "Examen": 3539,
      "étiquet": 3540,
      "annonce": 3541,
      "42": 3542,
      "bal": 3543,
      "disposi": 3544,
      "prennent": 3545,
      "vul": 3546,
      "mort": 3547,
      "rési": 3548,
      "approuvé": 3549,
      "orientations": 3550,
      "TIVE": 3551,
      "audit": 3552,
      "modificatif": 3553,
      "pou": 3554,
      "responsables": 3555,
      "C7": 3556,
      "favoriser": 3557,
      "51": 3558,
      "placement": 3559,
      "contraire": 3560,
      "CI": 3561,
      "France": 3562,
      "92": 3563,
      "gouvernance": 3564,
      "ho": 3565,
      "capacités": 3566,
      "sti": 3567,
      "logiques": 3568,
      "importe": 3569,
      "Bas": 3570,
      "lau": 3571,
      "77": 3572,
      "installations": 3573,
      "cía": 3574,
      "particulière": 3575,
      "garde": 3576,
      "siè": 3577,
      "procès": 3578,
      "humanitaire": 3579,
      "Toutefois": 3580,
      "magne": 3581,
      "ilo": 3582,
      "ss": 3583,
      "immigration": 3584,
      "García": 3585,
      "Ou": 3586,
      "reconnu": 3587,
      "ase": 3588,
      "100": 3589,
      "code": 3590,
      "rapidement": 3591,
      "crétaire": 3592,
      "conséquence": 3593,
      "définiti": 3594,
      "communauté": 3595,
      "AI": 3596,
      "Mme": 3597,
      "catastrop": 3598,
      "accessi": 3599,
      "estation": 3600,
      "tence": 3601,
      "oe": 3602,
      "circons": 3603,
      "atement": 3604,
      "choix": 3605,
      "aéro": 3606,
      "vient": 3607,
      "jourd": 3608,
      ".)": 3609,
      "dem": 3610,
      "frau": 3611,
      "Georg": 3612,
      "Ra": 3613,
      "ISLA": 3614,
      "décidé": 3615,
      "sants": 3616,
      "dossi": 3617,
      "décou": 3618,
      "seule": 3619,
      "immédiatement": 3620,
      "scientifique": 3621,
      "rece": 3622,
      "aurait": 3623,
      "endre": 3624,
      "Por": 3625,
      "fil": 3626,
      "pétro": 3627,
      "introduction": 3628,
      "bénéficier": 3629,
      "LI": 3630,
      "ément": 3631,
      "Banque": 3632,
      "police": 3633,
      "élaborer": 3634,
      "lais": 3635,
      "accueil": 3636,
      "Tr": 3637,
      "af": 3638,
      "Allemagne": 3639,
      "LÉGISLA": 3640,
      "octroi": 3641,
      "kis": 3642,
      "kra": 3643,
      "lingu": 3644,
      "proposer": 3645,
      "certain": 3646,
      "clus": 3647,
      "accroître": 3648,
      "définir": 3649,
      "Fin": 3650,
      "orale": 3651,
      "conflit": 3652,
      "existence": 3653,
      "bourg": 3654,
      "vérit": 3655,
      "Pi": 3656,
      "bun": 3657,
      "ctif": 3658,
      "passe": 3659,
      "chac": 3660,
      "certifi": 3661,
      "enregistre": 3662,
      "transit": 3663,
      "itement": 3664,
      "travers": 3665,
      "71": 3666,
      "sûreté": 3667,
      "limites": 3668,
      "domm": 3669,
      "entité": 3670,
      "paiements": 3671,
      "fonctionnaires": 3672,
      "aura": 3673,
      "agir": 3674,
      "sommet": 3675,
      "déterminer": 3676,
      "provenant": 3677,
      "officiel": 3678,
      "distin": 3679,
      "bou": 3680,
      "instituant": 3681,
      "Robert": 3682,
      "cen": 3683,
      "comment": 3684,
      "Organisation": 3685,
      "itation": 3686,
      "Stra": 3687,
      "dor": 3688,
      "arri": 3689,
      "âti": 3690,
      "approbation": 3691,
      "interne": 3692,
      "agents": 3693,
      "atoires": 3694,
      "66": 3695,
      "rom": 3696,
      "via": 3697,
      "présentation": 3698,
      "Internet": 3699,
      "uniquement": 3700,
      "diffusion": 3701,
      "affaire": 3702,
      "appropriée": 3703,
      "principaux": 3704,
      "CH": 3705,
      "électricité": 3706,
      "97": 3707,
      "maritime": 3708,
      "Amendements": 3709,
      "LÉGISLATIVE": 3710,
      "Pau": 3711,
      "note": 3712,
      "Charte": 3713,
      "trouver": 3714,
      "pron": 3715,
      "TIFS": 3716,
      "annuels": 3717,
      "P6": 3718,
      "immun": 3719,
      "importantes": 3720,
      "300": 3721,
      "ressortissants": 3722,
      "trou": 3723,
      "négociation": 3724,
      "sauf": 3725,
      "Davi": 3726,
      "maintien": 3727,
      "expérience": 3728,
      "lier": 3729,
      "informer": 3730,
      "contrat": 3731,
      "destinées": 3732,
      "souhaite": 3733,
      "consommateur": 3734,
      "pare": 3735,
      "propos": 3736,
      "nis": 3737,
      "Hans": 3738,
      "EF": 3739,
      "intermédi": 3740,
      "Amé": 3741,
      "séjour": 3742,
      "contenant": 3743,
      "deme": 3744,
      "auxquels": 3745,
      "incit": 3746,
      "oto": 3747,
      "flu": 3748,
      "député": 3749,
      "hn": 3750,
      "enci": 3751,
      "chim": 3752,
      "gal": 3753,
      "systé": 3754,
      "sbourg": 3755,
      "prochaine": 3756,
      "espagno": 3757,
      "pronon": 3758,
      "Do": 3759,
      "Ag": 3760,
      "gation": 3761,
      "importants": 3762,
      "pollution": 3763,
      "87": 3764,
      "lisation": 3765,
      "Anne": 3766,
      "EXPO": 3767,
      "équival": 3768,
      "aw": 3769,
      "réformes": 3770,
      "intervention": 3771,
      "propriété": 3772,
      "affe": 3773,
      "SÉ": 3774,
      "cles": 3775,
      "oph": 3776,
      "délégu": 3777,
      "accorder": 3778,
      "Directive": 3779,
      "défis": 3780,
      "nalis": 3781,
      "préciser": 3782,
      "mou": 3783,
      "ARTIC": 3784,
      "AVIS": 3785,
      "préala": 3786,
      "améric": 3787,
      "principa": 3788,
      "confidenti": 3789,
      "86": 3790,
      "direct": 3791,
      "avan": 3792,
      "ARTICLE": 3793,
      "MOTIFS": 3794,
      "tâches": 3795,
      "cription": 3796,
      "radio": 3797,
      "Roumanie": 3798,
      "stri": 3799,
      "opport": 3800,
      "mées": 3801,
      "Memb": 3802,
      "ctifs": 3803,
      "régionales": 3804,
      "écrit": 3805,
      "cependant": 3806,
      "cat": 3807,
      "reçu": 3808,
      "EM": 3809,
      "inspe": 3810,
      "cussions": 3811,
      "Bulgar": 3812,
      "mière": 3813,
      "conflits": 3814,
      "générales": 3815,
      "efficaces": 3816,
      "stratégique": 3817,
      "lage": 3818,
      "milliards": 3819,
      "pan": 3820,
      "Textes": 3821,
      "secon": 3822,
      "porta": 3823,
      "pension": 3824,
      "cale": 3825,
      "espèces": 3826,
      "élè": 3827,
      "insiste": 3828,
      "pourquoi": 3829,
      "subventions": 3830,
      "istique": 3831,
      "jeu": 3832,
      "séle": 3833,
      "poursuivre": 3834,
      "réaliser": 3835,
      "difficultés": 3836,
      "réfugiés": 3837,
      "constate": 3838,
      "Strasbourg": 3839,
      "Bel": 3840,
      "graph": 3841,
      "aison": 3842,
      "représente": 3843,
      "sépar": 3844,
      "portée": 3845,
      "opérationnel": 3846,
      "undi": 3847,
      "conciliation": 3848,
      "_TA": 3849,
      "Har": 3850,
      "envisag": 3851,
      "chiff": 3852,
      "manifes": 3853,
      "langues": 3854,
      "vente": 3855,
      "début": 3856,
      "EXPOSÉ": 3857,
      "forces": 3858,
      "ey": 3859,
      "globale": 3860,
      "diterrané": 3861,
      "univers": 3862,
      "structurels": 3863,
      "route": 3864,
      "neu": 3865,
      "anger": 3866,
      "riques": 3867,
      "Anton": 3868,
      "oration": 3869,
      "tí": 3870,
      "matières": 3871,
      "Bulgarie": 3872,
      "catégories": 3873,
      "appelle": 3874,
      "petites": 3875,
      "constitution": 3876,
      "prévus": 3877,
      "unité": 3878,
      "vali": 3879,
      "pluri": 3880,
      "aujourd": 3881,
      "ograph": 3882,
      "directrices": 3883,
      "avantages": 3884,
      "cs": 3885,
      "renouvelables": 3886,
      "faits": 3887,
      "titude": 3888,
      "agricul": 3889,
      "cohérence": 3890,
      "notifi": 3891,
      "viennent": 3892,
      "atives": 3893,
      "Ap": 3894,
      "portu": 3895,
      "obtenu": 3896,
      "marchandis": 3897,
      "types": 3898,
      "peine": 3899,
      "And": 3900,
      "affirme": 3901,
      "équipements": 3902,
      "ël": 3903,
      "requise": 3904,
      "concent": 3905,
      "dûment": 3906,
      "femme": 3907,
      "Isra": 3908,
      "considération": 3909,
      "fra": 3910,
      "ènes": 3911,
      "majeur": 3912,
      "reconnaît": 3913,
      "réalisés": 3914,
      "56": 3915,
      "Sil": 3916,
      "commerciaux": 3917,
      "diffici": 3918,
      "tiennent": 3919,
      "maintenir": 3920,
      "nage": 3921,
      "palestini": 3922,
      "chapitre": 3923,
      "ions": 3924,
      "interpré": 3925,
      "attribu": 3926,
      "touch": 3927,
      "mora": 3928,
      "41": 3929,
      "responsabil": 3930,
      "vations": 3931,
      "spécial": 3932,
      "opérateurs": 3933,
      "preuve": 3934,
      "minor": 3935,
      "fournisse": 3936,
      "atten": 3937,
      "utile": 3938,
      "STO": 3939,
      "approfon": 3940,
      "rac": 3941,
      "ruption": 3942,
      "marqu": 3943,
      "élabor": 3944,
      "publié": 3945,
      "cteur": 3946,
      "UEN": 3947,
      "fau": 3948,
      "feu": 3949,
      "violations": 3950,
      "affect": 3951,
      "continuer": 3952,
      "Mc": 3953,
      "Aff": 3954,
      "indica": 3955,
      "derniers": 3956,
      "réception": 3957,
      "bâti": 3958,
      "préparation": 3959,
      "NOT": 3960,
      "approuve": 3961,
      "mat": 3962,
      "rev": 3963,
      "inscrit": 3964,
      "nos": 3965,
      "donne": 3966,
      "distribution": 3967,
      "Van": 3968,
      "zy": 3969,
      "temporaire": 3970,
      "accru": 3971,
      "ffice": 3972,
      "IV": 3973,
      "haus": 3974,
      "93": 3975,
      "tance": 3976,
      "mann": 3977,
      "Euratom": 3978,
      "obligatoire": 3979,
      "modifiée": 3980,
      "internet": 3981,
      "anie": 3982,
      "indépendance": 3983,
      "tab": 3984,
      "lip": 3985,
      "relève": 3986,
      "citoyen": 3987,
      "jouer": 3988,
      "indem": 3989,
      "défi": 3990,
      "agence": 3991,
      "anmoins": 3992,
      "méthode": 3993,
      "CNS": 3994,
      "ah": 3995,
      "gies": 3996,
      "Cela": 3997,
      "empêcher": 3998,
      "diri": 3999,
      "utilisées": 4000,
      "Iran": 4001,
      "issu": 4002,
      "marchandises": 4003,
      "infraction": 4004,
      "oup": 4005,
      "expression": 4006,
      "Compte": 4007,
      "dispar": 4008,
      "AT": 4009,
      "collab": 4010,
      "bit": 4011,
      "moi": 4012,
      "répond": 4013,
      "géograph": 4014,
      "contraig": 4015,
      "etc": 4016,
      "çant": 4017,
      "hen": 4018,
      "changements": 4019,
      "finance": 4020,
      "influ": 4021,
      "RO": 4022,
      "parvenir": 4023,
      "logne": 4024,
      "radi": 4025,
      "modèle": 4026,
      "................................................................": 4027,
      "forman": 4028,
      "Membres": 4029,
      "cho": 4030,
      "exi": 4031,
      "tag": 4032,
      "candidat": 4033,
      "mettent": 4034,
      "active": 4035,
      "PE4": 4036,
      "Sy": 4037,
      "élément": 4038,
      "limiter": 4039,
      "ouvel": 4040,
      "faible": 4041,
      "rub": 4042,
      "ios": 4043,
      "garanties": 4044,
      "Bureau": 4045,
      "montants": 4046,
      "confiance": 4047,
      "potentiel": 4048,
      "évé": 4049,
      "fre": 4050,
      "57": 4051,
      "religie": 4052,
      "considéra": 4053,
      "formément": 4054,
      "1998": 4055,
      "Bo": 4056,
      "option": 4057,
      "présidente": 4058,
      "langue": 4059,
      "alleman": 4060,
      "ww": 4061,
      "insi": 4062,
      "indispensable": 4063,
      "enquêtes": 4064,
      "calcul": 4065,
      "agré": 4066,
      "agriculteurs": 4067,
      "simi": 4068,
      "électroniques": 4069,
      "58": 4070,
      "B7": 4071,
      "rappel": 4072,
      "vol": 4073,
      "performan": 4074,
      "air": 4075,
      "ablement": 4076,
      "détaill": 4077,
      "arrêt": 4078,
      "infé": 4079,
      "opin": 4080,
      "territori": 4081,
      "substanti": 4082,
      "Nord": 4083,
      "VA": 4084,
      "seraient": 4085,
      "diverses": 4086,
      "ide": 4087,
      "Fer": 4088,
      "ibles": 4089,
      "exercer": 4090,
      "catégorie": 4091,
      "grave": 4092,
      "dt": 4093,
      "force": 4094,
      "cettes": 4095,
      "lumière": 4096,
      "substance": 4097,
      "vou": 4098,
      "Répon": 4099,
      "global": 4100,
      "harmonisation": 4101,
      "fais": 4102,
      "avaient": 4103,
      "constituer": 4104,
      "inférieur": 4105,
      "fédé": 4106,
      "Conformément": 4107,
      "risti": 4108,
      "Israël": 4109,
      "extérieure": 4110,
      "Sar": 4111,
      "prévenir": 4112,
      "INT": 4113,
      "veillent": 4114,
      "octroy": 4115,
      "super": 4116,
      "engager": 4117,
      "Pays": 4118,
      "plupart": 4119,
      "aucoup": 4120,
      "Manuel": 4121,
      "Phi": 4122,
      "Sé": 4123,
      "cides": 4124,
      "fondamentales": 4125,
      "erta": 4126,
      "gique": 4127,
      "mas": 4128,
      "Rome": 4129,
      "mative": 4130,
      "chè": 4131,
      "Mil": 4132,
      "sivement": 4133,
      "uration": 4134,
      "59": 4135,
      "Sup": 4136,
      "pense": 4137,
      "B6": 4138,
      "inage": 4139,
      "intitulée": 4140,
      "universe": 4141,
      "fourniture": 4142,
      "Pre": 4143,
      "terra": 4144,
      "attent": 4145,
      "Mer": 4146,
      "partis": 4147,
      "Philip": 4148,
      "excep": 4149,
      "anté": 4150,
      "grandes": 4151,
      "Lorsqu": 4152,
      "aise": 4153,
      "mener": 4154,
      "cycle": 4155,
      "ONU": 4156,
      "68": 4157,
      "sélection": 4158,
      "responsabilités": 4159,
      "commerciale": 4160,
      "exclusion": 4161,
      "hon": 4162,
      "tox": 4163,
      "sal": 4164,
      "Alex": 4165,
      "agissant": 4166,
      "privé": 4167,
      "rendu": 4168,
      "On": 4169,
      "légiti": 4170,
      "populations": 4171,
      "accent": 4172,
      "Sou": 4173,
      "susceptibles": 4174,
      "Ky": 4175,
      "solutions": 4176,
      "oise": 4177,
      "régimes": 4178,
      "opposition": 4179,
      "lettre": 4180,
      "Ir": 4181,
      "quotas": 4182,
      "minimum": 4183,
      "fabri": 4184,
      "issances": 4185,
      "ajus": 4186,
      "exportation": 4187,
      "évi": 4188,
      "alter": 4189,
      "54": 4190,
      "préalable": 4191,
      "guerre": 4192,
      "ław": 4193,
      "soutient": 4194,
      "FIN": 4195,
      "PES": 4196,
      "réglementaires": 4197,
      "âge": 4198,
      "len": 4199,
      "Journal": 4200,
      "marquage": 4201,
      "Andre": 4202,
      "compens": 4203,
      "incidence": 4204,
      "régulièrement": 4205,
      "consci": 4206,
      "faite": 4207,
      "tradi": 4208,
      "We": 4209,
      "allég": 4210,
      "brit": 4211,
      "lées": 4212,
      "préci": 4213,
      "monétaire": 4214,
      "provo": 4215,
      "remb": 4216,
      "Martí": 4217,
      "naturelles": 4218,
      "britanni": 4219,
      "kistan": 4220,
      "fraude": 4221,
      "prenant": 4222,
      "correc": 4223,
      "trê": 4224,
      "lari": 4225,
      "No": 4226,
      "gramme": 4227,
      "source": 4228,
      "libéra": 4229,
      "devra": 4230,
      "approprié": 4231,
      "aérien": 4232,
      "ONG": 4233,
      "suffisamment": 4234,
      "79": 4235,
      "zo": 4236,
      "méditerrané": 4237,
      "famille": 4238,
      "équitable": 4239,
      "CC": 4240,
      "utilisateurs": 4241,
      "nies": 4242,
      "Résultat": 4243,
      "limite": 4244,
      "figurant": 4245,
      "ole": 4246,
      "delà": 4247,
      "éron": 4248,
      "correction": 4249,
      "utilisé": 4250,
      "Ange": 4251,
      "volonté": 4252,
      "Sal": 4253,
      "Étant": 4254,
      "accompl": 4255,
      "rédi": 4256,
      "hist": 4257,
      "Ori": 4258,
      "auquel": 4259,
      "conservation": 4260,
      "muné": 4261,
      "dan": 4262,
      "annex": 4263,
      "montre": 4264,
      "ferroviaire": 4265,
      "h00": 4266,
      "monétaires": 4267,
      "clas": 4268,
      "Ukra": 4269,
      "nité": 4270,
      "inaires": 4271,
      "écar": 4272,
      "premières": 4273,
      "fré": 4274,
      "haute": 4275,
      "programmation": 4276,
      "vari": 4277,
      "routi": 4278,
      "férences": 4279,
      "Dis": 4280,
      "ordinaire": 4281,
      "phase": 4282,
      "Du": 4283,
      "transmission": 4284,
      "raisonn": 4285,
      "affirmative": 4286,
      "Etat": 4287,
      "fixé": 4288,
      "beaucoup": 4289,
      "Gra": 4290,
      "500": 4291,
      "Ger": 4292,
      "82": 4293,
      "rejeter": 4294,
      "Présidence": 4295,
      "Hu": 4296,
      "sites": 4297,
      "posant": 4298,
      "isent": 4299,
      "étiquetage": 4300,
      "nisation": 4301,
      "direction": 4302,
      "ami": 4303,
      "ly": 4304,
      "augmenter": 4305,
      "burants": 4306,
      "inclure": 4307,
      "rémuné": 4308,
      "professionnels": 4309,
      "Pé": 4310,
      "seur": 4311,
      "dipl": 4312,
      "by": 4313,
      "Ukraine": 4314,
      "tir": 4315,
      "91": 4316,
      "recettes": 4317,
      "établit": 4318,
      "The": 4319,
      "moder": 4320,
      "chô": 4321,
      "chois": 4322,
      "brev": 4323,
      "Micha": 4324,
      "chement": 4325,
      "amender": 4326,
      "Réponse": 4327,
      "EFD": 4328,
      "indre": 4329,
      "clos": 4330,
      "équilibre": 4331,
      "alimentation": 4332,
      "totale": 4333,
      "exception": 4334,
      "Affaires": 4335,
      "dérou": 4336,
      "installation": 4337,
      "signé": 4338,
      "importations": 4339,
      "ic": 4340,
      "clair": 4341,
      "chargé": 4342,
      "liers": 4343,
      "continue": 4344,
      "essentiels": 4345,
      "cheurs": 4346,
      "cifi": 4347,
      "résultat": 4348,
      "perspective": 4349,
      "Médi": 4350,
      "mondialisation": 4351,
      "Irlande": 4352,
      "souligné": 4353,
      "nationalité": 4354,
      "gement": 4355,
      "Cependant": 4356,
      "restrictions": 4357,
      "DA": 4358,
      "indication": 4359,
      "DG": 4360,
      "EL": 4361,
      "So": 4362,
      "Ju": 4363,
      "appara": 4364,
      "porté": 4365,
      "journalis": 4366,
      "nalité": 4367,
      "forte": 4368,
      "locaux": 4369,
      "retour": 4370,
      "approfondi": 4371,
      "financer": 4372,
      "caractéristiques": 4373,
      "muni": 4374,
      "bonnes": 4375,
      "diminu": 4376,
      "syn": 4377,
      "démocratiques": 4378,
      "Supplé": 4379,
      "réparti": 4380,
      "dences": 4381,
      "lait": 4382,
      "chaî": 4383,
      "PV": 4384,
      "Pe": 4385,
      "destiné": 4386,
      "Ru": 4387,
      "Ros": 4388,
      "phénom": 4389,
      "pouvant": 4390,
      "62": 4391,
      "dra": 4392,
      "handicapées": 4393,
      "adaptation": 4394,
      "za": 4395,
      "endu": 4396,
      "consulté": 4397,
      "enregistrement": 4398,
      "itant": 4399,
      "précise": 4400,
      "durant": 4401,
      "actifs": 4402,
      "extrê": 4403,
      "ms": 4404,
      "abor": 4405,
      "maxi": 4406,
      "mac": 4407,
      "ister": 4408,
      "notification": 4409,
      "menées": 4410,
      "accélé": 4411,
      "bert": 4412,
      "David": 4413,
      "circonstances": 4414,
      "A7": 4415,
      "ová": 4416,
      "010": 4417,
      "regist": 4418,
      "existants": 4419,
      "portent": 4420,
      "directe": 4421,
      "endrier": 4422,
      "SEC": 4423,
      "compromis": 4424,
      "vous": 4425,
      "dia": 4426,
      "rempli": 4427,
      "onom": 4428,
      "73": 4429,
      "revê": 4430,
      "fixées": 4431,
      "demandeur": 4432,
      "indique": 4433,
      "allou": 4434,
      "sent": 4435,
      "formul": 4436,
      "stratégies": 4437,
      "tar": 4438,
      "diver": 4439,
      "mage": 4440,
      "pertinentes": 4441,
      "stockage": 4442,
      "94": 4443,
      "UK": 4444,
      "cision": 4445,
      "concernée": 4446,
      "administrative": 4447,
      "supplémentaire": 4448,
      "mant": 4449,
      "US": 4450,
      "corruption": 4451,
      "intégrée": 4452,
      "missions": 4453,
      "défini": 4454,
      "tables": 4455,
      "classi": 4456,
      "blan": 4457,
      "réper": 4458,
      "accordée": 4459,
      "grands": 4460,
      "Grou": 4461,
      "dépas": 4462,
      "élect": 4463,
      "Cha": 4464,
      "physique": 4465,
      "recti": 4466,
      "espr": 4467,
      "déplo": 4468,
      "Enfin": 4469,
      "incidences": 4470,
      "garantis": 4471,
      "motifs": 4472,
      "concrètes": 4473,
      "vain": 4474,
      "élimination": 4475,
      "DÉ": 4476,
      "bois": 4477,
      "pétitions": 4478,
      "Sán": 4479,
      "réglementaire": 4480,
      "atteinte": 4481,
      "Nous": 4482,
      "financements": 4483,
      "sauve": 4484,
      "Amérique": 4485,
      "ratifi": 4486,
      "bunal": 4487,
      "ii": 4488,
      "grants": 4489,
      "souff": 4490,
      "pru": 4491,
      "déri": 4492,
      "Mad": 4493,
      "dité": 4494,
      "économies": 4495,
      "Dan": 4496,
      "menace": 4497,
      "Européen": 4498,
      "esprit": 4499,
      "conventions": 4500,
      "rubrique": 4501,
      "serre": 4502,
      "til": 4503,
      "décider": 4504,
      "Jus": 4505,
      "lie": 4506,
      "lien": 4507,
      "ier": 4508,
      "détention": 4509,
      "connaissances": 4510,
      "exige": 4511,
      "étail": 4512,
      "bats": 4513,
      "autonom": 4514,
      "partage": 4515,
      "nucléaires": 4516,
      "Poli": 4517,
      "examiné": 4518,
      "capital": 4519,
      "tax": 4520,
      "volu": 4521,
      "Georgios": 4522,
      "POINT": 4523,
      "gées": 4524,
      "cipl": 4525,
      "entrer": 4526,
      "engen": 4527,
      "usz": 4528,
      "Orient": 4529,
      "RU": 4530,
      "Cro": 4531,
      "DI": 4532,
      "estimé": 4533,
      "Schengen": 4534,
      "ral": 4535,
      "exter": 4536,
      "discipl": 4537,
      "Paul": 4538,
      "Médiateur": 4539,
      "obstacles": 4540,
      "vit": 4541,
      "effectuer": 4542,
      "ultérieur": 4543,
      "oeuvre": 4544,
      "For": 4545,
      "Clau": 4546,
      "cussion": 4547,
      "minorités": 4548,
      "Avis": 4549,
      "quelques": 4550,
      "presta": 4551,
      "véritable": 4552,
      "ghan": 4553,
      "entités": 4554,
      "observer": 4555,
      "appui": 4556,
      "):": 4557,
      "déplore": 4558,
      "Trans": 4559,
      "Parti": 4560,
      "mercredi": 4561,
      "Constitution": 4562,
      "Office": 4563,
      "situations": 4564,
      "modifié": 4565,
      "régionaux": 4566,
      "devront": 4567,
      "TVA": 4568,
      "militaires": 4569,
      "nommé": 4570,
      "quelque": 4571,
      "pénale": 4572,
      "infractions": 4573,
      "vulné": 4574,
      "Inde": 4575,
      "atique": 4576,
      "remplacé": 4577,
      "Gr": 4578,
      "meilleures": 4579,
      "bie": 4580,
      "Io": 4581,
      "Pri": 4582,
      "biais": 4583,
      "forê": 4584,
      "ax": 4585,
      "allè": 4586,
      "Pologne": 4587,
      "succ": 4588,
      "définies": 4589,
      "dérogation": 4590,
      "ates": 4591,
      "renvoy": 4592,
      "Portu": 4593,
      "résultant": 4594,
      "ander": 4595,
      "immunité": 4596,
      "comporte": 4597,
      "caux": 4598,
      "désor": 4599,
      ".\"": 4600,
      "maximum": 4601,
      "Déclaration": 4602,
      "organe": 4603,
      "complémentaires": 4604,
      "privil": 4605,
      "profon": 4606,
      "renforcée": 4607,
      "mutuelle": 4608,
      "bénéficiaires": 4609,
      "définis": 4610,
      "53": 4611,
      "tension": 4612,
      "110": 4613,
      "transmis": 4614,
      "insuffis": 4615,
      "sect": 4616,
      "gy": 4617,
      "culturel": 4618,
      "double": 4619,
      "Non": 4620,
      "désormais": 4621,
      "vin": 4622,
      "judiciaires": 4623,
      "susmention": 4624,
      "notre": 4625,
      "technologie": 4626,
      "Per": 4627,
      "environnementale": 4628,
      "collecte": 4629,
      "établies": 4630,
      "animale": 4631,
      "ensuite": 4632,
      "rette": 4633,
      "mp": 4634,
      "criminalité": 4635,
      "occident": 4636,
      "mardi": 4637,
      "Martínez": 4638,
      "Luis": 4639,
      "Slo": 4640,
      "BEI": 4641,
      "facteurs": 4642,
      "Chy": 4643,
      "52": 4644,
      "chacun": 4645,
      "spécialis": 4646,
      "terres": 4647,
      "istant": 4648,
      "Ira": 4649,
      "environnementales": 4650,
      "EE": 4651,
      "combat": 4652,
      "phon": 4653,
      "Elis": 4654,
      "levée": 4655,
      "votre": 4656,
      "obi": 4657,
      "approuv": 4658,
      "intermédiaire": 4659,
      "ussi": 4660,
      "lés": 4661,
      "endra": 4662,
      "vra": 4663,
      "chances": 4664,
      "limité": 4665,
      "banques": 4666,
      "centre": 4667,
      "ctuelle": 4668,
      "alterna": 4669,
      "Maj": 4670,
      "Centre": 4671,
      "Pap": 4672,
      "mos": 4673,
      "trouve": 4674,
      "centres": 4675,
      "introduire": 4676,
      "Secrétaire": 4677,
      "sons": 4678,
      "décide": 4679,
      "ministres": 4680,
      "isées": 4681,
      "informé": 4682,
      "existantes": 4683,
      "représentent": 4684,
      "local": 4685,
      "professionnelles": 4686,
      "annoncé": 4687,
      "Quelle": 4688,
      "fixés": 4689,
      "Quel": 4690,
      "61": 4691,
      "landais": 4692,
      "disposer": 4693,
      "84": 4694,
      "fru": 4695,
      "én": 4696,
      "banc": 4697,
      "répartition": 4698,
      "minimales": 4699,
      "gre": 4700,
      "ptions": 4701,
      "Fi": 4702,
      "ena": 4703,
      "mark": 4704,
      "011": 4705,
      "enda": 4706,
      "ouverte": 4707,
      "accus": 4708,
      "maladie": 4709,
      "Bern": 4710,
      "provenance": 4711,
      "Parlementaire": 4712,
      "Somm": 4713,
      "navire": 4714,
      "compli": 4715,
      "infrastructure": 4716,
      "présentant": 4717,
      "rez": 4718,
      "comprend": 4719,
      "auva": 4720,
      "Honorable": 4721,
      "technologique": 4722,
      "connex": 4723,
      "81": 4724,
      "v02": 4725,
      "74": 4726,
      "Pas": 4727,
      "Que": 4728,
      "pés": 4729,
      "cats": 4730,
      "principal": 4731,
      "audio": 4732,
      "Th": 4733,
      "Programme": 4734,
      "NEW": 4735,
      "ids": 4736,
      "chômage": 4737,
      "calendrier": 4738,
      "AU": 4739,
      "règlements": 4740,
      "élig": 4741,
      "adapter": 4742,
      "rectifi": 4743,
      "significa": 4744,
      "251": 4745,
      "fabric": 4746,
      "corpo": 4747,
      "Ay": 4748,
      "RES": 4749,
      "command": 4750,
      "privée": 4751,
      "Portugal": 4752,
      "sectori": 4753,
      "chimiques": 4754,
      "subsi": 4755,
      "émis": 4756,
      "lour": 4757,
      "Cristi": 4758,
      "dommages": 4759,
      "férer": 4760,
      "63": 4761,
      "voisinage": 4762,
      "illi": 4763,
      "remplacer": 4764,
      "dossier": 4765,
      "64": 4766,
      "chant": 4767,
      "annuelle": 4768,
      "RAN": 4769,
      "oni": 4770,
      "indépendants": 4771,
      "mauva": 4772,
      "parer": 4773,
      "fixer": 4774,
      "combus": 4775,
      "mettant": 4776,
      "événements": 4777,
      "mique": 4778,
      "Tri": 4779,
      "rement": 4780,
      "issue": 4781,
      "Décision": 4782,
      "cts": 4783,
      "permettra": 4784,
      "ECR": 4785,
      "flo": 4786,
      "prévision": 4787,
      "vage": 4788,
      "orientation": 4789,
      "civ": 4790,
      "loy": 4791,
      "stocks": 4792,
      "intégrer": 4793,
      "famili": 4794,
      "consulta": 4795,
      "surtout": 4796,
      "plut": 4797,
      "participants": 4798,
      "civils": 4799,
      "olo": 4800,
      "poursuite": 4801,
      "complète": 4802,
      "dég": 4803,
      "IE": 4804,
      "ache": 4805,
      "édo": 4806,
      "Col": 4807,
      "bord": 4808,
      "ino": 4809,
      "omé": 4810,
      "convain": 4811,
      "cip": 4812,
      "Après": 4813,
      "moyenne": 4814,
      "OS": 4815,
      "particulières": 4816,
      "Ev": 4817,
      "quand": 4818,
      "auteur": 4819,
      "ende": 4820,
      "endrait": 4821,
      "pollu": 4822,
      "ders": 4823,
      "retard": 4824,
      "Section": 4825,
      "identification": 4826,
      "ajoutée": 4827,
      "Hen": 4828,
      "excessi": 4829,
      "carbon": 4830,
      "postes": 4831,
      "mus": 4832,
      "ocar": 4833,
      "ladite": 4834,
      "détail": 4835,
      "phar": 4836,
      "atteint": 4837,
      "ouvert": 4838,
      "Mac": 4839,
      "patients": 4840,
      "Ferre": 4841,
      "Cath": 4842,
      "revenus": 4843,
      "longue": 4844,
      "atti": 4845,
      "humaines": 4846,
      "Résultats": 4847,
      "Chypre": 4848,
      "patri": 4849,
      "jeudi": 4850,
      "Mus": 4851,
      "communs": 4852,
      "VO": 4853,
      "future": 4854,
      "To": 4855,
      "clari": 4856,
      "éventuelles": 4857,
      "parce": 4858,
      "ore": 4859,
      "lité": 4860,
      "tan": 4861,
      "difficile": 4862,
      "second": 4863,
      "ADLE": 4864,
      "69": 4865,
      "poids": 4866,
      "Projet": 4867,
      "voire": 4868,
      "douani": 4869,
      "bureau": 4870,
      "commercialisation": 4871,
      "enfant": 4872,
      "Ren": 4873,
      "favorable": 4874,
      "Tout": 4875,
      "courant": 4876,
      "préoccupations": 4877,
      "dette": 4878,
      "htt": 4879,
      "lli": 4880,
      "toire": 4881,
      "plutôt": 4882,
      "erine": 4883,
      "Vice": 4884,
      "subsidi": 4885,
      "chèque": 4886,
      "Angeli": 4887,
      "textes": 4888,
      "BU": 4889,
      "mut": 4890,
      "Catherine": 4891,
      "liqui": 4892,
      "seurs": 4893,
      "veille": 4894,
      "énergétiques": 4895,
      "campagne": 4896,
      "conformes": 4897,
      "environnementaux": 4898,
      "exportations": 4899,
      "P5": 4900,
      "contrôler": 4901,
      "étrangère": 4902,
      "recommande": 4903,
      "adopte": 4904,
      "Koso": 4905,
      "http": 4906,
      "72": 4907,
      "linguistique": 4908,
      "://": 4909,
      "pois": 4910,
      "OG": 4911,
      "opérer": 4912,
      "intensi": 4913,
      "Dim": 4914,
      "permettent": 4915,
      "Anna": 4916,
      "intégra": 4917,
      "parl": 4918,
      "militaire": 4919,
      "pay": 4920,
      "tenues": 4921,
      "vérifier": 4922,
      "français": 4923,
      "moteur": 4924,
      "dification": 4925,
      "communautés": 4926,
      "autoriser": 4927,
      "résou": 4928,
      "négative": 4929,
      "italique": 4930,
      "moti": 4931,
      "micro": 4932,
      "FINAL": 4933,
      "Sánchez": 4934,
      "portées": 4935,
      "bo": 4936,
      "tableau": 4937,
      "PA": 4938,
      "opportun": 4939,
      "publiée": 4940,
      "destination": 4941,
      "Kosovo": 4942,
      "êtres": 4943,
      "préhen": 4944,
      "organisée": 4945,
      "couvrir": 4946,
      "vert": 4947,
      "délégations": 4948,
      "futur": 4949,
      "Ja": 4950,
      "osla": 4951,
      "pect": 4952,
      "reprises": 4953,
      "aériens": 4954,
      "ible": 4955,
      "prévoy": 4956,
      "lam": 4957,
      "associations": 4958,
      "tations": 4959,
      "PAC": 4960,
      "audiovis": 4961,
      "court": 4962,
      "préoccupé": 4963,
      "John": 4964,
      "Adoption": 4965,
      "systématique": 4966,
      "appropriés": 4967,
      "salari": 4968,
      "déploy": 4969,
      "Gen": 4970,
      "Livre": 4971,
      "Comme": 4972,
      "dirige": 4973,
      "chau": 4974,
      "Can": 4975,
      "indicateurs": 4976,
      "péra": 4977,
      "là": 4978,
      "lable": 4979,
      "commercial": 4980,
      "vérifi": 4981,
      "Majorité": 4982,
      "naturel": 4983,
      "intelle": 4984,
      "Détail": 4985,
      "envoy": 4986,
      "BCE": 4987,
      "itent": 4988,
      "1997": 4989,
      "éth": 4990,
      "généraux": 4991,
      "autorisés": 4992,
      "rek": 4993,
      "Dani": 4994,
      "euse": 4995,
      "cie": 4996,
      "imposer": 4997,
      "semaine": 4998,
      "exposition": 4999,
      "opinion": 5000,
      "seig": 5001,
      "hor": 5002,
      "accidents": 5003,
      "ANNE": 5004,
      "dération": 5005,
      "compagnies": 5006,
      "terroristes": 5007,
      "règle": 5008,
      "compos": 5009,
      "dégra": 5010,
      "siège": 5011,
      "ête": 5012,
      "effectués": 5013,
      "soumettre": 5014,
      "actuelles": 5015,
      "niers": 5016,
      "téléphon": 5017,
      "véhicule": 5018,
      "fournies": 5019,
      "urg": 5020,
      "subordon": 5021,
      "Belgique": 5022,
      "gel": 5023,
      "103": 5024,
      "visas": 5025,
      "contact": 5026,
      "principalement": 5027,
      "climat": 5028,
      "abord": 5029,
      "vas": 5030,
      "dant": 5031,
      "Mor": 5032,
      "FI": 5033,
      "succès": 5034,
      "zi": 5035,
      "ANNEX": 5036,
      "auxquelles": 5037,
      "préserver": 5038,
      "chin": 5039,
      "crits": 5040,
      "entraîner": 5041,
      "importation": 5042,
      "charges": 5043,
      "cifique": 5044,
      "voisins": 5045,
      "demandent": 5046,
      "ethni": 5047,
      "antérieur": 5048,
      "sait": 5049,
      "pourcent": 5050,
      "transformation": 5051,
      "amélior": 5052,
      "ond": 5053,
      "débats": 5054,
      "ajustement": 5055,
      "fe": 5056,
      "tchèque": 5057,
      "trice": 5058,
      "Hel": 5059,
      "lancer": 5060,
      "menac": 5061,
      "pétrole": 5062,
      "passé": 5063,
      "lois": 5064,
      "équilib": 5065,
      "Tun": 5066,
      "rembour": 5067,
      "renouvel": 5068,
      "Ioan": 5069,
      "redev": 5070,
      "observations": 5071,
      "énergies": 5072,
      "habil": 5073,
      "Votre": 5074,
      "bru": 5075,
      "transition": 5076,
      "aler": 5077,
      "collaboration": 5078,
      "addi": 5079,
      "attribution": 5080,
      "maximale": 5081,
      "gés": 5082,
      "résoudre": 5083,
      "conver": 5084,
      "lai": 5085,
      "OLA": 5086,
      "nomin": 5087,
      "land": 5088,
      "urb": 5089,
      "largement": 5090,
      "opa": 5091,
      "Quels": 5092,
      "centrales": 5093,
      "porteurs": 5094,
      "ANNEXE": 5095,
      "réponses": 5096,
      "carbone": 5097,
      "française": 5098,
      "provis": 5099,
      "remplacement": 5100,
      "PL": 5101,
      "Mich": 5102,
      "inspection": 5103,
      "législations": 5104,
      "identité": 5105,
      "sensibles": 5106,
      "Vote": 5107,
      "mace": 5108,
      "Traité": 5109,
      "Val": 5110,
      "internes": 5111,
      "Hong": 5112,
      "At": 5113,
      "ed": 5114,
      "principales": 5115,
      "chaîne": 5116,
      "pilo": 5117,
      "efficacement": 5118,
      "remédi": 5119,
      "numérique": 5120,
      "quantité": 5121,
      "indiquée": 5122,
      "visa": 5123,
      "multilatéra": 5124,
      "ot": 5125,
      "arab": 5126,
      "lantique": 5127,
      "supprim": 5128,
      "IL": 5129,
      "clause": 5130,
      "Nor": 5131,
      "dessus": 5132,
      "fixant": 5133,
      "démar": 5134,
      "régular": 5135,
      "ith": 5136,
      "étroite": 5137,
      "culturelle": 5138,
      "migra": 5139,
      "biliser": 5140,
      "autorisé": 5141,
      "britannique": 5142,
      "Asie": 5143,
      "éventuelle": 5144,
      "cohérente": 5145,
      "crimes": 5146,
      "commen": 5147,
      "1995": 5148,
      "abus": 5149,
      "œuv": 5150,
      "Gé": 5151,
      "Lamb": 5152,
      "maceu": 5153,
      "ws": 5154,
      "dez": 5155,
      "élevés": 5156,
      "régissant": 5157,
      "pourra": 5158,
      "compatible": 5159,
      "moine": 5160,
      "Communi": 5161,
      "appare": 5162,
      "fixe": 5163,
      "régulation": 5164,
      "envisager": 5165,
      "subvention": 5166,
      "Aux": 5167,
      "interdit": 5168,
      "illégale": 5169,
      "mobilisation": 5170,
      "essais": 5171,
      "interprétation": 5172,
      "Mais": 5173,
      "atifs": 5174,
      "dig": 5175,
      "regard": 5176,
      "Roms": 5177,
      "ving": 5178,
      "imal": 5179,
      "substantielle": 5180,
      "hydro": 5181,
      "\":": 5182,
      "ack": 5183,
      "isra": 5184,
      "ètres": 5185,
      "incen": 5186,
      "juridiction": 5187,
      "tionnels": 5188,
      "établie": 5189,
      "familles": 5190,
      "cide": 5191,
      "périodes": 5192,
      "Groupe": 5193,
      "ez": 5194,
      "ther": 5195,
      "degré": 5196,
      "tonnes": 5197,
      "AE": 5198,
      "truct": 5199,
      "effectivement": 5200,
      "pluriannuel": 5201,
      "Chaque": 5202,
      "gna": 5203,
      "més": 5204,
      "Pan": 5205,
      "étér": 5206,
      "Europol": 5207,
      "attend": 5208,
      "vétér": 5209,
      "courir": 5210,
      "prochain": 5211,
      "abat": 5212,
      "ón": 5213,
      "ministère": 5214,
      "hard": 5215,
      "néanmoins": 5216,
      "TAI": 5217,
      "solu": 5218,
      "quater": 5219,
      "présentent": 5220,
      "Recommand": 5221,
      "Présidente": 5222,
      "adéquate": 5223,
      "effectuées": 5224,
      "récente": 5225,
      "dispositifs": 5226,
      "ctivement": 5227,
      "conception": 5228,
      "juste": 5229,
      "suppression": 5230,
      "transposition": 5231,
      "libéralisation": 5232,
      "renseig": 5233,
      "argent": 5234,
      "disponible": 5235,
      "inscri": 5236,
      "latéraux": 5237,
      "élection": 5238,
      "OLAF": 5239,
      "Ferreira": 5240,
      "FEM": 5241,
      "rage": 5242,
      "suc": 5243,
      "danger": 5244,
      "publicité": 5245,
      "Michael": 5246,
      "cht": 5247,
      "regrette": 5248,
      "contient": 5249,
      "considéré": 5250,
      "considérée": 5251,
      "figurent": 5252,
      "sexuelle": 5253,
      "apparten": 5254,
      "distribu": 5255,
      "relation": 5256,
      "sugges": 5257,
      "ij": 5258,
      "appréci": 5259,
      "stric": 5260,
      "accrue": 5261,
      "idée": 5262,
      "législatifs": 5263,
      "officielle": 5264,
      "Antonio": 5265,
      "catastrophes": 5266,
      "lus": 5267,
      "frontière": 5268,
      "adresse": 5269,
      "dehors": 5270,
      "ores": 5271,
      "prestations": 5272,
      "traitements": 5273,
      "illon": 5274,
      "cession": 5275,
      "subsidiarité": 5276,
      "are": 5277,
      "abeth": 5278,
      "PRÉ": 5279,
      "trés": 5280,
      "concep": 5281,
      "115": 5282,
      "réaction": 5283,
      "dépendant": 5284,
      "pourront": 5285,
      "flux": 5286,
      "menée": 5287,
      "limitée": 5288,
      "indépendante": 5289,
      "ley": 5290,
      "liée": 5291,
      "suggestions": 5292,
      "utilisée": 5293,
      "disposent": 5294,
      "intervenir": 5295,
      "Marian": 5296,
      "universel": 5297,
      "(\"": 5298,
      "sud": 5299,
      "tine": 5300,
      "chargée": 5301,
      "cultures": 5302,
      "prochaines": 5303,
      "patrimoine": 5304,
      "Bus": 5305,
      "tiens": 5306,
      "vérification": 5307,
      "TIONS": 5308,
      "audition": 5309,
      "ajouté": 5310,
      "humain": 5311,
      "biodiversité": 5312,
      "bel": 5313,
      "ysz": 5314,
      "transfrontaliers": 5315,
      "venue": 5316,
      "iner": 5317,
      "aérienne": 5318,
      "urer": 5319,
      "instaurer": 5320,
      "hausse": 5321,
      "contin": 5322,
      "verbal": 5323,
      "vités": 5324,
      "çu": 5325,
      "intellectuelle": 5326,
      "genre": 5327,
      "Moni": 5328,
      "consoli": 5329,
      "matériel": 5330,
      "bâtiments": 5331,
      "lieux": 5332,
      "composition": 5333,
      "aliser": 5334,
      "privés": 5335,
      "contamin": 5336,
      "fournisseurs": 5337,
      "Politique": 5338,
      "chard": 5339,
      "aro": 5340,
      "compréhen": 5341,
      "dies": 5342,
      "kin": 5343,
      "tisation": 5344,
      "dangereuses": 5345,
      "libres": 5346,
      "remédier": 5347,
      "constitutionnelles": 5348,
      "\")": 5349,
      "réaffirme": 5350,
      "particuliers": 5351,
      "stade": 5352,
      "berg": 5353,
      "Ste": 5354,
      "br": 5355,
      "confirmer": 5356,
      "Bri": 5357,
      "dispositif": 5358,
      "apprenti": 5359,
      "sif": 5360,
      "Sommet": 5361,
      "chet": 5362,
      "Afghan": 5363,
      "extension": 5364,
      "DEN": 5365,
      "dues": 5366,
      "traiter": 5367,
      "Pos": 5368,
      "ctivités": 5369,
      "signature": 5370,
      "Lou": 5371,
      "abouti": 5372,
      "souhaitent": 5373,
      "bilan": 5374,
      "Charles": 5375,
      "fabrication": 5376,
      "pourcentage": 5377,
      "RS": 5378,
      "offres": 5379,
      "aller": 5380,
      "médiateur": 5381,
      "ULL": 5382,
      "Alexander": 5383,
      "ague": 5384,
      "demandeurs": 5385,
      "Daniel": 5386,
      "suivante": 5387,
      "diterranée": 5388,
      "législa": 5389,
      "profit": 5390,
      "Déch": 5391,
      "DEM": 5392,
      "sauvegarde": 5393,
      "Afghanistan": 5394,
      "différences": 5395,
      "tandis": 5396,
      "P7": 5397,
      "Depuis": 5398,
      "numéro": 5399,
      "prisonniers": 5400,
      "modes": 5401,
      "transactions": 5402,
      "forêts": 5403,
      "combusti": 5404,
      "embal": 5405,
      "proposées": 5406,
      "vulnérables": 5407,
      "admis": 5408,
      "ouvrir": 5409,
      "sés": 5410,
      "sûr": 5411,
      "lor": 5412,
      "page": 5413,
      "titres": 5414,
      "moyennes": 5415,
      "phénomène": 5416,
      "géographique": 5417,
      "essentiellement": 5418,
      "jamais": 5419,
      "journalistes": 5420,
      "Thom": 5421,
      "europarl": 5422,
      "susceptible": 5423,
      "manifestement": 5424,
      "offrir": 5425,
      "Méditerranée": 5426,
      "valor": 5427,
      "Sans": 5428,
      "geant": 5429,
      "EU": 5430,
      "Ta": 5431,
      "Mario": 5432,
      "Obser": 5433,
      "conduire": 5434,
      "FULL": 5435,
      "génétique": 5436,
      "signal": 5437,
      "Bre": 5438,
      "récla": 5439,
      "poste": 5440,
      "reconstruction": 5441,
      "gras": 5442,
      "rester": 5443,
      "paquet": 5444,
      "rectificatif": 5445,
      "taxe": 5446,
      "populaire": 5447,
      "chiffres": 5448,
      "fondamental": 5449,
      "implique": 5450,
      "incorpo": 5451,
      "PC": 5452,
      "contribue": 5453,
      "Pres": 5454,
      "conclure": 5455,
      "gui": 5456,
      "lissement": 5457,
      "capitaux": 5458,
      "chauff": 5459,
      "automobi": 5460,
      "rencontre": 5461,
      "clés": 5462,
      "Ti": 5463,
      "Coopération": 5464,
      "concentration": 5465,
      "itu": 5466,
      "compensation": 5467,
      "umé": 5468,
      "ita": 5469,
      "prêts": 5470,
      "tentions": 5471,
      "viande": 5472,
      "semaines": 5473,
      "ologie": 5474,
      "précon": 5475,
      "oma": 5476,
      "vateurs": 5477,
      "chefs": 5478,
      "Suède": 5479,
      "019": 5480,
      "fonte": 5481,
      "bénéficient": 5482,
      "complémentaire": 5483,
      "New": 5484,
      "accessibles": 5485,
      "arch": 5486,
      "apprentiss": 5487,
      "norme": 5488,
      "contraignant": 5489,
      "Ainsi": 5490,
      "Tél": 5491,
      "évaluations": 5492,
      "P6_TA": 5493,
      "Richard": 5494,
      "favora": 5495,
      "genres": 5496,
      "formations": 5497,
      "meilleur": 5498,
      "ancien": 5499,
      "lia": 5500,
      "étendre": 5501,
      "restruct": 5502,
      "flexibilité": 5503,
      "répar": 5504,
      "plani": 5505,
      "assu": 5506,
      "hori": 5507,
      "lac": 5508,
      "précédente": 5509,
      "owski": 5510,
      "Né": 5511,
      "soumises": 5512,
      "piration": 5513,
      "ares": 5514,
      "représentation": 5515,
      "volontaire": 5516,
      "Claude": 5517,
      "tiret": 5518,
      "Ca": 5519,
      "liens": 5520,
      "volume": 5521,
      "ek": 5522,
      "fréqu": 5523,
      "pie": 5524,
      "détenus": 5525,
      "israéli": 5526,
      "DC": 5527,
      "opti": 5528,
      "cains": 5529,
      "Propositions": 5530,
      "kos": 5531,
      "périphé": 5532,
      "demeure": 5533,
      "pp": 5534,
      "conformer": 5535,
      "auraient": 5536,
      "ovine": 5537,
      "stratégiques": 5538,
      "Autri": 5539,
      "affér": 5540,
      "actives": 5541,
      "nants": 5542,
      "prolong": 5543,
      "torture": 5544,
      "Eu": 5545,
      "Gaz": 5546,
      "suffisant": 5547,
      "Fé": 5548,
      "meilleurs": 5549,
      "Bor": 5550,
      "vres": 5551,
      "enregist": 5552,
      "viser": 5553,
      "possibles": 5554,
      "taille": 5555,
      "Délai": 5556,
      "directs": 5557,
      "Gau": 5558,
      "DEC": 5559,
      "permanent": 5560,
      "dénon": 5561,
      "zá": 5562,
      "anna": 5563,
      "terre": 5564,
      "pul": 5565,
      "parole": 5566,
      "travaille": 5567,
      "arrêtées": 5568,
      "relever": 5569,
      "déclare": 5570,
      "Johan": 5571,
      "MI": 5572,
      "tabac": 5573,
      "observation": 5574,
      "Tan": 5575,
      "chré": 5576,
      "1996": 5577,
      "qual": 5578,
      "TAT": 5579,
      "polon": 5580,
      "bilatéra": 5581,
      "inclusion": 5582,
      "pertes": 5583,
      "Lundi": 5584,
      "oun": 5585,
      "IND": 5586,
      "020": 5587,
      "rappro": 5588,
      "encourag": 5589,
      "Res": 5590,
      "prati": 5591,
      "effectué": 5592,
      "répercussions": 5593,
      "thè": 5594,
      "exprime": 5595,
      "iz": 5596,
      "signes": 5597,
      "acceptable": 5598,
      "chef": 5599,
      "délégués": 5600,
      "Recommandation": 5601,
      "Fern": 5602,
      "dique": 5603,
      "défav": 5604,
      "discussion": 5605,
      "ditions": 5606,
      "insé": 5607,
      "retrait": 5608,
      "parallè": 5609,
      "conviendrait": 5610,
      "invité": 5611,
      "écologique": 5612,
      "obtenus": 5613,
      "Autriche": 5614,
      "découlant": 5615,
      "María": 5616,
      "Échange": 5617,
      "perte": 5618,
      "accomplis": 5619,
      "nus": 5620,
      "peuple": 5621,
      "apprentissage": 5622,
      "AF": 5623,
      "kola": 5624,
      "physiques": 5625,
      "garantissant": 5626,
      "DH": 5627,
      "vè": 5628,
      "apparti": 5629,
      "105": 5630,
      "Mercredi": 5631,
      "anes": 5632,
      "lever": 5633,
      "suffisante": 5634,
      "environnemental": 5635,
      "dépendance": 5636,
      "essentielle": 5637,
      "similaires": 5638,
      "dépit": 5639,
      "FUE": 5640,
      "figure": 5641,
      "qualifications": 5642,
      "Michel": 5643,
      "plein": 5644,
      "tariat": 5645,
      "éventuellement": 5646,
      "toires": 5647,
      "SUL": 5648,
      "mineurs": 5649,
      "énumé": 5650,
      "Salv": 5651,
      "rien": 5652,
      "Sit": 5653,
      "mocra": 5654,
      "animité": 5655,
      "émet": 5656,
      "absolu": 5657,
      "licenci": 5658,
      "131": 5659,
      "nutri": 5660,
      "sco": 5661,
      "crétariat": 5662,
      "gouvernementales": 5663,
      ":(": 5664,
      "histor": 5665,
      "écoles": 5666,
      "relèvent": 5667,
      "suites": 5668,
      "OGM": 5669,
      "unanimité": 5670,
      "présentées": 5671,
      "étrangers": 5672,
      "quantités": 5673,
      "PESC": 5674,
      "cis": 5675,
      "devenir": 5676,
      "Pakistan": 5677,
      "cib": 5678,
      "territoriale": 5679,
      "recy": 5680,
      "identifier": 5681,
      "faibles": 5682,
      "PIB": 5683,
      "jur": 5684,
      "plainte": 5685,
      "envers": 5686,
      "union": 5687,
      "permettrait": 5688,
      "destru": 5689,
      "faci": 5690,
      "indépendant": 5691,
      "actuels": 5692,
      "validité": 5693,
      "revenu": 5694,
      "appels": 5695,
      "trouvent": 5696,
      "pénales": 5697,
      "ynam": 5698,
      "impose": 5699,
      "xy": 5700,
      "appliquées": 5701,
      "portuga": 5702,
      "Premi": 5703,
      "VOTE": 5704,
      "und": 5705,
      "étudiants": 5706,
      "Dimit": 5707,
      "intitulé": 5708,
      "Haut": 5709,
      "mations": 5710,
      "départ": 5711,
      "gh": 5712,
      "lières": 5713,
      "sécu": 5714,
      "Institu": 5715,
      "tol": 5716,
      "certaine": 5717,
      "ulture": 5718,
      "prioritaires": 5719,
      "recevoir": 5720,
      "yan": 5721,
      "travailler": 5722,
      "macro": 5723,
      "ato": 5724,
      "quar": 5725,
      "atie": 5726,
      "effectuée": 5727,
      "dynam": 5728,
      "ote": 5729,
      "texti": 5730,
      "adjudi": 5731,
      "auront": 5732,
      "voyage": 5733,
      "saisie": 5734,
      "clients": 5735,
      "fiscale": 5736,
      "Suppléant": 5737,
      "présid": 5738,
      "Elles": 5739,
      "coopérer": 5740,
      "pressions": 5741,
      "MA": 5742,
      "CS": 5743,
      "restre": 5744,
      "prévoyant": 5745,
      "107": 5746,
      "lone": 5747,
      "cellu": 5748,
      "transat": 5749,
      "futures": 5750,
      "raisonnable": 5751,
      "tures": 5752,
      "visite": 5753,
      "Situation": 5754,
      "connaître": 5755,
      "consiste": 5756,
      "dérivés": 5757,
      "âgées": 5758,
      "Fédération": 5759,
      "milieu": 5760,
      "criptions": 5761,
      "fruits": 5762,
      "néer": 5763,
      "passer": 5764,
      "essentielles": 5765,
      "détermination": 5766,
      "ling": 5767,
      "cz": 5768,
      "correspondant": 5769,
      "TAIRE": 5770,
      "Eri": 5771,
      "Jar": 5772,
      "reprise": 5773,
      "finances": 5774,
      "liaison": 5775,
      "Maroc": 5776,
      "tidi": 5777,
      "religion": 5778,
      "RA": 5779,
      "allo": 5780,
      "tellig": 5781,
      "finale": 5782,
      "requises": 5783,
      "diffus": 5784,
      "nº": 5785,
      "simplification": 5786,
      "nord": 5787,
      "ricains": 5788,
      "Cz": 5789,
      "migrants": 5790,
      "achat": 5791,
      "introduit": 5792,
      "malgré": 5793,
      "génération": 5794,
      "Weber": 5795,
      "ld": 5796,
      "rad": 5797,
      "cki": 5798,
      "Rue": 5799,
      "croiss": 5800,
      "examine": 5801,
      "isi": 5802,
      "ada": 5803,
      "réelle": 5804,
      "visent": 5805,
      "fondé": 5806,
      "estiment": 5807,
      "quants": 5808,
      "fermet": 5809,
      "autorisée": 5810,
      "aéroports": 5811,
      "goure": 5812,
      "communiquer": 5813,
      "Géorg": 5814,
      "sign": 5815,
      "Straté": 5816,
      "sucre": 5817,
      "contributions": 5818,
      "concernent": 5819,
      "zer": 5820,
      "vants": 5821,
      "pétition": 5822,
      "chinois": 5823,
      "recev": 5824,
      "exclusivement": 5825,
      "rémunération": 5826,
      "Franç": 5827,
      "Dane": 5828,
      "condamne": 5829,
      "Sant": 5830,
      "former": 5831,
      "cite": 5832,
      "maintenant": 5833,
      "ville": 5834,
      "Danemark": 5835,
      "Migu": 5836,
      "seuls": 5837,
      "PH": 5838,
      "Gab": 5839,
      "recru": 5840,
      "ressort": 5841,
      "navigation": 5842,
      "accélérer": 5843,
      "Ab": 5844,
      "cop": 5845,
      "étape": 5846,
      "assure": 5847,
      "gens": 5848,
      "référ": 5849,
      "ourg": 5850,
      "lancé": 5851,
      "simplifi": 5852,
      "crises": 5853,
      "soumise": 5854,
      "%,": 5855,
      "montré": 5856,
      "respecte": 5857,
      "maritimes": 5858,
      "Frances": 5859,
      "activement": 5860,
      "extrêmement": 5861,
      "Kla": 5862,
      "drait": 5863,
      "èlement": 5864,
      "considérable": 5865,
      "Voir": 5866,
      "licit": 5867,
      "Romeva": 5868,
      "durables": 5869,
      "Mol": 5870,
      "biocar": 5871,
      "analys": 5872,
      "mode": 5873,
      "öm": 5874,
      "SA": 5875,
      "performance": 5876,
      "soi": 5877,
      "sept": 5878,
      "quotidi": 5879,
      "fort": 5880,
      "liance": 5881,
      "Rueda": 5882,
      "Evans": 5883,
      "tröm": 5884,
      "interventions": 5885,
      "obstacle": 5886,
      "Bos": 5887,
      "pauvres": 5888,
      "baisse": 5889,
      "Budg": 5890,
      "remboursement": 5891,
      "Mardi": 5892,
      "Irak": 5893,
      "lié": 5894,
      "prévoient": 5895,
      "Géorgie": 5896,
      "discussions": 5897,
      "territoires": 5898,
      "sible": 5899,
      "huit": 5900,
      "transfrontalière": 5901,
      "précède": 5902,
      "produire": 5903,
      "terrain": 5904,
      "dangereux": 5905,
      "alco": 5906,
      "investisseurs": 5907,
      "effort": 5908,
      "chercheurs": 5909,
      "destinée": 5910,
      "syndi": 5911,
      "officielles": 5912,
      "afric": 5913,
      "culturels": 5914,
      "prestation": 5915,
      "socio": 5916,
      "eusement": 5917,
      "interdire": 5918,
      "plaintes": 5919,
      "restitu": 5920,
      "discriminations": 5921,
      "satisfaire": 5922,
      "certificat": 5923,
      "conclus": 5924,
      "Nom": 5925,
      "Schmi": 5926,
      "Barro": 5927,
      "Paolo": 5928,
      "aviation": 5929,
      "ITRE": 5930,
      "réf": 5931,
      "recouv": 5932,
      "BR": 5933,
      "pal": 5934,
      "oug": 5935,
      "éventuels": 5936,
      "couverts": 5937,
      "suspension": 5938,
      "Ku": 5939,
      "enh": 5940,
      "assor": 5941,
      "cam": 5942,
      "éliminer": 5943,
      "ratification": 5944,
      "Stratégie": 5945,
      "pesti": 5946,
      "pénal": 5947,
      "Adam": 5948,
      "procédé": 5949,
      "sanitaires": 5950,
      "créé": 5951,
      "actif": 5952,
      "VIH": 5953,
      "inscrits": 5954,
      "généralement": 5955,
      "468": 5956,
      "Lég": 5957,
      "biologique": 5958,
      "vatoire": 5959,
      "élu": 5960,
      "Consu": 5961,
      "exécutif": 5962,
      "reconnaître": 5963,
      "influence": 5964,
      "duquel": 5965,
      "portement": 5966,
      "plant": 5967,
      "ties": 5968,
      "marge": 5969,
      "menaces": 5970,
      "technologiques": 5971,
      "uniforme": 5972,
      "mén": 5973,
      "affirmé": 5974,
      "ciné": 5975,
      "TAN": 5976,
      "utiles": 5977,
      "réalité": 5978,
      "Ala": 5979,
      "sport": 5980,
      "Bien": 5981,
      "annexes": 5982,
      "itt": 5983,
      "organiser": 5984,
      "confé": 5985,
      "offer": 5986,
      "voyag": 5987,
      "rempl": 5988,
      "résidence": 5989,
      "proposés": 5990,
      "expiration": 5991,
      "achet": 5992,
      "fondées": 5993,
      "RÉSUL": 5994,
      "chés": 5995,
      "souver": 5996,
      "ampleur": 5997,
      "expliquer": 5998,
      "pied": 5999,
      "résident": 6000,
      "arrêté": 6001,
      "combattre": 6002,
      "h30": 6003,
      "télévision": 6004,
      "dirigeants": 6005,
      "Carlos": 6006,
      "ambiti": 6007,
      "faites": 6008,
      "passage": 6009,
      "intéressées": 6010,
      "exprimé": 6011,
      "isée": 6012,
      "instauration": 6013,
      "aéron": 6014,
      "hr": 6015,
      "italien": 6016,
      "press": 6017,
      "RÉSULTAT": 6018,
      "pièces": 6019,
      "requis": 6020,
      "comportement": 6021,
      "consultatif": 6022,
      "retraite": 6023,
      "souligner": 6024,
      "horizon": 6025,
      "artis": 6026,
      "avons": 6027,
      "administrations": 6028,
      "Fe": 6029,
      "bul": 6030,
      "Patri": 6031,
      "étranger": 6032,
      "vig": 6033,
      "plafond": 6034,
      "RT": 6035,
      "exploitant": 6036,
      "gros": 6037,
      "connus": 6038,
      "abstentions": 6039,
      "restent": 6040,
      "climatiques": 6041,
      "norm": 6042,
      "od": 6043,
      "lages": 6044,
      "refonte": 6045,
      "larus": 6046,
      "propriéta": 6047,
      "intellig": 6048,
      "NL": 6049,
      "isés": 6050,
      "Vit": 6051,
      "tein": 6052,
      "Kon": 6053,
      "tième": 6054,
      "polici": 6055,
      "veut": 6056,
      "ity": 6057,
      "totalement": 6058,
      "comprendre": 6059,
      "désigné": 6060,
      "Corée": 6061,
      "respectent": 6062,
      "aban": 6063,
      "villes": 6064,
      "dépla": 6065,
      "habitants": 6066,
      "préparer": 6067,
      "catastrophe": 6068,
      "supprimer": 6069,
      "fixation": 6070,
      "Ash": 6071,
      "Lux": 6072,
      "assi": 6073,
      "ura": 6074,
      "intement": 6075,
      "énoncées": 6076,
      "suivie": 6077,
      "fortement": 6078,
      "big": 6079,
      "mix": 6080,
      "Déchar": 6081,
      "urent": 6082,
      "nataires": 6083,
      "limitation": 6084,
      "exiger": 6085,
      "vingt": 6086,
      "gée": 6087,
      "mentation": 6088,
      "tribunal": 6089,
      "associés": 6090,
      "URI": 6091,
      "arrêter": 6092,
      "discipline": 6093,
      "locale": 6094,
      "recueil": 6095,
      "lateurs": 6096,
      "italienne": 6097,
      "www": 6098,
      "dési": 6099,
      "Rossa": 6100,
      "OSCE": 6101,
      "arrêtée": 6102,
      "récentes": 6103,
      "sz": 6104,
      "gestionnaires": 6105,
      "Questions": 6106,
      "fo": 6107,
      "reti": 6108,
      "Thomas": 6109,
      "Bir": 6110,
      "ham": 6111,
      "slo": 6112,
      "trent": 6113,
      "accompli": 6114,
      "agnes": 6115,
      "tell": 6116,
      "Marco": 6117,
      "titulaire": 6118,
      "Zi": 6119,
      "biocarburants": 6120,
      "VII": 6121,
      "convenu": 6122,
      "aie": 6123,
      "Sala": 6124,
      "pesticides": 6125,
      "Ul": 6126,
      "ik": 6127,
      "jeux": 6128,
      "orales": 6129,
      "Malte": 6130,
      "destruction": 6131,
      "milliers": 6132,
      "èdent": 6133,
      "sexe": 6134,
      "itta": 6135,
      "AGE": 6136,
      "Cos": 6137,
      "cancer": 6138,
      "oui": 6139,
      "Balk": 6140,
      "prie": 6141,
      "initiale": 6142,
      "Belarus": 6143,
      "Hongrie": 6144,
      "tendant": 6145,
      "Han": 6146,
      "Cu": 6147,
      "secret": 6148,
      "cruci": 6149,
      "toxi": 6150,
      "bases": 6151,
      "lénaire": 6152,
      "bet": 6153,
      "assurant": 6154,
      "marque": 6155,
      "wan": 6156,
      "spéciale": 6157,
      "recherches": 6158,
      "salue": 6159,
      "Décharge": 6160,
      "Certa": 6161,
      "neté": 6162,
      "campagnes": 6163,
      "feuille": 6164,
      "réduit": 6165,
      "transferts": 6166,
      "unités": 6167,
      "avancement": 6168,
      "contribuent": 6169,
      "recourir": 6170,
      "preuves": 6171,
      "ève": 6172,
      "défaut": 6173,
      "Barce": 6174,
      "èce": 6175,
      "égi": 6176,
      "wa": 6177,
      "bande": 6178,
      "sk": 6179,
      "dessous": 6180,
      ")?": 6181,
      "seuil": 6182,
      "observe": 6183,
      "périphériques": 6184,
      "respectivement": 6185,
      "Premier": 6186,
      "facul": 6187,
      "financés": 6188,
      "Euros": 6189,
      "supérieure": 6190,
      "convaincu": 6191,
      "intégrité": 6192,
      "PN": 6193,
      "alisés": 6194,
      "tarif": 6195,
      "Ioannis": 6196,
      "certification": 6197,
      "complex": 6198,
      "ultra": 6199,
      "critiques": 6200,
      "Avant": 6201,
      "étudier": 6202,
      "appelé": 6203,
      "rim": 6204,
      "sommes": 6205,
      "conjointement": 6206,
      "seuropéen": 6207,
      "sibles": 6208,
      "qualifiée": 6209,
      "Pr": 6210,
      "distance": 6211,
      "rurales": 6212,
      "ougosla": 6213,
      "Barcelone": 6214,
      "positive": 6215,
      "violences": 6216,
      "Sys": 6217,
      "erron": 6218,
      "compagnie": 6219,
      "Gaza": 6220,
      "lets": 6221,
      "sida": 6222,
      "libération": 6223,
      "plication": 6224,
      "Gon": 6225,
      "réexamen": 6226,
      "peler": 6227,
      "Luxemb": 6228,
      "distor": 6229,
      "classification": 6230,
      "Gali": 6231,
      "bilatéraux": 6232,
      "SIS": 6233,
      "transeuropéen": 6234,
      "crédi": 6235,
      "Mes": 6236,
      "Cop": 6237,
      "commis": 6238,
      "120": 6239,
      "petits": 6240,
      "bara": 6241,
      "omb": 6242,
      "atif": 6243,
      "allégations": 6244,
      "stabilisation": 6245,
      "accéder": 6246,
      "servir": 6247,
      "aï": 6248,
      "industrielle": 6249,
      "planification": 6250,
      "proli": 6251,
      "SIDEN": 6252,
      "intégré": 6253,
      "convergence": 6254,
      "Eva": 6255,
      "lez": 6256,
      "futurs": 6257,
      "jeunesse": 6258,
      "engagée": 6259,
      "conjointe": 6260,
      "pel": 6261,
      "écou": 6262,
      "occup": 6263,
      "PRÉSIDEN": 6264,
      "interopéra": 6265,
      "embar": 6266,
      "Croatie": 6267,
      "ör": 6268,
      "lèvement": 6269,
      "mines": 6270,
      "ophob": 6271,
      "préoccupation": 6272,
      "Min": 6273,
      "souci": 6274,
      "déficit": 6275,
      "Balkans": 6276,
      "roy": 6277,
      "Protection": 6278,
      "considérablement": 6279,
      "instance": 6280,
      "europa": 6281,
      "délivrance": 6282,
      "............": 6283,
      "consulter": 6284,
      "Luxembourg": 6285,
      "incom": 6286,
      "requi": 6287,
      "combien": 6288,
      "brevet": 6289,
      "Alliance": 6290,
      "spec": 6291,
      "agenda": 6292,
      "ão": 6293,
      "outils": 6294,
      "Déclarations": 6295,
      "chent": 6296,
      "Lan": 6297,
      "Ter": 6298,
      "rich": 6299,
      "appliquée": 6300,
      "tié": 6301,
      "consultations": 6302,
      "accepter": 6303,
      "stimu": 6304,
      "considérables": 6305,
      "coup": 6306,
      "doute": 6307,
      "réglementations": 6308,
      "\";": 6309,
      "Jens": 6310,
      "gère": 6311,
      "isla": 6312,
      "apon": 6313,
      "exigence": 6314,
      "RÉG": 6315,
      "eld": 6316,
      "isé": 6317,
      "admission": 6318,
      "médicament": 6319,
      "hô": 6320,
      "débit": 6321,
      "Er": 6322,
      "teneur": 6323,
      "161": 6324,
      "assin": 6325,
      "moitié": 6326,
      "déposées": 6327,
      "imposées": 6328,
      "APE": 6329,
      "accordé": 6330,
      "étroitement": 6331,
      "PRÉSIDENCE": 6332,
      "fact": 6333,
      "ôts": 6334,
      "entraîne": 6335,
      "(+": 6336,
      "provisoire": 6337,
      "considérés": 6338,
      "manifestations": 6339,
      "vacc": 6340,
      "gérer": 6341,
      "Commiss": 6342,
      "organisé": 6343,
      "ya": 6344,
      "Débat": 6345,
      "habitu": 6346,
      "prescriptions": 6347,
      "fération": 6348,
      "redevances": 6349,
      "aba": 6350,
      "proportionnalité": 6351,
      "Syrie": 6352,
      "hol": 6353,
      "guer": 6354,
      "sujets": 6355,
      "critique": 6356,
      "puisque": 6357,
      "Démocra": 6358,
      "saisir": 6359,
      "taxes": 6360,
      "oyen": 6361,
      "dres": 6362,
      "aqu": 6363,
      "évidence": 6364,
      "entretien": 6365,
      "Ney": 6366,
      "fili": 6367,
      "mater": 6368,
      "Budget": 6369,
      "voies": 6370,
      "dec": 6371,
      "aériennes": 6372,
      "saur": 6373,
      "trième": 6374,
      "landaise": 6375,
      "poulos": 6376,
      "apparaît": 6377,
      "aménage": 6378,
      "Nat": 6379,
      "Tous": 6380,
      "complè": 6381,
      "précédentes": 6382,
      "combin": 6383,
      "intérim": 6384,
      "devait": 6385,
      "retirer": 6386,
      "Jon": 6387,
      "devoir": 6388,
      "aci": 6389,
      "masse": 6390,
      "test": 6391,
      "arres": 6392,
      "instances": 6393,
      "prolifération": 6394,
      "électriques": 6395,
      "sensibilisation": 6396,
      "sanction": 6397,
      "gratu": 6398,
      "dossiers": 6399,
      "1994": 6400,
      "istiques": 6401,
      "eure": 6402,
      "881": 6403,
      "déploi": 6404,
      "Em": 6405,
      "répression": 6406,
      "aggra": 6407,
      "gestionnaire": 6408,
      "correctement": 6409,
      "Ale": 6410,
      "mbab": 6411,
      "central": 6412,
      "signifie": 6413,
      "indemnisation": 6414,
      "auto": 6415,
      "clage": 6416,
      "unn": 6417,
      "représentante": 6418,
      "gro": 6419,
      "incident": 6420,
      "parcours": 6421,
      "prudence": 6422,
      "entreprendre": 6423,
      "suffisantes": 6424,
      "soumet": 6425,
      "tarifs": 6426,
      "russe": 6427,
      "DR": 6428,
      "ténu": 6429,
      "exploitants": 6430,
      "ferroviaires": 6431,
      "couvre": 6432,
      "omali": 6433,
      "Roberta": 6434,
      "réci": 6435,
      "déterminée": 6436,
      "Plus": 6437,
      "blanc": 6438,
      "irani": 6439,
      "émer": 6440,
      "satell": 6441,
      "plate": 6442,
      "tré": 6443,
      "secrétaire": 6444,
      "pertinents": 6445,
      "Contr": 6446,
      "fiscales": 6447,
      "matériaux": 6448,
      "vites": 6449,
      "fabricant": 6450,
      "OTAN": 6451,
      "financées": 6452,
      "irrégular": 6453,
      "Jose": 6454,
      "structurelles": 6455,
      "échelon": 6456,
      "ül": 6457,
      "Fra": 6458,
      "inser": 6459,
      "compromet": 6460,
      "clan": 6461,
      "vénie": 6462,
      "continuent": 6463,
      "Slovénie": 6464,
      "répu": 6465,
      "burant": 6466,
      "aéroport": 6467,
      "Tom": 6468,
      "civil": 6469,
      "prestataires": 6470,
      "atténu": 6471,
      "conseils": 6472,
      "majeure": 6473,
      "pacifique": 6474,
      "030": 6475,
      "Ur": 6476,
      "mail": 6477,
      "sanitaire": 6478,
      "Autres": 6479,
      "épi": 6480,
      "révo": 6481,
      "116": 6482,
      "américain": 6483,
      "Dès": 6484,
      "nock": 6485,
      "fournissent": 6486,
      "insertion": 6487,
      "UN": 6488,
      "migration": 6489,
      "ensus": 6490,
      "fournis": 6491,
      "CM": 6492,
      "Copenh": 6493,
      "LEMENTAIRE": 6494,
      "Kyoto": 6495,
      "remplir": 6496,
      "imposent": 6497,
      "dérogations": 6498,
      "Gran": 6499,
      "confron": 6500,
      "inclus": 6501,
      "compléter": 6502,
      "Tannock": 6503,
      "ctivité": 6504,
      "graphique": 6505,
      "Prix": 6506,
      "……": 6507,
      "maceutiques": 6508,
      "rale": 6509,
      "avé": 6510,
      "détaillées": 6511,
      "PAGE": 6512,
      "compatibles": 6513,
      "Cré": 6514,
      "trouv": 6515,
      "satisfais": 6516,
      "renseignements": 6517,
      "consensus": 6518,
      "utilisant": 6519,
      "chargés": 6520,
      "mess": 6521,
      "dR": 6522,
      "DER": 6523,
      "bler": 6524,
      "précision": 6525,
      "sauv": 6526,
      "Pierre": 6527,
      "venant": 6528,
      "approfondie": 6529,
      "démarche": 6530,
      "mélan": 6531,
      "European": 6532,
      "allant": 6533,
      "défenseurs": 6534,
      "précisément": 6535,
      "espagnol": 6536,
      "itées": 6537,
      "bancaire": 6538,
      "liti": 6539,
      "accu": 6540,
      "division": 6541,
      "plur": 6542,
      "consistant": 6543,
      "Giu": 6544,
      "èges": 6545,
      "fermeture": 6546,
      "contacts": 6547,
      "éligibles": 6548,
      "Maur": 6549,
      "istent": 6550,
      "alisme": 6551,
      "rapporte": 6552,
      "fixée": 6553,
      "intégrante": 6554,
      "culturelles": 6555,
      "prononcer": 6556,
      "Ba": 6557,
      "ministéri": 6558,
      "Louis": 6559,
      "monn": 6560,
      "diminution": 6561,
      "vont": 6562,
      "privées": 6563,
      "Copenhague": 6564,
      "causes": 6565,
      "sols": 6566,
      "déployés": 6567,
      "modèles": 6568,
      "génétiquement": 6569,
      "2015": 6570,
      "quin": 6571,
      "Mark": 6572,
      "Ke": 6573,
      "recyclage": 6574,
      "espère": 6575,
      "valoir": 6576,
      "ancienne": 6577,
      "Sw": 6578,
      "définie": 6579,
      "Justice": 6580,
      "vols": 6581,
      "PS": 6582,
      "transmises": 6583,
      "coordonner": 6584,
      "RÉGLEMENTAIRE": 6585,
      "resta": 6586,
      "gne": 6587,
      "latine": 6588,
      "nelles": 6589,
      "Francesco": 6590,
      "industries": 6591,
      "révé": 6592,
      "forum": 6593,
      "conduit": 6594,
      "potentiels": 6595,
      "présidenti": 6596,
      "Sak": 6597,
      "Francis": 6598,
      "spor": 6599,
      "transporteurs": 6600,
      "dol": 6601,
      "garder": 6602,
      "élevage": 6603,
      "principale": 6604,
      "PE46": 6605,
      "contractu": 6606,
      "Mann": 6607,
      "bloc": 6608,
      "olf": 6609,
      "suspen": 6610,
      "153": 6611,
      "voitures": 6612,
      "Andreas": 6613,
      "légale": 6614,
      "carte": 6615,
      "Modification": 6616,
      "nul": 6617,
      "lundi": 6618,
      "drogue": 6619,
      "hypo": 6620,
      "appartenant": 6621,
      "listes": 6622,
      "dudit": 6623,
      "inég": 6624,
      "Syst": 6625,
      "ardini": 6626,
      "soulignant": 6627,
      "Hélè": 6628,
      "thème": 6629,
      "Hélène": 6630,
      "arbit": 6631,
      "étapes": 6632,
      "Genève": 6633,
      "brevets": 6634,
      "Ben": 6635,
      "marches": 6636,
      "incorporer": 6637,
      "proté": 6638,
      "essai": 6639,
      "insu": 6640,
      "réalisé": 6641,
      "complément": 6642,
      "Soci": 6643,
      "indiquant": 6644,
      "1990": 6645,
      "obligatoires": 6646,
      "réserves": 6647,
      "revêt": 6648,
      "adjudica": 6649,
      "Elisabeth": 6650,
      "grés": 6651,
      "acquisition": 6652,
      "%.": 6653,
      "réflex": 6654,
      "orations": 6655,
      "automatique": 6656,
      "armée": 6657,
      "significative": 6658,
      "concept": 6659,
      "Observatoire": 6660,
      "livre": 6661,
      "CATION": 6662,
      "côté": 6663,
      "suppri": 6664,
      "trom": 6665,
      "Site": 6666,
      "ński": 6667,
      "anciens": 6668,
      "écrites": 6669,
      "enfin": 6670,
      "Paris": 6671,
      "attaques": 6672,
      "codifi": 6673,
      "108": 6674,
      "inspections": 6675,
      "vég": 6676,
      "Raül": 6677,
      "distinction": 6678,
      "Légende": 6679,
      "Sous": 6680,
      "tront": 6681,
      "défendre": 6682,
      "autorisations": 6683,
      "complet": 6684,
      "corri": 6685,
      "logement": 6686,
      "gypte": 6687,
      "thèse": 6688,
      "pav": 6689,
      "ald": 6690,
      "disponibilité": 6691,
      "Adri": 6692,
      "cter": 6693,
      "Wer": 6694,
      "elly": 6695,
      "réalisées": 6696,
      "quatrième": 6697,
      "Gio": 6698,
      "tiendra": 6699,
      "transmet": 6700,
      "considérer": 6701,
      "veloppement": 6702,
      "indications": 6703,
      "facteur": 6704,
      "contenues": 6705,
      "exc": 6706,
      "zek": 6707,
      "urt": 6708,
      "Heure": 6709,
      "ball": 6710,
      "sc": 6711,
      "croissante": 6712,
      "Schmidt": 6713,
      "JURI": 6714,
      "publier": 6715,
      "biologiques": 6716,
      "blir": 6717,
      "250": 6718,
      "Serbie": 6719,
      "arne": 6720,
      "prioritaire": 6721,
      "Gabrie": 6722,
      "Giovan": 6723,
      "côti": 6724,
      "bénéfices": 6725,
      "Figue": 6726,
      ".,": 6727,
      "considérées": 6728,
      "réalisée": 6729,
      "restructuration": 6730,
      "AA": 6731,
      "one": 6732,
      "divul": 6733,
      "citoyenneté": 6734,
      "PHS": 6735,
      "lise": 6736,
      "mach": 6737,
      "directes": 6738,
      "diversi": 6739,
      "obo": 6740,
      "SEAE": 6741,
      "foresti": 6742,
      "déposé": 6743,
      "Guin": 6744,
      "routier": 6745,
      "Mag": 6746,
      "erto": 6747,
      "performances": 6748,
      "Bernd": 6749,
      "entièrement": 6750,
      "Ham": 6751,
      "Litu": 6752,
      "adhé": 6753,
      "vivement": 6754,
      "tration": 6755,
      "existent": 6756,
      "DÉC": 6757,
      "CONSI": 6758,
      "îles": 6759,
      "nels": 6760,
      "zio": 6761,
      "démarches": 6762,
      "rigoure": 6763,
      "turc": 6764,
      "fal": 6765,
      "désé": 6766,
      "Ilda": 6767,
      "notion": 6768,
      "élargie": 6769,
      "électorale": 6770,
      "arnecki": 6771,
      "matri": 6772,
      "psy": 6773,
      "permanente": 6774,
      "Czarnecki": 6775,
      "bor": 6776,
      "intérieure": 6777,
      "RANT": 6778,
      "acek": 6779,
      "recueilli": 6780,
      "médicaux": 6781,
      "cesse": 6782,
      "iredo": 6783,
      "iden": 6784,
      "cellules": 6785,
      "ER": 6786,
      "estimations": 6787,
      "homo": 6788,
      "existante": 6789,
      "réparation": 6790,
      "Figueiredo": 6791,
      "dul": 6792,
      "participant": 6793,
      "employés": 6794,
      "1992": 6795,
      "Eurostat": 6796,
      "secrétariat": 6797,
      "iro": 6798,
      "provin": 6799,
      "profonde": 6800,
      "ôture": 6801,
      "entendu": 6802,
      "appartient": 6803,
      "auteurs": 6804,
      "ariats": 6805,
      "Nikola": 6806,
      "Monica": 6807,
      "traduction": 6808,
      "déo": 6809,
      "abu": 6810,
      "Relations": 6811,
      "immatri": 6812,
      "chargées": 6813,
      "concertation": 6814,
      "déséqui": 6815,
      "contrepartie": 6816,
      "transparente": 6817,
      "américaine": 6818,
      "allemande": 6819,
      "incombe": 6820,
      "Bog": 6821,
      "PE45": 6822,
      "autorisées": 6823,
      "pacte": 6824,
      "pério": 6825,
      "llon": 6826,
      "démon": 6827,
      "Lituanie": 6828,
      "Bow": 6829,
      "carburant": 6830,
      "électrique": 6831,
      "formulées": 6832,
      "nour": 6833,
      "sives": 6834,
      "religieuses": 6835,
      "expériences": 6836,
      "syner": 6837,
      "Alain": 6838,
      "externes": 6839,
      "douze": 6840,
      "Angelilli": 6841,
      "affectées": 6842,
      "LIS": 6843,
      "train": 6844,
      "carburants": 6845,
      "durabilité": 6846,
      "proche": 6847,
      "comprenant": 6848,
      "............................................": 6849,
      "aver": 6850,
      "loin": 6851,
      "espèce": 6852,
      "Gonzá": 6853,
      "Cam": 6854,
      "ür": 6855,
      "entière": 6856,
      "Suite": 6857,
      "pire": 6858,
      "accroissement": 6859,
      "Karin": 6860,
      "wski": 6861,
      "envelop": 6862,
      "Véron": 6863,
      "Sécurité": 6864,
      "San": 6865,
      "poursuites": 6866,
      "longtemps": 6867,
      "chacune": 6868,
      "irk": 6869,
      "télécommunications": 6870,
      "tendance": 6871,
      "conscience": 6872,
      "RAP": 6873,
      "hne": 6874,
      "parta": 6875,
      "Liber": 6876,
      "González": 6877,
      "rencon": 6878,
      "Année": 6879,
      "relance": 6880,
      "élor": 6881,
      "cio": 6882,
      "400": 6883,
      "FdR": 6884,
      "Rü": 6885,
      "couverture": 6886,
      "stan": 6887,
      "routière": 6888,
      "Zimbab": 6889,
      "séri": 6890,
      "analyses": 6891,
      "Protocole": 6892,
      "immédiate": 6893,
      "Mesures": 6894,
      "isté": 6895,
      "surface": 6896,
      "çons": 6897,
      "Sui": 6898,
      "Pales": 6899,
      "élaboré": 6900,
      "Nikolaos": 6901,
      "Doha": 6902,
      "effectif": 6903,
      "Johannes": 6904,
      "affectés": 6905,
      "phra": 6906,
      "fournie": 6907,
      "aménagement": 6908,
      "euses": 6909,
      "géographiques": 6910,
      "Soudan": 6911,
      "sin": 6912,
      "éman": 6913,
      "pées": 6914,
      "observateurs": 6915,
      "ajouter": 6916,
      "Forum": 6917,
      "commissaires": 6918,
      "hou": 6919,
      "Proinsi": 6920,
      "totalité": 6921,
      "blo": 6922,
      "CONSIDÉ": 6923,
      "Proinsias": 6924,
      "onie": 6925,
      "fera": 6926,
      "Bosnie": 6927,
      "vitesse": 6928,
      "refuser": 6929,
      "réduite": 6930,
      "Plan": 6931,
      "tait": 6932,
      "déploiement": 6933,
      "débou": 6934,
      "Gui": 6935,
      "bate": 6936,
      "compréhension": 6937,
      "Rysz": 6938,
      "ader": 6939,
      "valorisation": 6940,
      "Ryszard": 6941,
      "Cre": 6942,
      "concours": 6943,
      "abro": 6944,
      "assurances": 6945,
      "Wo": 6946,
      "ried": 6947,
      "congé": 6948,
      "précises": 6949,
      "partenariats": 6950,
      "modernisation": 6951,
      "web": 6952,
      "Dom": 6953,
      "témoi": 6954,
      "obtention": 6955,
      "inquiétude": 6956,
      "Deux": 6957,
      "montrer": 6958,
      "interopérabilité": 6959,
      "Bro": 6960,
      "VIII": 6961,
      "septième": 6962,
      "Giusep": 6963,
      "tienne": 6964,
      "subordonnées": 6965,
      "comités": 6966,
      "clarifier": 6967,
      "inscrire": 6968,
      "monnaie": 6969,
      "Giuseppe": 6970,
      "Parmi": 6971,
      "ouvements": 6972,
      "humanitaires": 6973,
      "Christ": 6974,
      "rappelant": 6975,
      "salariés": 6976,
      "conserver": 6977,
      "CONSIDÉRANT": 6978,
      "tements": 6979,
      "réta": 6980,
      "rière": 6981,
      "appuyer": 6982,
      "compatibilité": 6983,
      "énoncés": 6984,
      "quitter": 6985,
      "Institut": 6986,
      "mag": 6987,
      "circu": 6988,
      "exploitations": 6989,
      "sément": 6990,
      "édoine": 6991,
      "récipro": 6992,
      "rats": 6993,
      "TS": 6994,
      "orer": 6995,
      "cab": 6996,
      "Macédoine": 6997,
      "inscription": 6998,
      "industriels": 6999,
      "parfois": 7000,
      "cadres": 7001,
      "procur": 7002,
      "marin": 7003,
      "Votes": 7004,
      "confidentialité": 7005,
      "imparti": 7006,
      "céré": 7007,
      "audiovisu": 7008,
      "tun": 7009,
      "uré": 7010,
      "moteurs": 7011,
      "PBR": 7012,
      "Sim": 7013,
      "lars": 7014,
      "mouvement": 7015,
      "post": 7016,
      "Tunis": 7017,
      "mouvements": 7018,
      "aboli": 7019,
      "Barroso": 7020,
      "adi": 7021,
      "bénéficiaire": 7022,
      "jon": 7023,
      "ding": 7024,
      "dy": 7025,
      "aquac": 7026,
      "régulier": 7027,
      "arme": 7028,
      "grecque": 7029,
      "dommage": 7030,
      "Herz": 7031,
      "contract": 7032,
      "Hau": 7033,
      "positif": 7034,
      "résid": 7035,
      "discu": 7036,
      "modifiés": 7037,
      "incendies": 7038,
      "russes": 7039,
      "Let": 7040,
      "sifs": 7041,
      "fusion": 7042,
      "améliorations": 7043,
      "présentés": 7044,
      "Santos": 7045,
      "apportées": 7046,
      "Associ": 7047,
      "engagé": 7048,
      "Zimbabwe": 7049,
      "impossible": 7050,
      "justification": 7051,
      "critère": 7052,
      "chét": 7053,
      "parents": 7054,
      "fiables": 7055,
      "motif": 7056,
      "constitutionnel": 7057,
      "définit": 7058,
      "figurer": 7059,
      "voyageurs": 7060,
      "ingrédi": 7061,
      "Don": 7062,
      "Néanmoins": 7063,
      "polonais": 7064,
      "pavillon": 7065,
      "tera": 7066,
      "poul": 7067,
      "tests": 7068,
      "poss": 7069,
      "ASP": 7070,
      "automobile": 7071,
      "Stock": 7072,
      "Véronique": 7073,
      "akis": 7074,
      "confirmé": 7075,
      "Deman": 7076,
      "tolér": 7077,
      "Pen": 7078,
      "immobi": 7079,
      "satisf": 7080,
      "tagne": 7081,
      "Ple": 7082,
      "vez": 7083,
      "prenantes": 7084,
      "prestataire": 7085,
      "Te": 7086,
      "lancement": 7087,
      "irrégularités": 7088,
      "Japon": 7089,
      "ètre": 7090,
      "laiti": 7091,
      "ambi": 7092,
      "pira": 7093,
      "expres": 7094,
      "titulaires": 7095,
      "accordées": 7096,
      "effectifs": 7097,
      "plement": 7098,
      "ting": 7099,
      "rité": 7100,
      "rappelé": 7101,
      "Lambert": 7102,
      "Dar": 7103,
      "détéri": 7104,
      "informés": 7105,
      "dites": 7106,
      "Bil": 7107,
      "contiennent": 7108,
      "versement": 7109,
      "justifier": 7110,
      "municip": 7111,
      "hler": 7112,
      "résolu": 7113,
      "africaine": 7114,
      "Ram": 7115,
      "__": 7116,
      "ula": 7117,
      "contes": 7118,
      "Janusz": 7119,
      "évident": 7120,
      "Pacte": 7121,
      "accompagné": 7122,
      "DÉCI": 7123,
      "décr": 7124,
      "stand": 7125,
      "consolid": 7126,
      "augmenté": 7127,
      "Sen": 7128,
      "Tit": 7129,
      "excé": 7130,
      "traitées": 7131,
      "ultrapériphériques": 7132,
      "envisagées": 7133,
      "manquants": 7134,
      "Estonie": 7135,
      "FA": 7136,
      "lège": 7137,
      "BUDG": 7138,
      "Philippe": 7139,
      "juris": 7140,
      "prin": 7141,
      "associer": 7142,
      "peuples": 7143,
      "comporter": 7144,
      "Tre": 7145,
      "exerce": 7146,
      "reflè": 7147,
      "Fondation": 7148,
      "procède": 7149,
      "morale": 7150,
      "privilèges": 7151,
      "subs": 7152,
      "renouvellement": 7153,
      "payer": 7154,
      "idal": 7155,
      "Barbara": 7156,
      "consacré": 7157,
      "DÉCISION": 7158,
      "Edit": 7159,
      "eté": 7160,
      "sio": 7161,
      "transfé": 7162,
      "Will": 7163,
      "crime": 7164,
      "Liby": 7165,
      "dignité": 7166,
      "notation": 7167,
      "habilité": 7168,
      "thèmes": 7169,
      "appliqué": 7170,
      "poulou": 7171,
      "Mise": 7172,
      "inond": 7173,
      "décen": 7174,
      "confront": 7175,
      "universités": 7176,
      "intensifier": 7177,
      "décentra": 7178,
      "Étaient": 7179,
      "Homm": 7180,
      "expressément": 7181,
      "Activités": 7182,
      "Finlande": 7183,
      "hauteur": 7184,
      "CONSE": 7185,
      "adéquates": 7186,
      "gri": 7187,
      "ïd": 7188,
      "préven": 7189,
      "pensions": 7190,
      "stimuler": 7191,
      "Ini": 7192,
      "virement": 7193,
      "rapprochement": 7194,
      "issus": 7195,
      "antillon": 7196,
      "tante": 7197,
      "pez": 7198,
      "lose": 7199,
      "allemand": 7200,
      "20100": 7201,
      "banque": 7202,
      "bénéfice": 7203,
      "CONSEIL": 7204,
      "enregis": 7205,
      "transporteur": 7206,
      "accessible": 7207,
      "accue": 7208,
      "Giovanni": 7209,
      "infe": 7210,
      "achè": 7211,
      "palestinien": 7212,
      "Klaus": 7213,
      "suivent": 7214,
      "1993": 7215,
      "opérateur": 7216,
      "réel": 7217,
      "compétents": 7218,
      "Moyen": 7219,
      "importa": 7220,
      "pilier": 7221,
      "112": 7222,
      "exprimer": 7223,
      "parler": 7224,
      "signer": 7225,
      "réductions": 7226,
      "rappeler": 7227,
      "retards": 7228,
      "Mik": 7229,
      "Luisa": 7230,
      "vaste": 7231,
      "viabilité": 7232,
      "maigre": 7233,
      "Na": 7234,
      "applications": 7235,
      "échantillon": 7236,
      "von": 7237,
      "tier": 7238,
      "mauvaise": 7239,
      "strictes": 7240,
      "administratif": 7241,
      "erronés": 7242,
      "impliquant": 7243,
      "hongro": 7244,
      "minimale": 7245,
      "attente": 7246,
      "conque": 7247,
      "aval": 7248,
      "recrutement": 7249,
      "phrase": 7250,
      "OCDE": 7251,
      "VM": 7252,
      "Vladi": 7253,
      "espagnole": 7254,
      "sixième": 7255,
      "150": 7256,
      "oiseaux": 7257,
      "Mu": 7258,
      "composé": 7259,
      "licence": 7260,
      "statistique": 7261,
      "investi": 7262,
      "clôture": 7263,
      "transatlantique": 7264,
      "consolidation": 7265,
      "épo": 7266,
      "consenti": 7267,
      "équipement": 7268,
      "inondations": 7269,
      "spati": 7270,
      "aspect": 7271,
      "faill": 7272,
      ".../": 7273,
      "alerte": 7274,
      "perpé": 7275,
      "somme": 7276,
      "prêt": 7277,
      "renvoyé": 7278,
      "drogues": 7279,
      "pertur": 7280,
      "réellement": 7281,
      "simplifier": 7282,
      "transitoire": 7283,
      "lablement": 7284,
      "ELDR": 7285,
      "oro": 7286,
      "régulière": 7287,
      "sectorielles": 7288,
      "ork": 7289,
      "bâtiment": 7290,
      "Homme": 7291,
      "pros": 7292,
      "Développement": 7293,
      "May": 7294,
      "capitale": 7295,
      "entier": 7296,
      "Willi": 7297,
      "assurée": 7298,
      "Libye": 7299,
      "équivalent": 7300,
      "Musc": 7301,
      "déloy": 7302,
      "subi": 7303,
      "TER": 7304,
      "désignation": 7305,
      "gio": 7306,
      "animal": 7307,
      "cos": 7308,
      "vétérinaire": 7309,
      "suggère": 7310,
      "Initi": 7311,
      "fermement": 7312,
      "Ló": 7313,
      "indu": 7314,
      "2014": 7315,
      "kg": 7316,
      "différence": 7317,
      "jurisprudence": 7318,
      "López": 7319,
      "claires": 7320,
      "ryth": 7321,
      "chiffre": 7322,
      "continent": 7323,
      "réflexion": 7324,
      "corps": 7325,
      "éradi": 7326,
      "aud": 7327,
      "Vladim": 7328,
      "vac": 7329,
      "ador": 7330,
      "Ordre": 7331,
      "Coton": 7332,
      "visibilité": 7333,
      "Baltique": 7334,
      "Plu": 7335,
      "transfrontalières": 7336,
      "SP": 7337,
      "Med": 7338,
      "déroulement": 7339,
      "Bö": 7340,
      "cherche": 7341,
      "opérationnelle": 7342,
      "Costa": 7343,
      "apporte": 7344,
      "Jac": 7345,
      "set": 7346,
      "éraux": 7347,
      "accorde": 7348,
      "nécessite": 7349,
      "Pérez": 7350,
      "partant": 7351,
      "formulation": 7352,
      "lève": 7353,
      "défavor": 7354,
      "aliste": 7355,
      "progressive": 7356,
      "Gauche": 7357,
      "agrément": 7358,
      "pir": 7359,
      "joue": 7360,
      "opérationnels": 7361,
      "comit": 7362,
      "Et": 7363,
      "égu": 7364,
      "mentionnés": 7365,
      "poissons": 7366,
      "Wi": 7367,
      "participent": 7368,
      "ethnique": 7369,
      "Im": 7370,
      "cités": 7371,
      "nier": 7372,
      "Kh": 7373,
      "Gros": 7374,
      "susp": 7375,
      "définitif": 7376,
      "............................................................................................................": 7377,
      "répondu": 7378,
      "rable": 7379,
      "pée": 7380,
      "concurrenti": 7381,
      "ford": 7382,
      "informée": 7383,
      "délégué": 7384,
      "chrétiens": 7385,
      "argu": 7386,
      "exploiter": 7387,
      "alcool": 7388,
      "fla": 7389,
      "pêcheurs": 7390,
      "Cristiana": 7391,
      "alloués": 7392,
      "excel": 7393,
      "Ho": 7394,
      "élevée": 7395,
      "LO": 7396,
      "Délég": 7397,
      "lacunes": 7398,
      "Cotonou": 7399,
      "ado": 7400,
      "Muscardini": 7401,
      "Veld": 7402,
      "Kil": 7403,
      "ureaux": 7404,
      "attendre": 7405,
      "fournisseur": 7406,
      "borg": 7407,
      "NU": 7408,
      "million": 7409,
      "erreur": 7410,
      "lence": 7411,
      "pit": 7412,
      "riches": 7413,
      "suédo": 7414,
      "partag": 7415,
      "disposée": 7416,
      "renon": 7417,
      "ours": 7418,
      "just": 7419,
      "mestre": 7420,
      "dissement": 7421,
      "Salvador": 7422,
      "emprison": 7423,
      "antérieures": 7424,
      "999": 7425,
      "hygi": 7426,
      "méditerranéen": 7427,
      "Péti": 7428,
      "Lud": 7429,
      "connexion": 7430,
      "Tunisie": 7431,
      "équitables": 7432,
      "xyde": 7433,
      "Son": 7434,
      "Tribunal": 7435,
      "SIG": 7436,
      "TÉ": 7437,
      "conç": 7438,
      "clauses": 7439,
      "occidentaux": 7440,
      "Égypte": 7441,
      "arrête": 7442,
      "quantita": 7443,
      "appareils": 7444,
      "codifiée": 7445,
      "sson": 7446,
      "die": 7447,
      "légal": 7448,
      "entement": 7449,
      "préservation": 7450,
      "Prés": 7451,
      "comprennent": 7452,
      "personnelles": 7453,
      "Millénaire": 7454,
      "Kal": 7455,
      "regrou": 7456,
      "Commissaire": 7457,
      "Gö": 7458,
      "salle": 7459,
      "bres": 7460,
      "PE47": 7461,
      "'\"": 7462,
      "dissu": 7463,
      "légu": 7464,
      "Syl": 7465,
      "1605": 7466,
      "vivant": 7467,
      "égovine": 7468,
      "spéciaux": 7469,
      "approuvée": 7470,
      "ary": 7471,
      "chy": 7472,
      "James": 7473,
      "décès": 7474,
      "Camb": 7475,
      "XX": 7476,
      "colon": 7477,
      "préco": 7478,
      "attitude": 7479,
      "Herzégovine": 7480,
      "revoir": 7481,
      "remise": 7482,
      "options": 7483,
      "négatives": 7484,
      "désignés": 7485,
      "correcte": 7486,
      "Natura": 7487,
      "oné": 7488,
      "demment": 7489,
      "contenus": 7490,
      "tâche": 7491,
      "étendue": 7492,
      "mité": 7493,
      "dépasse": 7494,
      "impéra": 7495,
      "progressivement": 7496,
      "hos": 7497,
      "charte": 7498,
      "printemps": 7499,
      "Go": 7500,
      "Gert": 7501,
      "AGRAP": 7502,
      "caus": 7503,
      "portés": 7504,
      "PARAGRAP": 7505,
      "prévisions": 7506,
      "itiné": 7507,
      "oral": 7508,
      "joint": 7509,
      "dynamique": 7510,
      "Key": 7511,
      "contraintes": 7512,
      "natures": 7513,
      "aborder": 7514,
      "développés": 7515,
      "reconnues": 7516,
      "ward": 7517,
      "concre": 7518,
      "impu": 7519,
      "simul": 7520,
      "Corne": 7521,
      "Jeu": 7522,
      "probation": 7523,
      "lourds": 7524,
      "enveloppe": 7525,
      "domes": 7526,
      "formel": 7527,
      "hl": 7528,
      "élevées": 7529,
      "fondamentale": 7530,
      "Système": 7531,
      "médec": 7532,
      "écarter": 7533,
      "mers": 7534,
      "ieu": 7535,
      "PARAGRAPHE": 7536,
      "xim": 7537,
      "emballage": 7538,
      "illicite": 7539,
      "Henri": 7540,
      "Birmanie": 7541,
      "Gro": 7542,
      "utilisent": 7543,
      "investir": 7544,
      "cure": 7545,
      "couvertes": 7546,
      "Vers": 7547,
      "»?": 7548,
      "individuels": 7549,
      "référendu": 7550,
      "Silk": 7551,
      "aboutir": 7552,
      "Kilroy": 7553,
      "marins": 7554,
      "définitive": 7555,
      "compta": 7556,
      "oll": 7557,
      "utin": 7558,
      "stipu": 7559,
      "composants": 7560,
      "contrefaçon": 7561,
      "diplom": 7562,
      "maî": 7563,
      "Jord": 7564,
      "invités": 7565,
      "belge": 7566,
      "ômes": 7567,
      "davie": 7568,
      "autonome": 7569,
      "Ei": 7570,
      "gravement": 7571,
      "formuler": 7572,
      "racisme": 7573,
      "Moldavie": 7574,
      "spécifiquement": 7575,
      "Dur": 7576,
      "premiers": 7577,
      "Christoph": 7578,
      "surveiller": 7579,
      "bran": 7580,
      "nit": 7581,
      "top": 7582,
      "exemption": 7583,
      "imposition": 7584,
      "introductive": 7585,
      "Jeudi": 7586,
      "mains": 7587,
      "concrets": 7588,
      "réguliers": 7589,
      "intérimaire": 7590,
      "UNI": 7591,
      "absor": 7592,
      "Mats": 7593,
      "adéquat": 7594,
      "inférieure": 7595,
      "odo": 7596,
      "administratifs": 7597,
      "gouvernementale": 7598,
      "officiellement": 7599,
      "Eurojust": 7600,
      "saurait": 7601,
      "sch": 7602,
      "renforcé": 7603,
      "spécifications": 7604,
      "Européens": 7605,
      "attire": 7606,
      "abrogeant": 7607,
      "raire": 7608,
      "félicit": 7609,
      "BER": 7610,
      "polluants": 7611,
      "scr": 7612,
      "volet": 7613,
      "formule": 7614,
      "ji": 7615,
      "librement": 7616,
      "exigent": 7617,
      "intégrées": 7618,
      "informent": 7619,
      "ky": 7620,
      "licences": 7621,
      "définitions": 7622,
      "Simon": 7623,
      "selt": 7624,
      "scrutin": 7625,
      "exac": 7626,
      "signatures": 7627,
      "mobiles": 7628,
      "résidus": 7629,
      "Keyser": 7630,
      "fas": 7631,
      "frag": 7632,
      "récents": 7633,
      "Posselt": 7634,
      "Igna": 7635,
      "bunaux": 7636,
      "harov": 7637,
      "Association": 7638,
      "senti": 7639,
      "souhaitable": 7640,
      "rétablir": 7641,
      "légales": 7642,
      "appuie": 7643,
      "Werner": 7644,
      "respectées": 7645,
      "affecter": 7646,
      "école": 7647,
      "tale": 7648,
      "exclure": 7649,
      "Sakharov": 7650,
      "alig": 7651,
      "kop": 7652,
      "souverain": 7653,
      "ues": 7654,
      "reb": 7655,
      "prot": 7656,
      "än": 7657,
      "choisir": 7658,
      "cofinancement": 7659,
      "ENVI": 7660,
      "138": 7661,
      "qualit": 7662,
      "Riitta": 7663,
      "comportant": 7664,
      "communiqué": 7665,
      "PT": 7666,
      "repose": 7667,
      "certificats": 7668,
      "Joseph": 7669,
      "Woj": 7670,
      "minimal": 7671,
      "fret": 7672,
      "proxim": 7673,
      "usagers": 7674,
      "restriction": 7675,
      "mala": 7676,
      "immigrés": 7677,
      "engagées": 7678,
      "ciech": 7679,
      "Wojciech": 7680,
      "Bon": 7681,
      "ló": 7682,
      "oit": 7683,
      "talité": 7684,
      "préconise": 7685,
      "Code": 7686,
      "oly": 7687,
      "juridiquement": 7688,
      "bancaires": 7689,
      "arabe": 7690,
      "comitologie": 7691,
      "xén": 7692,
      "primaire": 7693,
      "Carol": 7694,
      "International": 7695,
      "tolérance": 7696,
      "fonde": 7697,
      "Elmar": 7698,
      "bureaux": 7699,
      "passation": 7700,
      "Ave": 7701,
      "Pie": 7702,
      "comparables": 7703,
      "Outre": 7704,
      "SU": 7705,
      "inger": 7706,
      "xénophob": 7707,
      "jouent": 7708,
      "Panay": 7709,
      "ophi": 7710,
      "assa": 7711,
      "proximité": 7712,
      "engagés": 7713,
      "Sven": 7714,
      "respectant": 7715,
      "FED": 7716,
      "Christa": 7717,
      "client": 7718,
      "équilibrée": 7719,
      "spéciales": 7720,
      "multiples": 7721,
      "jugement": 7722,
      "conducteurs": 7723,
      "Françoise": 7724,
      "IC": 7725,
      "ink": 7726,
      "mari": 7727,
      "précau": 7728,
      "imer": 7729,
      "représenter": 7730,
      "vieil": 7731,
      "reconnus": 7732,
      "ambitieux": 7733,
      "fasse": 7734,
      "répé": 7735,
      "compen": 7736,
      "appuy": 7737,
      "audiovisuel": 7738,
      "Tam": 7739,
      "institutionnelle": 7740,
      "param": 7741,
      "extraordinaire": 7742,
      "effici": 7743,
      "Angelika": 7744,
      "milit": 7745,
      "atteintes": 7746,
      "similaire": 7747,
      "tribunaux": 7748,
      "assuré": 7749,
      "alistes": 7750,
      "discriminatoire": 7751,
      "inciter": 7752,
      "AB": 7753,
      "Mont": 7754,
      "Thi": 7755,
      "Buzek": 7756,
      "aquaculture": 7757,
      "facilement": 7758,
      "Obje": 7759,
      "adul": 7760,
      "palestinienne": 7761,
      "fos": 7762,
      "autour": 7763,
      "publiées": 7764,
      "satisfaction": 7765,
      "puisqu": 7766,
      "lisée": 7767,
      "ethniques": 7768,
      "gements": 7769,
      "inviter": 7770,
      "atmos": 7771,
      "temporaires": 7772,
      "contamination": 7773,
      "Tomas": 7774,
      "Gér": 7775,
      "atteints": 7776,
      "Bart": 7777,
      "tants": 7778,
      "Suppléants": 7779,
      "grès": 7780,
      "nan": 7781,
      "inz": 7782,
      "prun": 7783,
      "mono": 7784,
      "inquiétudes": 7785,
      "franca": 7786,
      "armement": 7787,
      "vivent": 7788,
      "Lá": 7789,
      "tempéra": 7790,
      "torio": 7791,
      "Gérard": 7792,
      "Hy": 7793,
      "Brian": 7794,
      "Jer": 7795,
      "douane": 7796,
      "gents": 7797,
      "avancées": 7798,
      "flotte": 7799,
      "délivré": 7800,
      "assumer": 7801,
      "inique": 7802,
      "exposés": 7803,
      "Environ": 7804,
      "basée": 7805,
      "harmoniser": 7806,
      "Newton": 7807,
      "Lo": 7808,
      "MAR": 7809,
      "poisson": 7810,
      "échéance": 7811,
      "ssent": 7812,
      "confrontés": 7813,
      "garantit": 7814,
      "OIT": 7815,
      "Approbation": 7816,
      "Vittorio": 7817,
      "Men": 7818,
      "ht": 7819,
      "Dunn": 7820,
      "englob": 7821,
      "fabricants": 7822,
      "réus": 7823,
      "P7_TA": 7824,
      "Kat": 7825,
      "officiels": 7826,
      "accepté": 7827,
      "mesur": 7828,
      "rendus": 7829,
      "Mit": 7830,
      "experti": 7831,
      "seconde": 7832,
      "ministérielle": 7833,
      "Lász": 7834,
      "emprun": 7835,
      "explique": 7836,
      "combustibles": 7837,
      "rapporteure": 7838,
      "égale": 7839,
      "partenaire": 7840,
      "couvrant": 7841,
      "opportunité": 7842,
      "fred": 7843,
      "historique": 7844,
      "ttes": 7845,
      "croissant": 7846,
      "Salafranca": 7847,
      "maximal": 7848,
      "László": 7849,
      "jac": 7850,
      "pous": 7851,
      "Renate": 7852,
      "portuaires": 7853,
      "archite": 7854,
      "vabilité": 7855,
      "dégradation": 7856,
      "kakis": 7857,
      "évolutions": 7858,
      "autonomie": 7859,
      "réd": 7860,
      "inquies": 7861,
      "mondiaux": 7862,
      "Letton": 7863,
      "hygiène": 7864,
      "Gabriele": 7865,
      "itte": 7866,
      "Oe": 7867,
      "hoc": 7868,
      "assemblée": 7869,
      "Auc": 7870,
      "600": 7871,
      "externe": 7872,
      "inégalités": 7873,
      "province": 7874,
      "Initiative": 7875,
      "var": 7876,
      "donateurs": 7877,
      "histoire": 7878,
      "Miguel": 7879,
      "Certains": 7880,
      "éloi": 7881,
      "demandant": 7882,
      "indépendantes": 7883,
      "mixte": 7884,
      "quinquies": 7885,
      "chasse": 7886,
      "codes": 7887,
      "ouvertes": 7888,
      "Pu": 7889,
      "revan": 7890,
      "pilotes": 7891,
      "foot": 7892,
      "Caroline": 7893,
      "Lut": 7894,
      "orge": 7895,
      "chev": 7896,
      "Helmut": 7897,
      "Lettonie": 7898,
      "refu": 7899,
      "expul": 7900,
      "démocrates": 7901,
      "icz": 7902,
      "Avec": 7903,
      "Nouvel": 7904,
      "échap": 7905,
      "déterminé": 7906,
      "coordonnée": 7907,
      "Démocrates": 7908,
      "thy": 7909,
      "respectu": 7910,
      "employeurs": 7911,
      "incomb": 7912,
      "peines": 7913,
      "exhor": 7914,
      "appréciation": 7915,
      "normalisation": 7916,
      "limit": 7917,
      "petit": 7918,
      "réagir": 7919,
      "communiquées": 7920,
      "recomman": 7921,
      "innov": 7922,
      "favorables": 7923,
      "nations": 7924,
      "différend": 7925,
      "ASE": 7926,
      "Congo": 7927,
      "égal": 7928,
      "lige": 7929,
      "vrai": 7930,
      "sure": 7931,
      "sémin": 7932,
      "ír": 7933,
      "conversion": 7934,
      "récu": 7935,
      "abrog": 7936,
      "citement": 7937,
      "invo": 7938,
      "Vig": 7939,
      "quelconque": 7940,
      "denberg": 7941,
      "précoce": 7942,
      "ail": 7943,
      "Suisse": 7944,
      "analyser": 7945,
      "ria": 7946,
      "évalue": 7947,
      "acqué": 7948,
      "plantes": 7949,
      "autorise": 7950,
      "........................": 7951,
      "kien": 7952,
      "Geringer": 7953,
      "Oedenberg": 7954,
      "comptables": 7955,
      "inen": 7956,
      "amendée": 7957,
      "assister": 7958,
      "associées": 7959,
      "systématiquement": 7960,
      "réit": 7961,
      "assent": 7962,
      "maîtr": 7963,
      "abe": 7964,
      "mentionnées": 7965,
      "out": 7966,
      "Mauro": 7967,
      "Tremo": 7968,
      "prendra": 7969,
      "APP": 7970,
      "aph": 7971,
      "gle": 7972,
      "implications": 7973,
      "gène": 7974,
      "opèrent": 7975,
      "constaté": 7976,
      "harmonisées": 7977,
      "Erik": 7978,
      "rève": 7979,
      "inscrites": 7980,
      "quarante": 7981,
      "Sto": 7982,
      "ara": 7983,
      "visible": 7984,
      "Cer": 7985,
      "grecques": 7986,
      "Cuba": 7987,
      "Seán": 7988,
      "Staes": 7989,
      "justifie": 7990,
      "outil": 7991,
      "UNE": 7992,
      "urement": 7993,
      "intermédiaires": 7994,
      "disproportion": 7995,
      "indépendamment": 7996,
      "détaillée": 7997,
      "souples": 7998,
      "écosystèmes": 7999,
      "incitation": 8000,
      "chimique": 8001,
      "wo": 8002,
      "ast": 8003,
      "indiquent": 8004,
      "eck": 8005,
      "Danu": 8006,
      "agent": 8007,
      "Elena": 8008,
      "Dimitri": 8009,
      "revanche": 8010,
      "Dü": 8011,
      "anglais": 8012,
      "Karl": 8013,
      "description": 8014,
      "neuf": 8015,
      "voulu": 8016,
      "Slova": 8017,
      "B5": 8018,
      "venti": 8019,
      "igi": 8020,
      "Présent": 8021,
      "yon": 8022,
      "Informations": 8023,
      "sérieux": 8024,
      "simultan": 8025,
      "Camp": 8026,
      "persécu": 8027,
      "Rosa": 8028,
      "Diana": 8029,
      "textiles": 8030,
      "Nig": 8031,
      "Heinz": 8032,
      "Cal": 8033,
      "verte": 8034,
      "donnant": 8035,
      "mercure": 8036,
      "Milan": 8037,
      "Neyra": 8038,
      "ál": 8039,
      "joué": 8040,
      "soule": 8041,
      "dos": 8042,
      "Kaz": 8043,
      "regret": 8044,
      "légumes": 8045,
      "Flor": 8046,
      "publiés": 8047,
      "franch": 8048,
      "Olle": 8049,
      "prospé": 8050,
      "EMPL": 8051,
      "munitions": 8052,
      "dollars": 8053,
      "Jerzy": 8054,
      "Ed": 8055,
      "engend": 8056,
      "contribué": 8057,
      "exhaus": 8058,
      "empêche": 8059,
      "élus": 8060,
      "indispensables": 8061,
      "rements": 8062,
      "remar": 8063,
      "lisées": 8064,
      "interrog": 8065,
      "illets": 8066,
      "calcu": 8067,
      "condamnation": 8068,
      "Cs": 8069,
      "Espace": 8070,
      "eye": 8071,
      "Darfour": 8072,
      "Miros": 8073,
      "œur": 8074,
      "communiquent": 8075,
      "Dép": 8076,
      "Schul": 8077,
      "wska": 8078,
      "éloig": 8079,
      "fournissant": 8080,
      "habilitation": 8081,
      "km": 8082,
      "agres": 8083,
      "avions": 8084,
      "leo": 8085,
      "légi": 8086,
      "mené": 8087,
      "Prodi": 8088,
      "risquent": 8089,
      "résulte": 8090,
      "avion": 8091,
      "délibé": 8092,
      "sections": 8093,
      "vidéo": 8094,
      "éro": 8095,
      "ventes": 8096,
      "bro": 8097,
      "mère": 8098,
      "puissance": 8099,
      "légitime": 8100,
      "Service": 8101,
      "faute": 8102,
      "Norvè": 8103,
      "Norvège": 8104,
      "rières": 8105,
      "soutenu": 8106,
      "religieux": 8107,
      "prévisionnel": 8108,
      "Canada": 8109,
      "assurent": 8110,
      "omatiques": 8111,
      "particules": 8112,
      "Ts": 8113,
      "victime": 8114,
      "tôt": 8115,
      "préjudici": 8116,
      "méditerranéenne": 8117,
      "mauvais": 8118,
      "antici": 8119,
      "labora": 8120,
      "touchés": 8121,
      "éventuel": 8122,
      "chiment": 8123,
      "naturels": 8124,
      "Garri": 8125,
      "suspendre": 8126,
      "gl": 8127,
      "légitimité": 8128,
      "tarifaires": 8129,
      "Galileo": 8130,
      "exposé": 8131,
      "attirer": 8132,
      "Mary": 8133,
      "relativement": 8134,
      "currence": 8135,
      "Castro": 8136,
      "Konrad": 8137,
      "Hig": 8138,
      "fiscal": 8139,
      "alternatives": 8140,
      "substitution": 8141,
      "billets": 8142,
      "musul": 8143,
      "JUS": 8144,
      "tega": 8145,
      "ella": 8146,
      "exemp": 8147,
      "situés": 8148,
      "parallèlement": 8149,
      "EG": 8150,
      "manifest": 8151,
      "acquise": 8152,
      "Jim": 8153,
      "éche": 8154,
      "Réunion": 8155,
      "Luigi": 8156,
      "Csaba": 8157,
      "OPC": 8158,
      "Silvia": 8159,
      "apporté": 8160,
      "185": 8161,
      "thon": 8162,
      "ček": 8163,
      "tian": 8164,
      "légalité": 8165,
      "inacceptable": 8166,
      "bénéficiant": 8167,
      "toxiques": 8168,
      "ingrédients": 8169,
      "Ac": 8170,
      "Wal": 8171,
      "prolon": 8172,
      "minim": 8173,
      "biom": 8174,
      "coordin": 8175,
      "sensiblement": 8176,
      "néerlandais": 8177,
      "graphiques": 8178,
      "dépasser": 8179,
      "régulateurs": 8180,
      "miques": 8181,
      "URE": 8182,
      "ková": 8183,
      "domin": 8184,
      "répondent": 8185,
      "Ortega": 8186,
      "requiert": 8187,
      "sures": 8188,
      "adressée": 8189,
      "satellite": 8190,
      "vros": 8191,
      "forma": 8192,
      "Entre": 8193,
      "connaît": 8194,
      "supervision": 8195,
      "petite": 8196,
      "ratifié": 8197,
      "pap": 8198,
      "chten": 8199,
      "favorisant": 8200,
      "Schulz": 8201,
      "émettre": 8202,
      "transfrontalier": 8203,
      "ström": 8204,
      "114": 8205,
      "orientale": 8206,
      "Brok": 8207,
      "Kin": 8208,
      "atis": 8209,
      "acteur": 8210,
      "clar": 8211,
      "bner": 8212,
      "sel": 8213,
      "encourageant": 8214,
      "captures": 8215,
      "Liban": 8216,
      "demeurent": 8217,
      "Wh": 8218,
      "invitée": 8219,
      "réitère": 8220,
      "diagno": 8221,
      "rapporteurs": 8222,
      "inflation": 8223,
      "religieuse": 8224,
      "sachant": 8225,
      "immigrants": 8226,
      "Medina": 8227,
      "donnent": 8228,
      "Nico": 8229,
      "illégales": 8230,
      "discriminatoires": 8231,
      "collective": 8232,
      "conseiller": 8233,
      "blanchiment": 8234,
      "cœur": 8235,
      "avère": 8236,
      "venche": 8237,
      "Pourquoi": 8238,
      "Pervenche": 8239,
      "simplifiée": 8240,
      "Demande": 8241,
      "Slovaquie": 8242,
      "détru": 8243,
      "irlandais": 8244,
      "Rodi": 8245,
      "hrkop": 8246,
      "Dührkop": 8247,
      "lou": 8248,
      "salaires": 8249,
      "tti": 8250,
      "raoui": 8251,
      "produite": 8252,
      "ENCE": 8253,
      "disparités": 8254,
      "policière": 8255,
      "satisfaisante": 8256,
      "certitude": 8257,
      "seules": 8258,
      "indemn": 8259,
      "enregistrés": 8260,
      "audits": 8261,
      "asta": 8262,
      "diverg": 8263,
      "charbon": 8264,
      "financé": 8265,
      "ultérieure": 8266,
      "psycho": 8267,
      "Nis": 8268,
      "faudrait": 8269,
      "ême": 8270,
      "RTE": 8271,
      "vigil": 8272,
      "entrepren": 8273,
      "Kac": 8274,
      "frap": 8275,
      "ratifier": 8276,
      "combustible": 8277,
      "Dimitrios": 8278,
      "prospérité": 8279,
      "gravité": 8280,
      "symb": 8281,
      "familiale": 8282,
      "GI": 8283,
      "Présentation": 8284,
      "calité": 8285,
      "Ceci": 8286,
      "récupé": 8287,
      "paritaire": 8288,
      "souterra": 8289,
      "Quand": 8290,
      "adaptées": 8291,
      "recouvrement": 8292,
      "yp": 8293,
      "neur": 8294,
      "simplement": 8295,
      "Ana": 8296,
      "time": 8297,
      "CO2": 8298,
      "Kou": 8299,
      "Lam": 8300,
      "Pö": 8301,
      "centaines": 8302,
      "bureaucra": 8303,
      "JAI": 8304,
      "Agenda": 8305,
      "témoig": 8306,
      "Gom": 8307,
      "tto": 8308,
      "citer": 8309,
      "registres": 8310,
      "spectre": 8311,
      "Ludford": 8312,
      "image": 8313,
      "capable": 8314,
      "\"),": 8315,
      "Commissions": 8316,
      "industrielles": 8317,
      "..........................": 8318,
      "Ath": 8319,
      "respecté": 8320,
      "Meyer": 8321,
      "litiges": 8322,
      "Pétition": 8323,
      "référendum": 8324,
      "ferme": 8325,
      "ttering": 8326,
      "Herbert": 8327,
      "Pöttering": 8328,
      "devons": 8329,
      "unilatéra": 8330,
      "auf": 8331,
      "copie": 8332,
      "Ka": 8333,
      "OMD": 8334,
      "légalement": 8335,
      "sièges": 8336,
      "penser": 8337,
      "faculta": 8338,
      "filles": 8339,
      "débattu": 8340,
      "enz": 8341,
      "uno": 8342,
      "respectés": 8343,
      "condamné": 8344,
      "bruit": 8345,
      "clarté": 8346,
      "odu": 8347,
      "auer": 8348,
      "orog": 8349,
      "apportée": 8350,
      "ller": 8351,
      "garantissent": 8352,
      "inflig": 8353,
      "comple": 8354,
      "fédéral": 8355,
      "zis": 8356,
      "déposer": 8357,
      "avance": 8358,
      "RULES": 8359,
      "abattage": 8360,
      "crédibilité": 8361,
      "accueille": 8362,
      "yougosla": 8363,
      "desquels": 8364,
      "edo": 8365,
      "trente": 8366,
      "développements": 8367,
      "graphie": 8368,
      "Graham": 8369,
      "vétérinaires": 8370,
      "expertise": 8371,
      "football": 8372,
      "BIS": 8373,
      "faus": 8374,
      "affectation": 8375,
      "achèvement": 8376,
      "reçoivent": 8377,
      "Fis": 8378,
      "005": 8379,
      "cédant": 8380,
      "perç": 8381,
      "consentement": 8382,
      "exercent": 8383,
      "Stavros": 8384,
      "ova": 8385,
      "ingé": 8386,
      "convo": 8387,
      "précitée": 8388,
      "alogues": 8389,
      "élève": 8390,
      "Même": 8391,
      "vola": 8392,
      "Alors": 8393,
      "soulignent": 8394,
      "9999": 8395,
      "distorsions": 8396,
      "Rég": 8397,
      "trique": 8398,
      "Q999": 8399,
      "différenci": 8400,
      "mobilières": 8401,
      "sexuels": 8402,
      "pluralisme": 8403,
      "oij": 8404,
      "positifs": 8405,
      "publie": 8406,
      "alisées": 8407,
      "protégées": 8408,
      "reconnue": 8409,
      "satisfait": 8410,
      "originaires": 8411,
      "fédérale": 8412,
      "slova": 8413,
      "FMI": 8414,
      "RC": 8415,
      "demain": 8416,
      "propriétaires": 8417,
      "oboda": 8418,
      "exceptionnel": 8419,
      "épidé": 8420,
      "initial": 8421,
      "Unies": 8422,
      "vendre": 8423,
      "offrent": 8424,
      "transitoires": 8425,
      "prenne": 8426,
      "vera": 8427,
      "consacrée": 8428,
      "Davies": 8429,
      "Swoboda": 8430,
      "OPCVM": 8431,
      "cinqui": 8432,
      "accomplissement": 8433,
      "nominal": 8434,
      "sensible": 8435,
      "Jacek": 8436,
      "arrivée": 8437,
      "rants": 8438,
      "ignent": 8439,
      "ele": 8440,
      "détent": 8441,
      "problé": 8442,
      "progresser": 8443,
      "conférences": 8444,
      "phytop": 8445,
      "touchées": 8446,
      "volontaires": 8447,
      "Sarah": 8448,
      "vieillissement": 8449,
      "Garriga": 8450,
      "proto": 8451,
      "interdis": 8452,
      "traditionnelles": 8453,
      "ung": 8454,
      "justifiée": 8455,
      "Tchét": 8456,
      "iten": 8457,
      "introduite": 8458,
      "conjoint": 8459,
      "mobile": 8460,
      "meur": 8461,
      "moindre": 8462,
      "noms": 8463,
      "américaines": 8464,
      "rid": 8465,
      "Wolf": 8466,
      "unitaire": 8467,
      "turque": 8468,
      "accumu": 8469,
      "iso": 8470,
      "prorog": 8471,
      "versés": 8472,
      "travailleur": 8473,
      "Guido": 8474,
      "nante": 8475,
      "île": 8476,
      "lledo": 8477,
      "traç": 8478,
      "routiers": 8479,
      "Rése": 8480,
      "réjou": 8481,
      "catifs": 8482,
      "Marek": 8483,
      "Willy": 8484,
      "yougoslave": 8485,
      "tête": 8486,
      "ries": 8487,
      "évolu": 8488,
      "Corre": 8489,
      "quotidien": 8490,
      "15h00": 8491,
      "Ouz": 8492,
      "définitifs": 8493,
      "Communication": 8494,
      "Bogus": 8495,
      "Polledo": 8496,
      "entraîné": 8497,
      "cta": 8498,
      "séparation": 8499,
      "favorablement": 8500,
      "Hannes": 8501,
      "1989": 8502,
      "associé": 8503,
      "sauvages": 8504,
      "Aussi": 8505,
      "case": 8506,
      "dorf": 8507,
      "classe": 8508,
      "biomasse": 8509,
      "produisent": 8510,
      "laisser": 8511,
      "envisagée": 8512,
      "élabore": 8513,
      "adresser": 8514,
      "intéressés": 8515,
      "gag": 8516,
      "photo": 8517,
      "entrepris": 8518,
      "bénéficie": 8519,
      "gènes": 8520,
      "fiscaux": 8521,
      "TIFI": 8522,
      "Biélor": 8523,
      "fiabilité": 8524,
      "monter": 8525,
      "arrestation": 8526,
      "Reg": 8527,
      "Ivo": 8528,
      "négocier": 8529,
      "Kelam": 8530,
      "rendue": 8531,
      "utilisateur": 8532,
      "Sarnez": 8533,
      "Carlo": 8534,
      "phytophar": 8535,
      "versées": 8536,
      "alisé": 8537,
      "Paulo": 8538,
      "émanant": 8539,
      "autri": 8540,
      "1991": 8541,
      "causés": 8542,
      "ciel": 8543,
      "additifs": 8544,
      "autrichi": 8545,
      "opté": 8546,
      "tradition": 8547,
      "communique": 8548,
      "attaquer": 8549,
      "douanes": 8550,
      "mentionné": 8551,
      "palestiniens": 8552,
      "Toutes": 8553,
      "matériels": 8554,
      "individus": 8555,
      "bateaux": 8556,
      "considérations": 8557,
      "Commerce": 8558,
      "explicitement": 8559,
      "(«": 8560,
      "commencer": 8561,
      "régler": 8562,
      "suffisants": 8563,
      "hautement": 8564,
      "accordés": 8565,
      "Islande": 8566,
      "Ayala": 8567,
      "esse": 8568,
      "plications": 8569,
      "construire": 8570,
      "devi": 8571,
      "dépar": 8572,
      "courte": 8573,
      "accompagnée": 8574,
      "fassent": 8575,
      "inclut": 8576,
      "uméro": 8577,
      "fir": 8578,
      "routes": 8579,
      "envisagé": 8580,
      "armés": 8581,
      "complexe": 8582,
      "Lang": 8583,
      "détails": 8584,
      "Sender": 8585,
      "urgent": 8586,
      "intéressé": 8587,
      "Fo": 8588,
      "intra": 8589,
      "réconciliation": 8590,
      "HO": 8591,
      "óz": 8592,
      "mine": 8593,
      "précaution": 8594,
      "Biélorussie": 8595,
      "travaillent": 8596,
      "Gy": 8597,
      "SK": 8598,
      "STI": 8599,
      "siles": 8600,
      "statuant": 8601,
      "traditionnels": 8602,
      "équivalentes": 8603,
      "écart": 8604,
      "ép": 8605,
      "devient": 8606,
      "meu": 8607,
      "denrée": 8608,
      "côtières": 8609,
      "vič": 8610,
      "jugé": 8611,
      "médical": 8612,
      "COMMUNE": 8613,
      "œuvrer": 8614,
      "strictement": 8615,
      "Bogusław": 8616,
      "zas": 8617,
      "rendent": 8618,
      "intégrés": 8619,
      "déséquilibres": 8620,
      "réglementé": 8621,
      "800": 8622,
      "Joanna": 8623,
      "préparatoires": 8624,
      "attentats": 8625,
      "Cla": 8626,
      "commises": 8627,
      "ulent": 8628,
      "ORD": 8629,
      "opérationnelles": 8630,
      "migratoires": 8631,
      "manipu": 8632,
      "séances": 8633,
      "Tunne": 8634,
      "Nice": 8635,
      "Alexand": 8636,
      "Krats": 8637,
      "gins": 8638,
      "signataires": 8639,
      "Kratsa": 8640,
      "lav": 8641,
      "élaborés": 8642,
      "Math": 8643,
      "productivité": 8644,
      "reçues": 8645,
      "influen": 8646,
      "irait": 8647,
      "réels": 8648,
      "participé": 8649,
      "Ari": 8650,
      "Blo": 8651,
      "Brési": 8652,
      "valable": 8653,
      "milliard": 8654,
      "immunités": 8655,
      "CTE": 8656,
      "insisté": 8657,
      "soumission": 8658,
      "majeurs": 8659,
      "chénie": 8660,
      "QU": 8661,
      "nataire": 8662,
      "souscrit": 8663,
      "Christopher": 8664,
      "souveraineté": 8665,
      "Tchétchénie": 8666,
      "ordi": 8667,
      "déposés": 8668,
      "mobil": 8669,
      "zzo": 8670,
      "minorité": 8671,
      "importés": 8672,
      "criti": 8673,
      "britanniques": 8674,
      "CF": 8675,
      "entam": 8676,
      "pair": 8677,
      "seuils": 8678,
      "transeuropéens": 8679,
      "Józ": 8680,
      "cevoir": 8681,
      "contribuant": 8682,
      "documentation": 8683,
      "susmentionnée": 8684,
      "brut": 8685,
      "accessibilité": 8686,
      "accueilli": 8687,
      "Princi": 8688,
      "Délégation": 8689,
      "chypri": 8690,
      "résistance": 8691,
      "tissus": 8692,
      "fémin": 8693,
      "effectue": 8694,
      "végéta": 8695,
      "Kor": 8696,
      "indirectement": 8697,
      "détri": 8698,
      "livraison": 8699,
      "linguistiques": 8700,
      "abandon": 8701,
      "Tsag": 8702,
      "Hay": 8703,
      "esa": 8704,
      "procla": 8705,
      "transparentes": 8706,
      "morts": 8707,
      "privilégi": 8708,
      "périodique": 8709,
      "Brésil": 8710,
      "label": 8711,
      "Colom": 8712,
      "œuvres": 8713,
      "quinze": 8714,
      "détérioration": 8715,
      "Higgins": 8716,
      "reflé": 8717,
      "négatifs": 8718,
      "Sepp": 8719,
      "montrent": 8720,
      "presque": 8721,
      "constater": 8722,
      "vices": 8723,
      "expé": 8724,
      "catch": 8725,
      "Tsagaro": 8726,
      "with": 8727,
      "Carl": 8728,
      "indiquées": 8729,
      "Hol": 8730,
      "ologique": 8731,
      "précisant": 8732,
      "assis": 8733,
      "désigner": 8734,
      "Tsagaropoulou": 8735,
      "NA": 8736,
      "276": 8737,
      ")).": 8738,
      "voient": 8739,
      "phénomènes": 8740,
      "occidental": 8741,
      "immatriculation": 8742,
      "Del": 8743,
      "déte": 8744,
      "prélèvement": 8745,
      "Alban": 8746,
      "pertinente": 8747,
      "arrêtés": 8748,
      "élargir": 8749,
      "LIBE": 8750,
      "endro": 8751,
      "Instru": 8752,
      "primordi": 8753,
      "contractuelles": 8754,
      "urbain": 8755,
      "Mathieu": 8756,
      "usine": 8757,
      "avo": 8758,
      "erreurs": 8759,
      "mobiliser": 8760,
      "Produ": 8761,
      "heureusement": 8762,
      "illégaux": 8763,
      "migrations": 8764,
      "camps": 8765,
      "Numéro": 8766,
      "TRAN": 8767,
      "inti": 8768,
      "parent": 8769,
      "logici": 8770,
      "bénéficié": 8771,
      "révè": 8772,
      "appliqués": 8773,
      "…/": 8774,
      "terroriste": 8775,
      "incluant": 8776,
      "refusé": 8777,
      "délivrés": 8778,
      "intentions": 8779,
      "protégés": 8780,
      "mortalité": 8781,
      "réussite": 8782,
      "fiscalité": 8783,
      "usement": 8784,
      "zes": 8785,
      "incitations": 8786,
      "moratoire": 8787,
      "possé": 8788,
      "américains": 8789,
      "Svensson": 8790,
      "conçu": 8791,
      "Chapitre": 8792,
      "actionnaires": 8793,
      "excède": 8794,
      "excédent": 8795,
      "constitué": 8796,
      "exécutions": 8797,
      "Wallis": 8798,
      "»)": 8799,
      "104": 8800,
      "ken": 8801,
      "démocratisation": 8802,
      "quasi": 8803,
      "adéqua": 8804,
      "ignant": 8805,
      "Christo": 8806,
      "RN": 8807,
      "Proche": 8808,
      "versaire": 8809,
      "adaptée": 8810,
      "Adriana": 8811,
      "TIFICATION": 8812,
      "détriment": 8813,
      "Sab": 8814,
      "ellé": 8815,
      "pilote": 8816,
      "indirecte": 8817,
      "noci": 8818,
      "conférées": 8819,
      "armements": 8820,
      "échec": 8821,
      "dément": 8822,
      "opinions": 8823,
      "Da": 8824,
      "exporta": 8825,
      "huis": 8826,
      "concentrer": 8827,
      "conscient": 8828,
      "PNR": 8829,
      "Mora": 8830,
      "Somali": 8831,
      "méthodo": 8832,
      "désigne": 8833,
      "FEDER": 8834,
      "ED": 8835,
      "lière": 8836,
      "multipli": 8837,
      "cinquième": 8838,
      "Pol": 8839,
      "mili": 8840,
      "concrète": 8841,
      "trouvé": 8842,
      "domici": 8843,
      "alisée": 8844,
      "Panayoto": 8845,
      "renouvelable": 8846,
      "angers": 8847,
      "acceptation": 8848,
      "adultes": 8849,
      "lettres": 8850,
      "confirme": 8851,
      "salu": 8852,
      "abon": 8853,
      "interval": 8854,
      "constante": 8855,
      "ká": 8856,
      "préten": 8857,
      "chats": 8858,
      "facilité": 8859,
      "Gre": 8860,
      "CHAP": 8861,
      "confidentiel": 8862,
      "plantation": 8863,
      "Plusieurs": 8864,
      "Khad": 8865,
      "rétab": 8866,
      "exceptionnelles": 8867,
      "remplies": 8868,
      "Papadi": 8869,
      "175": 8870,
      "réassurance": 8871,
      "dégrad": 8872,
      "fondés": 8873,
      "106": 8874,
      "1049": 8875,
      "Buiten": 8876,
      "affecte": 8877,
      "Berès": 8878,
      "moulis": 8879,
      "Papadimoulis": 8880,
      "hali": 8881,
      "prouvé": 8882,
      "valuation": 8883,
      "Interviennent": 8884,
      "Aus": 8885,
      "EA": 8886,
      "Fré": 8887,
      "Pers": 8888,
      "thi": 8889,
      "universelle": 8890,
      "prudenti": 8891,
      "synergies": 8892,
      "].": 8893,
      "cèlement": 8894,
      "présidentielles": 8895,
      "appliquant": 8896,
      "néglig": 8897,
      "rise": 8898,
      "décisi": 8899,
      "précisé": 8900,
      "détection": 8901,
      "institué": 8902,
      "offrant": 8903,
      "OMS": 8904,
      "CIG": 8905,
      "ACH": 8906,
      "morales": 8907,
      "clandesti": 8908,
      "auditions": 8909,
      "malement": 8910,
      "Européenne": 8911,
      "taxation": 8912,
      "halieu": 8913,
      "Cont": 8914,
      "triques": 8915,
      "cipation": 8916,
      "afférentes": 8917,
      "Cau": 8918,
      "chol": 8919,
      "légiférer": 8920,
      "Fili": 8921,
      "Ki": 8922,
      "nait": 8923,
      "ún": 8924,
      "Guy": 8925,
      "ks": 8926,
      "œu": 8927,
      "enregistré": 8928,
      "Mera": 8929,
      "tain": 8930,
      "riz": 8931,
      "modu": 8932,
      "adoptent": 8933,
      "modifiées": 8934,
      "Día": 8935,
      "Tro": 8936,
      "veulent": 8937,
      "annulation": 8938,
      "ressortissant": 8939,
      "Bur": 8940,
      "réussi": 8941,
      "produites": 8942,
      "entendre": 8943,
      "profondément": 8944,
      "contraignantes": 8945,
      "Díaz": 8946,
      "écla": 8947,
      "Statu": 8948,
      "Khadraoui": 8949,
      "Ali": 8950,
      "OU": 8951,
      "Glen": 8952,
      "her": 8953,
      "dépôts": 8954,
      "Collège": 8955,
      "repos": 8956,
      "cia": 8957,
      "localisation": 8958,
      "emballages": 8959,
      "Concer": 8960,
      "inscrite": 8961,
      "absolument": 8962,
      "sensibiliser": 8963,
      "énumérées": 8964,
      "enfre": 8965,
      "douanières": 8966,
      "portugais": 8967,
      "William": 8968,
      "température": 8969,
      "CHAPITRE": 8970,
      "Bill": 8971,
      "Sti": 8972,
      "accompagnement": 8973,
      "JUSTIFICATION": 8974,
      "dangers": 8975,
      "renforçant": 8976,
      "instructions": 8977,
      "université": 8978,
      "aper": 8979,
      "Juan": 8980,
      "pom": 8981,
      "sécur": 8982,
      "cies": 8983,
      "trid": 8984,
      "incidents": 8985,
      "Ji": 8986,
      "repris": 8987,
      "ases": 8988,
      "Nichol": 8989,
      "minute": 8990,
      "fréquence": 8991,
      "fou": 8992,
      "ça": 8993,
      "partiellement": 8994,
      "harcèlement": 8995,
      "Heiner": 8996,
      "Presedo": 8997,
      "bra": 8998,
      "Nicholson": 8999,
      "débu": 9000,
      "kil": 9001,
      "opérant": 9002,
      "Aide": 9003,
      "Lange": 9004,
      "octroyer": 9005,
      "expériment": 9006,
      "vigilance": 9007,
      "Ci": 9008,
      "Ég": 9009,
      "arran": 9010,
      "décret": 9011,
      "verser": 9012,
      "Astrid": 9013,
      "introduites": 9014,
      "holm": 9015,
      "Haye": 9016,
      "rat": 9017,
      "producteur": 9018,
      "qualification": 9019,
      "massive": 9020,
      "mantèlement": 9021,
      "rets": 9022,
      "rencontr": 9023,
      "Angel": 9024,
      "bains": 9025,
      "garet": 9026,
      "slovaque": 9027,
      "PD": 9028,
      "Ses": 9029,
      "annuelles": 9030,
      "ene": 9031,
      "connexes": 9032,
      "virements": 9033,
      "comparaison": 9034,
      "majeures": 9035,
      "tanti": 9036,
      "respectives": 9037,
      "phère": 9038,
      "Ramos": 9039,
      "Pla": 9040,
      "crée": 9041,
      "sexes": 9042,
      "istre": 9043,
      "CECA": 9044,
      "devaient": 9045,
      "Meij": 9046,
      "CCIN": 9047,
      "législateur": 9048,
      "scolaire": 9049,
      "message": 9050,
      "SUCCIN": 9051,
      "efs": 9052,
      "assassin": 9053,
      "solide": 9054,
      "habitats": 9055,
      "soup": 9056,
      "nette": 9057,
      "Rübig": 9058,
      "Salle": 9059,
      "récol": 9060,
      "carrière": 9061,
      "Meijer": 9062,
      "limitées": 9063,
      "législature": 9064,
      "biocides": 9065,
      "aéronefs": 9066,
      "Jacques": 9067,
      "éventail": 9068,
      "territoriales": 9069,
      "ledit": 9070,
      "EURO": 9071,
      "résidents": 9072,
      "adhérer": 9073,
      "AES": 9074,
      "egra": 9075,
      "ardo": 9076,
      "qualifiés": 9077,
      "obtenues": 9078,
      "Crédits": 9079,
      "médicale": 9080,
      "anniversaire": 9081,
      "Consuegra": 9082,
      "établissent": 9083,
      "relevé": 9084,
      "enseignants": 9085,
      "apparition": 9086,
      "stic": 9087,
      "formés": 9088,
      "souhaiter": 9089,
      "traduire": 9090,
      "Application": 9091,
      "SUCCINCTE": 9092,
      "compétitive": 9093,
      "situé": 9094,
      "thématique": 9095,
      "touchant": 9096,
      "218": 9097,
      "adoptant": 9098,
      "textile": 9099,
      "virus": 9100,
      "interrom": 9101,
      "onstanti": 9102,
      "cohérent": 9103,
      "illégal": 9104,
      "inquiète": 9105,
      "exprimées": 9106,
      "absolue": 9107,
      "Cô": 9108,
      "ctées": 9109,
      "laisse": 9110,
      "autorisant": 9111,
      "transparent": 9112,
      "protocoles": 9113,
      "Action": 9114,
      "Bend": 9115,
      "alablement": 9116,
      "suppose": 9117,
      "traçabilité": 9118,
      "démographique": 9119,
      "PCP": 9120,
      "allocation": 9121,
      "Sophi": 9122,
      "trées": 9123,
      "eni": 9124,
      "présentes": 9125,
      "respectifs": 9126,
      "proportionnées": 9127,
      "RULE": 9128,
      "doné": 9129,
      "déclarée": 9130,
      "gare": 9131,
      "...)": 9132,
      "confidentielles": 9133,
      "Matsakis": 9134,
      "Sophia": 9135,
      "Vis": 9136,
      "complété": 9137,
      "athali": 9138,
      "rell": 9139,
      "ordin": 9140,
      "origin": 9141,
      "ambassa": 9142,
      "ctique": 9143,
      "entamer": 9144,
      "bag": 9145,
      "Frédé": 9146,
      "armées": 9147,
      "saisi": 9148,
      "FSE": 9149,
      "gin": 9150,
      "has": 9151,
      "pondé": 9152,
      "para": 9153,
      "ieux": 9154,
      "superfi": 9155,
      "éthique": 9156,
      "Ole": 9157,
      "niew": 9158,
      "Madrid": 9159,
      "époque": 9160,
      "SEN": 9161,
      "démantèlement": 9162,
      "coopéra": 9163,
      "113": 9164,
      "occurrence": 9165,
      "Pilar": 9166,
      "apparaître": 9167,
      "nalités": 9168,
      "compromettre": 9169,
      "[...": 9170,
      "Anders": 9171,
      "probablement": 9172,
      "Nicole": 9173,
      "Marios": 9174,
      "bb": 9175,
      "proches": 9176,
      "éligibilité": 9177,
      "Ges": 9178,
      "Mex": 9179,
      "ony": 9180,
      "géré": 9181,
      "définissant": 9182,
      "hardt": 9183,
      "%)": 9184,
      "ero": 9185,
      "équipe": 9186,
      "espé": 9187,
      "fonder": 9188,
      "Masi": 9189,
      "contrôleur": 9190,
      "Actions": 9191,
      "Konstanti": 9192,
      "gor": 9193,
      "collectivités": 9194,
      "rejets": 9195,
[...]
