{
  "version": "1.0",
  "truncation": null,
  "padding": null,
  "added_tokens": [
    {
      "id": 0,
      "content": "[UNK]",
      "single_word": false,
      "lstrip": false,
      "rstrip": false,
      "normalized": false,
      "special": true
    },
    {
      "id": 1,
      "content": "[PAD]",
      "single_word": false,
      "lstrip": false,
      "rstrip": false,
      "normalized": false,
      "special": true
    },
    {
      "id": 2,
      "content": "[BOS]",
      "single_word": false,
      "lstrip": false,
      "rstrip": false,
      "normalized": false,
      "special": true
    },
    {
      "id": 3,
      "content": "[EOS]",
      "single_word": false,
      "lstrip": false,
      "rstrip": false,
      "normalized": false,
      "special": true
    }
  ],
  "normalizer": null,
  "pre_tokenizer": {
    "type": "Whitespace"
  },
  "post_processor": null,
  "decoder": null,
  "model": {
    "type": "BPE",
    "dropout": null,
    "unk_token": "[UNK]",
    "continuing_subword_prefix": null,
    "end_of_word_suffix": null,
    "fuse_unk": false,
    "byte_fallback": false,
    "ignore_merges": false,
    "vocab": {
      "[UNK]": 0,
      "[PAD]": 1,
      "[BOS]": 2,
      "[EOS]": 3,
      "!": 4,
      "\"": 5,
      "#": 6,
      "$": 7,
      "%": 8,
      "&": 9,
      "'": 10,
      "(": 11,
      ")": 12,
      "*": 13,
      "+": 14,
      ",": 15,
      "-": 16,
      ".": 17,
      "/": 18,
      "0": 19,
      "1": 20,
      "2": 21,
      "3": 22,
      "4": 23,
      "5": 24,
      "6": 25,
      "7": 26,
      "8": 27,
      "9": 28,
      ":": 29,
      ";": 30,
      "<": 31,
      "=": 32,
      ">": 33,
      "?": 34,
      "@": 35,
      "A": 36,
      "B": 37,
      "C": 38,
      "D": 39,
      "E": 40,
      "F": 41,
      "G": 42,
      "H": 43,
      "I": 44,
      "J": 45,
      "K": 46,
      "L": 47,
      "M": 48,
      "N": 49,
      "O": 50,
      "P": 51,
      "Q": 52,
      "R": 53,
      "S": 54,
      "T": 55,
      "U": 56,
      "V": 57,
      "W": 58,
      "X": 59,
      "Y": 60,
      "Z": 61,
      "[": 62,
      "]": 63,
      "_": 64,
      "`": 65,
      "a": 66,
      "b": 67,
      "c": 68,
      "d": 69,
      "e": 70,
      "f": 71,
      "g": 72,
      "h": 73,
      "i": 74,
      "j": 75,
      "k": 76,
      "l": 77,
      "m": 78,
      "n": 79,
      "o": 80,
      "p": 81,
      "q": 82,
      "r": 83,
      "s": 84,
      "t": 85,
      "u": 86,
      "v": 87,
      "w": 88,
      "x": 89,
      "y": 90,
      "z": 91,
      "{": 92,
      "}": 93,
      "£": 94,
      "§": 95,
      "©": 96,
      "«": 97,
      "­": 98,
      "°": 99,
      "±": 100,
      "²": 101,
      "´": 102,
      "µ": 103,
      "·": 104,
      "º": 105,
      "»": 106,
      "¼": 107,
      "À": 108,
      "Á": 109,
      "Ã": 110,
      "Ä": 111,
      "Å": 112,
      "Æ": 113,
      "Ç": 114,
      "È": 115,
      "É": 116,
      "Ê": 117,
      "Í": 118,
      "Ï": 119,
      "Ñ": 120,
      "Ò": 121,
      "Ó": 122,
      "Ö": 123,
      "×": 124,
      "Ø": 125,
      "Ú": 126,
      "Ü": 127,
      "ß": 128,
      "à": 129,
      "á": 130,
      "â": 131,
      "ã": 132,
      "ä": 133,
      "å": 134,
      "æ": 135,
      "ç": 136,
      "è": 137,
      "é": 138,
      "ê": 139,
      "ë": 140,
      "í": 141,
      "î": 142,
      "ï": 143,
      "ñ": 144,
      "ò": 145,
      "ó": 146,
      "ô": 147,
      "ö": 148,
      "ø": 149,
      "ù": 150,
      "ú": 151,
      "û": 152,
      "ü": 153,
      "ý": 154,
      "ā": 155,
      "ă": 156,
      "ą": 157,
      "ć": 158,
      "Č": 159,
      "č": 160,
      "Đ": 161,
      "Ė": 162,
      "ė": 163,
      "ę": 164,
      "ě": 165,
      "ğ": 166,
      "Ģ": 167,
      "ī": 168,
      "ı": 169,
      "ľ": 170,
      "Ł": 171,
      "ł": 172,
      "Ń": 173,
      "ń": 174,
      "Ň": 175,
      "ň": 176,
      "Ő": 177,
      "ő": 178,
      "ř": 179,
      "Ś": 180,
      "ś": 181,
      "Ş": 182,
      "ş": 183,
      "Š": 184,
      "š": 185,
      "Ţ": 186,
      "ţ": 187,
      "ť": 188,
      "ū": 189,
      "ź": 190,
      "Ż": 191,
      "ż": 192,
      "Ž": 193,
      "ž": 194,
      "ǎ": 195,
      "ș": 196,
      "ț": 197,
      "Ί": 198,
      "Α": 199,
      "Ε": 200,
      "Θ": 201,
      "Τ": 202,
      "έ": 203,
      "ί": 204,
      "α": 205,
      "β": 206,
      "γ": 207,
      "δ": 208,
      "ε": 209,
      "η": 210,
      "ι": 211,
      "λ": 212,
      "μ": 213,
      "ν": 214,
      "ο": 215,
      "π": 216,
      "ρ": 217,
      "ς": 218,
      "σ": 219,
      "τ": 220,
      "υ": 221,
      "ό": 222,
      "ώ": 223,
      "ả": 224,
      "ộ": 225,
      "‐": 226,
      "‑": 227,
      "–": 228,
      "—": 229,
      "‘": 230,
      "’": 231,
      "“": 232,
      "”": 233,
      "•": 234,
      "…": 235,
      "€": 236,
      "−": 237,
      "∙": 238,
      "≤": 239,
      "║": 240,
      "█": 241,
      "▌": 242,
      "▐": 243,
      "□": 244,
      "▪": 245,
      "●": 246,
      "◙": 247,
      "": 248,
      "": 249,
      "": 250,
      "": 251,
      "th": 252,
      "on": 253,
      "in": 254,
      "the": 255,
      "an": 256,
      "re": 257,
      "ti": 258,
      "en": 259,
      "er": 260,
      "or": 261,
      "of": 262,
      "al": 263,
      "es": 264,
      "is": 265,
      "tion": 266,
      "at": 267,
      "to": 268,
      "ar": 269,
      "and": 270,
      "ro": 271,
      "ed": 272,
      "ing": 273,
      "ent": 274,
      "it": 275,
      "as": 276,
      "ic": 277,
      "om": 278,
      "le": 279,
      "ation": 280,
      "ou": 281,
      "ec": 282,
      "ment": 283,
      "for": 284,
      "si": 285,
      "st": 286,
      "pro": 287,
      "ve": 288,
      "ac": 289,
      "il": 290,
      "be": 291,
      "su": 292,
      "de": 293,
      "omm": 294,
      "he": 295,
      "con": 296,
      "20": 297,
      "ra": 298,
      "un": 299,
      "res": 300,
      "po": 301,
      "li": 302,
      "pe": 303,
      "ce": 304,
      "all": 305,
      "se": 306,
      "ri": 307,
      "Comm": 308,
      "em": 309,
      "ul": 310,
      "sion": 311,
      "ts": 312,
      "that": 313,
      "ter": 314,
      "wi": 315,
      "op": 316,
      "ur": 317,
      "oun": 318,
      "me": 319,
      "with": 320,
      "tic": 321,
      "ity": 322,
      "ly": 323,
      "200": 324,
      "ate": 325,
      "te": 326,
      "ag": 327,
      "sh": 328,
      "by": 329,
      "ir": 330,
      "uro": 331,
      "ab": 332,
      "ch": 333,
      "ad": 334,
      "ber": 335,
      "ol": 336,
      "Euro": 337,
      "ission": 338,
      "wh": 339,
      "por": 340,
      "are": 341,
      "Europe": 342,
      "im": 343,
      "ex": 344,
      "ion": 345,
      "ci": 346,
      "Commission": 347,
      "no": 348,
      "der": 349,
      "di": 350,
      "ver": 351,
      "par": 352,
      "gh": 353,
      "European": 354,
      "ld": 355,
      "tive": 356,
      "et": 357,
      "The": 358,
      "ap": 359,
      "ember": 360,
      "vi": 361,
      "pl": 362,
      "com": 363,
      "qu": 364,
      "St": 365,
      "reg": 366,
      "ta": 367,
      "port": 368,
      "du": 369,
      "ess": 370,
      "mo": 371,
      "ma": 372,
      "ne": 373,
      "ard": 374,
      "ect": 375,
      "ha": 376,
      "us": 377,
      "rec": 378,
      "we": 379,
      "tr": 380,
      "so": 381,
      "end": 382,
      "ould": 383,
      "EU": 384,
      "ich": 385,
      "ates": 386,
      "ff": 387,
      "which": 388,
      "lo": 389,
      "ther": 390,
      "Member": 391,
      "ers": 392,
      "not": 393,
      "ud": 394,
      "am": 395,
      "its": 396,
      "man": 397,
      "co": 398,
      "this": 399,
      "ations": 400,
      "tu": 401,
      "ties": 402,
      "pos": 403,
      "lic": 404,
      "ay": 405,
      "cil": 406,
      "ary": 407,
      "ament": 408,
      "ans": 409,
      "Coun": 410,
      "Council": 411,
      "In": 412,
      "tions": 413,
      "ance": 414,
      "ted": 415,
      "vel": 416,
      "ub": 417,
      "id": 418,
      "ke": 419,
      "..": 420,
      "cl": 421,
      "Par": 422,
      "coun": 423,
      "whe": 424,
      "reas": 425,
      "form": 426,
      "States": 427,
      "liament": 428,
      "wor": 429,
      "ge": 430,
      "rom": 431,
      "our": 432,
      "Ar": 433,
      "ments": 434,
      "ill": 435,
      "str": 436,
      "from": 437,
      "red": 438,
      "ist": 439,
      "duc": 440,
      "has": 441,
      "Artic": 442,
      "ational": 443,
      "au": 444,
      "pr": 445,
      "ren": 446,
      "est": 447,
      "out": 448,
      "Parliament": 449,
      "up": 450,
      "ish": 451,
      "able": 452,
      "Re": 453,
      "fin": 454,
      "fic": 455,
      "shall": 456,
      "per": 457,
      "ple": 458,
      "cial": 459,
      "should": 460,
      "ision": 461,
      "Article": 462,
      "comm": 463,
      "od": 464,
      "ant": 465,
      "ving": 466,
      "work": 467,
      "int": 468,
      "la": 469,
      "ree": 470,
      "have": 471,
      "do": 472,
      "min": 473,
      "leg": 474,
      "ated": 475,
      "ear": 476,
      "go": 477,
      "sp": 478,
      "regard": 479,
      "00": 480,
      "national": 481,
      "ven": 482,
      "fo": 483,
      "201": 484,
      "tri": 485,
      "ves": 486,
      "Un": 487,
      "cer": 488,
      "acc": 489,
      "EC": 490,
      "will": 491,
      "their": 492,
      "um": 493,
      "pres": 494,
      "ble": 495,
      "igh": 496,
      "und": 497,
      "ies": 498,
      "tee": 499,
      "sub": 500,
      "gn": 501,
      "dis": 502,
      "velop": 503,
      "age": 504,
      "mar": 505,
      "inter": 506,
      "ures": 507,
      "ities": 508,
      "under": 509,
      "ser": 510,
      "ut": 511,
      "ject": 512,
      "pre": 513,
      "thor": 514,
      "act": 515,
      "new": 516,
      "ob": 517,
      "gen": 518,
      "other": 519,
      "ach": 520,
      "ain": 521,
      "propos": 522,
      "ces": 523,
      "ll": 524,
      "ord": 525,
      "ph": 526,
      "proc": 527,
      "fe": 528,
      "ittee": 529,
      "sa": 530,
      "ure": 531,
      "oper": 532,
      "),": 533,
      "ow": 534,
      "whereas": 535,
      "resp": 536,
      "enti": 537,
      "ulation": 538,
      "pri": 539,
      "dec": 540,
      "gra": 541,
      "ia": 542,
      "ip": 543,
      "develop": 544,
      "sti": 545,
      "partic": 546,
      "ally": 547,
      "author": 548,
      "ust": 549,
      "produc": 550,
      "uc": 551,
      "bet": 552,
      "tec": 553,
      "pub": 554,
      "fi": 555,
      "gy": 556,
      "AA": 557,
      "provi": 558,
      "righ": 559,
      "unity": 560,
      "tra": 561,
      "requ": 562,
      "reat": 563,
      "ence": 564,
      "ting": 565,
      "ass": 566,
      "trans": 567,
      "any": 568,
      "comp": 569,
      "ular": 570,
      "meas": 571,
      "sup": 572,
      "EP": 573,
      "there": 574,
      "ous": 575,
      "been": 576,
      "gu": 577,
      "was": 578,
      "plement": 579,
      "vic": 580,
      "EN": 581,
      "Union": 582,
      "rective": 583,
      "king": 584,
      "order": 585,
      "ility": 586,
      "ES": 587,
      "incl": 588,
      "such": 589,
      "one": 590,
      "inform": 591,
      "Con": 592,
      "eci": 593,
      "econ": 594,
      "appro": 595,
      "having": 596,
      "Di": 597,
      "lin": 598,
      "finan": 599,
      "ution": 600,
      "19": 601,
      "over": 602,
      "also": 603,
      "ensu": 604,
      "public": 605,
      "tries": 606,
      "el": 607,
      "more": 608,
      "polic": 609,
      "....": 610,
      "countries": 611,
      "Committee": 612,
      "cont": 613,
      "ew": 614,
      "bas": 615,
      "Reg": 616,
      "low": 617,
      "measures": 618,
      "ten": 619,
      "ween": 620,
      "between": 621,
      "ture": 622,
      "ating": 623,
      "cern": 624,
      "sy": 625,
      "eff": 626,
      "tain": 627,
      "cy": 628,
      "report": 629,
      "Community": 630,
      "uman": 631,
      "concern": 632,
      "gr": 633,
      "rel": 634,
      "gram": 635,
      "air": 636,
      "stem": 637,
      "proposal": 638,
      "adop": 639,
      "mark": 640,
      "lec": 641,
      "alls": 642,
      "year": 643,
      "ms": 644,
      "abl": 645,
      "implement": 646,
      "No": 647,
      "Th": 648,
      "//": 649,
      "stitu": 650,
      "particular": 651,
      "ong": 652,
      "fore": 653,
      "ON": 654,
      "ors": 655,
      "part": 656,
      "inc": 657,
      "view": 658,
      "need": 659,
      "mon": 660,
      "gi": 661,
      "can": 662,
      "into": 663,
      "rights": 664,
      "sid": 665,
      "vision": 666,
      "use": 667,
      "system": 668,
      "An": 669,
      "information": 670,
      "ress": 671,
      "ical": 672,
      "mit": 673,
      "fer": 674,
      "ris": 675,
      "TI": 676,
      "ory": 677,
      "Sub": 678,
      "agra": 679,
      "get": 680,
      "speci": 681,
      "jec": 682,
      "Directive": 683,
      "agraph": 684,
      "val": 685,
      "present": 686,
      "econom": 687,
      "rit": 688,
      "ose": 689,
      "financial": 690,
      "ari": 691,
      "ace": 692,
      "paragraph": 693,
      "ural": 694,
      "would": 695,
      "med": 696,
      "vo": 697,
      "program": 698,
      "ensure": 699,
      "cas": 700,
      "ved": 701,
      "fund": 702,
      "Subject": 703,
      "IT": 704,
      "gro": 705,
      "inte": 706,
      "bo": 707,
      "market": 708,
      "human": 709,
      "10": 710,
      "sul": 711,
      "includ": 712,
      "ty": 713,
      "sible": 714,
      "sec": 715,
      "take": 716,
      "agree": 717,
      "It": 718,
      "requi": 719,
      "Pro": 720,
      "ding": 721,
      "ks": 722,
      "ast": 723,
      "plic": 724,
      "inv": 725,
      "servic": 726,
      "ful": 727,
      "may": 728,
      "law": 729,
      "vir": 730,
      "alth": 731,
      "tives": 732,
      "must": 733,
      "ised": 734,
      "resid": 735,
      "tical": 736,
      "State": 737,
      "compe": 738,
      "rent": 739,
      "ann": 740,
      "consi": 741,
      "set": 742,
      "decision": 743,
      "ablish": 744,
      "ges": 745,
      "nec": 746,
      "plo": 747,
      "these": 748,
      "onment": 749,
      "cri": 750,
      "Regulation": 751,
      "establish": 752,
      "2010": 753,
      "olution": 754,
      "operation": 755,
      "ep": 756,
      "qual": 757,
      "level": 758,
      "ail": 759,
      "accord": 760,
      "ener": 761,
      "vironment": 762,
      "sit": 763,
      "TION": 764,
      "ollow": 765,
      "iti": 766,
      "des": 767,
      "pers": 768,
      "proced": 769,
      "support": 770,
      "development": 771,
      "CO": 772,
      "gan": 773,
      "ise": 774,
      "acti": 775,
      "pur": 776,
      "dra": 777,
      "they": 778,
      "isation": 779,
      "ded": 780,
      "ome": 781,
      "legis": 782,
      "ial": 783,
      "fir": 784,
      "ater": 785,
      "ules": 786,
      "chan": 787,
      "region": 788,
      "respon": 789,
      "ack": 790,
      "ative": 791,
      "hn": 792,
      "policy": 793,
      "sum": 794,
      "Wh": 795,
      "bud": 796,
      "2007": 797,
      "follow": 798,
      "wn": 799,
      "ens": 800,
      "but": 801,
      "tection": 802,
      "ef": 803,
      "ine": 804,
      "2006": 805,
      "ran": 806,
      "within": 807,
      "authorities": 808,
      "ner": 809,
      "provision": 810,
      "economic": 811,
      "Dec": 812,
      "car": 813,
      "tional": 814,
      "av": 815,
      "Ch": 816,
      "if": 817,
      "ffic": 818,
      "again": 819,
      "ards": 820,
      "ues": 821,
      "ety": 822,
      "app": 823,
      "applic": 824,
      "import": 825,
      "QU": 826,
      "2008": 827,
      "time": 828,
      "legal": 829,
      "including": 830,
      "Presid": 831,
      "vern": 832,
      "amend": 833,
      "12": 834,
      "govern": 835,
      "those": 836,
      "cur": 837,
      "effec": 838,
      "increas": 839,
      "rest": 840,
      "ign": 841,
      "QUES": 842,
      "accoun": 843,
      "QUESTION": 844,
      "nal": 845,
      "where": 846,
      "ship": 847,
      "than": 848,
      "ploy": 849,
      "stand": 850,
      "tak": 851,
      "Mar": 852,
      "ru": 853,
      "AAAA": 854,
      "15": 855,
      "fu": 856,
      "uation": 857,
      "urity": 858,
      "international": 859,
      "vis": 860,
      "social": 861,
      "made": 862,
      "ugh": 863,
      "2011": 864,
      "environment": 865,
      "main": 866,
      "peri": 867,
      "posi": 868,
      "consider": 869,
      "necess": 870,
      "person": 871,
      "This": 872,
      "oc": 873,
      "who": 874,
      ").": 875,
      "against": 876,
      "organ": 877,
      "resolution": 878,
      "way": 879,
      "reaty": 880,
      "only": 881,
      "rough": 882,
      "health": 883,
      "appropri": 884,
      "ability": 885,
      "try": 886,
      "fra": 887,
      "techn": 888,
      "mes": 889,
      "adopted": 890,
      "budget": 891,
      "lear": 892,
      "issu": 893,
      "wer": 894,
      "inci": 895,
      "protection": 896,
      "rules": 897,
      "mil": 898,
      "af": 899,
      "2009": 900,
      "used": 901,
      "process": 902,
      "institu": 903,
      "action": 904,
      "30": 905,
      "cal": 906,
      "TEN": 907,
      "199": 908,
      "implementation": 909,
      "services": 910,
      "Am": 911,
      "does": 912,
      "II": 913,
      "Treaty": 914,
      "fied": 915,
      "sel": 916,
      "fr": 917,
      "sect": 918,
      "2003": 919,
      "high": 920,
      "les": 921,
      "necessary": 922,
      "2005": 923,
      "pend": 924,
      "2002": 925,
      "poli": 926,
      "elec": 927,
      "lar": 928,
      "fac": 929,
      "mework": 930,
      "struc": 931,
      "point": 932,
      "soci": 933,
      "olo": 934,
      "condi": 935,
      "bility": 936,
      "unic": 937,
      "nex": 938,
      "specific": 939,
      "As": 940,
      "ue": 941,
      "ult": 942,
      "RIT": 943,
      "products": 944,
      "ople": 945,
      "were": 946,
      "read": 947,
      "taken": 948,
      "WRIT": 949,
      "ents": 950,
      "2004": 951,
      "WRITTEN": 952,
      "gener": 953,
      "16": 954,
      "ual": 955,
      "aff": 956,
      "accordance": 957,
      "cooperation": 958,
      "cre": 959,
      "promo": 960,
      "ential": 961,
      "employ": 962,
      "sign": 963,
      "TA": 964,
      "being": 965,
      "ferred": 966,
      "urther": 967,
      "........": 968,
      "ced": 969,
      "energy": 970,
      "respect": 971,
      "bu": 972,
      "ind": 973,
      "aim": 974,
      "rect": 975,
      "ession": 976,
      "Is": 977,
      "meet": 978,
      "day": 979,
      "18": 980,
      "ata": 981,
      "objec": 982,
      "princi": 983,
      "possible": 984,
      "through": 985,
      "earch": 986,
      "political": 987,
      "13": 988,
      "people": 989,
      "reed": 990,
      "require": 991,
      "aid": 992,
      "agreement": 993,
      "following": 994,
      "num": 995,
      "cus": 996,
      "account": 997,
      "bi": 998,
      "programme": 999,
      "resul": 1000,
      "impro": 1001,
      "President": 1002,
      "Ac": 1003,
      "bal": 1004,
      "ports": 1005,
      "appropriate": 1006,
      "country": 1007,
      "cep": 1008,
      "access": 1009,
      "current": 1010,
      "now": 1011,
      "feren": 1012,
      "when": 1013,
      "state": 1014,
      "ide": 1015,
      "entr": 1016,
      "17": 1017,
      "tw": 1018,
      "years": 1019,
      "lation": 1020,
      "TE": 1021,
      "Inter": 1022,
      "provisions": 1023,
      "ird": 1024,
      "omen": 1025,
      "basis": 1026,
      "COM": 1027,
      "provide": 1028,
      "well": 1029,
      "data": 1030,
      "vention": 1031,
      "Calls": 1032,
      "fact": 1033,
      "ft": 1034,
      "What": 1035,
      "De": 1036,
      "calls": 1037,
      "25": 1038,
      "aw": 1039,
      "land": 1040,
      "make": 1041,
      "agement": 1042,
      "provided": 1043,
      "very": 1044,
      "security": 1045,
      "hol": 1046,
      "referred": 1047,
      "down": 1048,
      "number": 1049,
      "col": 1050,
      "consum": 1051,
      "imp": 1052,
      "member": 1053,
      "2001": 1054,
      "most": 1055,
      "rele": 1056,
      "MEP": 1057,
      "period": 1058,
      "vant": 1059,
      "position": 1060,
      "them": 1061,
      "sur": 1062,
      "commit": 1063,
      "ism": 1064,
      "ss": 1065,
      "ati": 1066,
      "ho": 1067,
      "uring": 1068,
      "ques": 1069,
      "sector": 1070,
      "contin": 1071,
      "first": 1072,
      "als": 1073,
      "strate": 1074,
      "conditions": 1075,
      "had": 1076,
      "taking": 1077,
      "11": 1078,
      "fish": 1079,
      "ian": 1080,
      "clu": 1081,
      "procedure": 1082,
      "ie": 1083,
      "led": 1084,
      "case": 1085,
      "common": 1086,
      "situation": 1087,
      "ak": 1088,
      "initi": 1089,
      "cost": 1090,
      "trade": 1091,
      "usti": 1092,
      "force": 1093,
      "what": 1094,
      "wever": 1095,
      "could": 1096,
      "long": 1097,
      "rol": 1098,
      "ters": 1099,
      "Annex": 1100,
      "interest": 1101,
      "fication": 1102,
      "quality": 1103,
      "tex": 1104,
      "Ag": 1105,
      "further": 1106,
      "non": 1107,
      "deb": 1108,
      "char": 1109,
      "14": 1110,
      "pay": 1111,
      "line": 1112,
      "after": 1113,
      "tiz": 1114,
      "therefore": 1115,
      "tes": 1116,
      "exist": 1117,
      "ources": 1118,
      "sive": 1119,
      "citiz": 1120,
      "vent": 1121,
      "stan": 1122,
      "ency": 1123,
      "concerning": 1124,
      "framework": 1125,
      "two": 1126,
      "Ques": 1127,
      "ince": 1128,
      "ants": 1129,
      "fy": 1130,
      "tent": 1131,
      "AL": 1132,
      "ild": 1133,
      "oura": 1134,
      "change": 1135,
      "MEPs": 1136,
      "legislation": 1137,
      "ings": 1138,
      "based": 1139,
      "transport": 1140,
      "depend": 1141,
      "effective": 1142,
      "lion": 1143,
      "ders": 1144,
      "avail": 1145,
      "03": 1146,
      "far": 1147,
      "third": 1148,
      "represent": 1149,
      "means": 1150,
      "concerned": 1151,
      "assess": 1152,
      "competi": 1153,
      "Question": 1154,
      "dies": 1155,
      "vities": 1156,
      "goti": 1157,
      "aren": 1158,
      "place": 1159,
      "lines": 1160,
      "invol": 1161,
      "ice": 1162,
      "allow": 1163,
      "2000": 1164,
      "ultural": 1165,
      "research": 1166,
      "indu": 1167,
      "management": 1168,
      "some": 1169,
      "Amend": 1170,
      "about": 1171,
      "food": 1172,
      "cap": 1173,
      "bec": 1174,
      "net": 1175,
      "areas": 1176,
      "clo": 1177,
      "answer": 1178,
      "contri": 1179,
      "area": 1180,
      "Sec": 1181,
      "negoti": 1182,
      "activities": 1183,
      "demo": 1184,
      "call": 1185,
      "vil": 1186,
      "whether": 1187,
      "02": 1188,
      "atory": 1189,
      "airs": 1190,
      "ban": 1191,
      "He": 1192,
      "IN": 1193,
      "ile": 1194,
      "contr": 1195,
      "ring": 1196,
      "ritten": 1197,
      "05": 1198,
      "UN": 1199,
      "Co": 1200,
      "less": 1201,
      "ourt": 1202,
      "ient": 1203,
      "gency": 1204,
      "ited": 1205,
      "intend": 1206,
      "exam": 1207,
      "ference": 1208,
      "then": 1209,
      "pursu": 1210,
      "certain": 1211,
      "inclu": 1212,
      "right": 1213,
      "lead": 1214,
      "rap": 1215,
      "Do": 1216,
      "vers": 1217,
      "regul": 1218,
      "stru": 1219,
      "clear": 1220,
      "ight": 1221,
      "assist": 1222,
      "both": 1223,
      "text": 1224,
      "future": 1225,
      "crimin": 1226,
      "road": 1227,
      "integr": 1228,
      "available": 1229,
      "ret": 1230,
      "role": 1231,
      "itor": 1232,
      "ffe": 1233,
      "group": 1234,
      "bil": 1235,
      "men": 1236,
      "regulation": 1237,
      "gin": 1238,
      "hal": 1239,
      "porte": 1240,
      "citizens": 1241,
      "women": 1242,
      "ordin": 1243,
      "given": 1244,
      "many": 1245,
      "ights": 1246,
      "democ": 1247,
      "porteur": 1248,
      "inion": 1249,
      "proble": 1250,
      "lative": 1251,
      "general": 1252,
      "atives": 1253,
      "ital": 1254,
      "defin": 1255,
      "prior": 1256,
      "che": 1257,
      "ogn": 1258,
      "press": 1259,
      "achie": 1260,
      "os": 1261,
      "ric": 1262,
      "Rights": 1263,
      "cor": 1264,
      "Fund": 1265,
      "saf": 1266,
      "application": 1267,
      "Agree": 1268,
      "conf": 1269,
      "subject": 1270,
      "jects": 1271,
      "institutions": 1272,
      "ound": 1273,
      "impact": 1274,
      "good": 1275,
      "Sp": 1276,
      "aran": 1277,
      "opinion": 1278,
      "intro": 1279,
      "Amendment": 1280,
      "addi": 1281,
      "safety": 1282,
      "lig": 1283,
      "control": 1284,
      "EUR": 1285,
      "each": 1286,
      "apply": 1287,
      "ben": 1288,
      "clusion": 1289,
      "ght": 1290,
      "Str": 1291,
      "mi": 1292,
      "communic": 1293,
      "written": 1294,
      "22": 1295,
      "Mr": 1296,
      "reedom": 1297,
      "offic": 1298,
      "without": 1299,
      "une": 1300,
      "exp": 1301,
      "olog": 1302,
      "December": 1303,
      "lan": 1304,
      "direct": 1305,
      "relevant": 1306,
      "ommend": 1307,
      "invest": 1308,
      "ML": 1309,
      "mat": 1310,
      "TEX": 1311,
      "Aff": 1312,
      "ected": 1313,
      "pose": 1314,
      "key": 1315,
      "cons": 1316,
      "environmental": 1317,
      "TEXT": 1318,
      "programmes": 1319,
      "Agreement": 1320,
      "risk": 1321,
      "Affairs": 1322,
      "04": 1323,
      "DE": 1324,
      "requirements": 1325,
      "-//": 1326,
      "V0": 1327,
      "XML": 1328,
      "jud": 1329,
      "diffe": 1330,
      "overn": 1331,
      "28": 1332,
      "reduc": 1333,
      "AAAAAAAA": 1334,
      "cu": 1335,
      "stry": 1336,
      "important": 1337,
      "Govern": 1338,
      "nat": 1339,
      "ys": 1340,
      "recogn": 1341,
      "policies": 1342,
      "child": 1343,
      "comes": 1344,
      "cing": 1345,
      "lim": 1346,
      "Gro": 1347,
      "Pol": 1348,
      "mber": 1349,
      "mand": 1350,
      "projects": 1351,
      "own": 1352,
      "ause": 1353,
      "employment": 1354,
      "tal": 1355,
      "En": 1356,
      "resources": 1357,
      "jor": 1358,
      "same": 1359,
      "supp": 1360,
      "06": 1361,
      "ises": 1362,
      "sibility": 1363,
      "half": 1364,
      "OC": 1365,
      "proposed": 1366,
      "border": 1367,
      "instru": 1368,
      "funding": 1369,
      "standards": 1370,
      "systems": 1371,
      "09": 1372,
      "har": 1373,
      "ific": 1374,
      "ger": 1375,
      "ech": 1376,
      "major": 1377,
      "ining": 1378,
      "vement": 1379,
      "viol": 1380,
      "Does": 1381,
      "particip": 1382,
      "ising": 1383,
      "eld": 1384,
      "stain": 1385,
      "jo": 1386,
      "lobal": 1387,
      "Court": 1388,
      "If": 1389,
      "ward": 1390,
      "prof": 1391,
      "Fin": 1392,
      "coura": 1393,
      "ase": 1394,
      "consul": 1395,
      "directive": 1396,
      "committee": 1397,
      "legislative": 1398,
      "sustain": 1399,
      "open": 1400,
      "recent": 1401,
      "admin": 1402,
      "indic": 1403,
      "submit": 1404,
      "guaran": 1405,
      "increase": 1406,
      "since": 1407,
      "infr": 1408,
      "government": 1409,
      "acts": 1410,
      "see": 1411,
      "regional": 1412,
      "production": 1413,
      "ross": 1414,
      "term": 1415,
      "Report": 1416,
      "field": 1417,
      "poin": 1418,
      "annual": 1419,
      "objectives": 1420,
      "ite": 1421,
      "procedures": 1422,
      "ore": 1423,
      "anim": 1424,
      "equ": 1425,
      "reason": 1426,
      "Jan": 1427,
      "substan": 1428,
      "existing": 1429,
      "24": 1430,
      "his": 1431,
      "mp": 1432,
      "March": 1433,
      "during": 1434,
      "gress": 1435,
      "duce": 1436,
      "sing": 1437,
      "tar": 1438,
      "acy": 1439,
      "ples": 1440,
      "put": 1441,
      "May": 1442,
      "include": 1443,
      "ori": 1444,
      "before": 1445,
      "come": 1446,
      "competent": 1447,
      "23": 1448,
      "June": 1449,
      "effor": 1450,
      "paren": 1451,
      "limit": 1452,
      "local": 1453,
      "euro": 1454,
      "add": 1455,
      "carri": 1456,
      "Ex": 1457,
      "Oc": 1458,
      "tax": 1459,
      "000": 1460,
      "monitor": 1461,
      "For": 1462,
      "ustice": 1463,
      "actions": 1464,
      "Convention": 1465,
      "amental": 1466,
      "authority": 1467,
      "ready": 1468,
      "freedom": 1469,
      "unc": 1470,
      "emp": 1471,
      "assistance": 1472,
      "reach": 1473,
      "dist": 1474,
      "million": 1475,
      "identi": 1476,
      "27": 1477,
      "bus": 1478,
      "organis": 1479,
      "Tur": 1480,
      "educ": 1481,
      "abo": 1482,
      "large": 1483,
      "rece": 1484,
      "iness": 1485,
      "said": 1486,
      "lay": 1487,
      "compan": 1488,
      "21": 1489,
      "ese": 1490,
      "ators": 1491,
      "draft": 1492,
      "members": 1493,
      "introduc": 1494,
      "bour": 1495,
      "vation": 1496,
      "plan": 1497,
      "On": 1498,
      "step": 1499,
      "hel": 1500,
      "bon": 1501,
      "civil": 1502,
      "stric": 1503,
      "AR": 1504,
      "ulture": 1505,
      "recommend": 1506,
      "free": 1507,
      "att": 1508,
      "cases": 1509,
      "meeting": 1510,
      "ition": 1511,
      "sequ": 1512,
      "econd": 1513,
      "Government": 1514,
      "DOC": 1515,
      "tober": 1516,
      "imum": 1517,
      "October": 1518,
      "vember": 1519,
      "sure": 1520,
      "deter": 1521,
      "divi": 1522,
      "world": 1523,
      "docu": 1524,
      "November": 1525,
      "lie": 1526,
      "question": 1527,
      "So": 1528,
      "medi": 1529,
      "pursuant": 1530,
      "ry": 1531,
      "uly": 1532,
      "funds": 1533,
      "facil": 1534,
      "proper": 1535,
      "comb": 1536,
      "vote": 1537,
      "29": 1538,
      "agric": 1539,
      "full": 1540,
      "importance": 1541,
      "Min": 1542,
      "ily": 1543,
      "plac": 1544,
      "26": 1545,
      "active": 1546,
      "tern": 1547,
      "US": 1548,
      "encoura": 1549,
      "ared": 1550,
      "particularly": 1551,
      "ade": 1552,
      "forward": 1553,
      "contain": 1554,
      "gue": 1555,
      "nership": 1556,
      "OR": 1557,
      "already": 1558,
      "effic": 1559,
      "ister": 1560,
      "behalf": 1561,
      "coordin": 1562,
      "ects": 1563,
      "approach": 1564,
      "grow": 1565,
      "unities": 1566,
      "Republic": 1567,
      "Group": 1568,
      "ked": 1569,
      "amoun": 1570,
      "Au": 1571,
      "PR": 1572,
      "debate": 1573,
      "required": 1574,
      "ious": 1575,
      "comple": 1576,
      "making": 1577,
      "relating": 1578,
      "sels": 1579,
      "EEC": 1580,
      "conclusion": 1581,
      "internal": 1582,
      "oblig": 1583,
      "promote": 1584,
      "rapporteur": 1585,
      "Agency": 1586,
      "Can": 1587,
      "cris": 1588,
      "here": 1589,
      "olu": 1590,
      "independ": 1591,
      "strategy": 1592,
      "Le": 1593,
      "til": 1594,
      "tail": 1595,
      "reng": 1596,
      "working": 1597,
      "developing": 1598,
      "proposals": 1599,
      "service": 1600,
      "migr": 1601,
      "Ho": 1602,
      "resses": 1603,
      "technical": 1604,
      "Develop": 1605,
      "PE": 1606,
      "Res": 1607,
      "pen": 1608,
      "ext": 1609,
      "parliament": 1610,
      "above": 1611,
      "08": 1612,
      "principle": 1613,
      "negotiations": 1614,
      "Al": 1615,
      "improve": 1616,
      "Sep": 1617,
      "na": 1618,
      "progress": 1619,
      "needs": 1620,
      "riter": 1621,
      "design": 1622,
      "Decision": 1623,
      "Li": 1624,
      "ged": 1625,
      "reform": 1626,
      "1999": 1627,
      "costs": 1628,
      "business": 1629,
      "alo": 1630,
      "wel": 1631,
      ");": 1632,
      "Ad": 1633,
      "ED": 1634,
      "prot": 1635,
      "range": 1636,
      "water": 1637,
      "three": 1638,
      "tual": 1639,
      "recei": 1640,
      "global": 1641,
      "truc": 1642,
      "regards": 1643,
      "second": 1644,
      "uary": 1645,
      "vari": 1646,
      "prevent": 1647,
      "eb": 1648,
      "least": 1649,
      "streng": 1650,
      "agreements": 1651,
      "January": 1652,
      "Gre": 1653,
      "Rus": 1654,
      "criter": 1655,
      "mu": 1656,
      "ages": 1657,
      "07": 1658,
      "ough": 1659,
      "ratic": 1660,
      "emission": 1661,
      "persons": 1662,
      "tember": 1663,
      "principles": 1664,
      "Development": 1665,
      "great": 1666,
      "ning": 1667,
      "cept": 1668,
      "September": 1669,
      "review": 1670,
      "related": 1671,
      "Russi": 1672,
      "Rec": 1673,
      "month": 1674,
      "electr": 1675,
      "AN": 1676,
      "ca": 1677,
      "special": 1678,
      "responsible": 1679,
      "mul": 1680,
      "mission": 1681,
      "while": 1682,
      "care": 1683,
      "off": 1684,
      "benef": 1685,
      "However": 1686,
      "ref": 1687,
      "................": 1688,
      "assessment": 1689,
      "OJ": 1690,
      "light": 1691,
      "serious": 1692,
      "draw": 1693,
      "constitu": 1694,
      "regions": 1695,
      "Wor": 1696,
      "lied": 1697,
      "like": 1698,
      "training": 1699,
      "Ital": 1700,
      "dividu": 1701,
      "Mon": 1702,
      "eval": 1703,
      "prac": 1704,
      "sustainable": 1705,
      "date": 1706,
      "even": 1707,
      "ton": 1708,
      "play": 1709,
      "arian": 1710,
      "ists": 1711,
      "stri": 1712,
      "among": 1713,
      "organisations": 1714,
      "just": 1715,
      "individu": 1716,
      "eng": 1717,
      "signific": 1718,
      "wards": 1719,
      "ceed": 1720,
      "crisis": 1721,
      "rative": 1722,
      "fully": 1723,
      "different": 1724,
      "efforts": 1725,
      "ternal": 1726,
      "help": 1727,
      "context": 1728,
      "workers": 1729,
      "industry": 1730,
      "pot": 1731,
      "strengthen": 1732,
      "At": 1733,
      "terms": 1734,
      "essential": 1735,
      "inves": 1736,
      "ath": 1737,
      "lab": 1738,
      "tig": 1739,
      "enh": 1740,
      "issues": 1741,
      "say": 1742,
      "pop": 1743,
      "istrative": 1744,
      "network": 1745,
      "July": 1746,
      "bution": 1747,
      "thod": 1748,
      "tim": 1749,
      "cho": 1750,
      "entral": 1751,
      "alogue": 1752,
      "criteria": 1753,
      "ences": 1754,
      "eries": 1755,
      "iter": 1756,
      "United": 1757,
      "fail": 1758,
      "how": 1759,
      "territ": 1760,
      "laid": 1761,
      "education": 1762,
      "Apr": 1763,
      "side": 1764,
      "regarding": 1765,
      "discrimin": 1766,
      "transparen": 1767,
      "tention": 1768,
      "issue": 1769,
      "31": 1770,
      "veness": 1771,
      "origin": 1772,
      "April": 1773,
      "cent": 1774,
      "ging": 1775,
      "ina": 1776,
      "istr": 1777,
      "project": 1778,
      "established": 1779,
      "according": 1780,
      "carried": 1781,
      "ot": 1782,
      "request": 1783,
      "Human": 1784,
      "esp": 1785,
      "relation": 1786,
      "Jo": 1787,
      "lish": 1788,
      "ror": 1789,
      "tation": 1790,
      "method": 1791,
      "relations": 1792,
      "ground": 1793,
      "competition": 1794,
      "limate": 1795,
      "companies": 1796,
      "pass": 1797,
      "anti": 1798,
      "remain": 1799,
      "enter": 1800,
      "bodies": 1801,
      "self": 1802,
      "International": 1803,
      "significant": 1804,
      "AC": 1805,
      "Gener": 1806,
      "TO": 1807,
      "tis": 1808,
      "investig": 1809,
      "EM": 1810,
      "determin": 1811,
      "hic": 1812,
      "50": 1813,
      "ort": 1814,
      "ica": 1815,
      "ective": 1816,
      "ling": 1817,
      "children": 1818,
      "mall": 1819,
      "dered": 1820,
      "omic": 1821,
      "waste": 1822,
      "address": 1823,
      "Rom": 1824,
      "due": 1825,
      "problems": 1826,
      "still": 1827,
      "Articles": 1828,
      "EPP": 1829,
      "society": 1830,
      "01": 1831,
      "mer": 1832,
      "restric": 1833,
      "arity": 1834,
      "ouse": 1835,
      "General": 1836,
      "Afr": 1837,
      "mater": 1838,
      "towards": 1839,
      "head": 1840,
      "gets": 1841,
      "monitoring": 1842,
      "spe": 1843,
      "tiveness": 1844,
      "life": 1845,
      "buil": 1846,
      "supply": 1847,
      "sto": 1848,
      "unction": 1849,
      "Po": 1850,
      "states": 1851,
      "vehic": 1852,
      "uni": 1853,
      "safe": 1854,
      "sci": 1855,
      "treat": 1856,
      "ently": 1857,
      "priv": 1858,
      "result": 1859,
      "democratic": 1860,
      "eas": 1861,
      "however": 1862,
      "tics": 1863,
      "product": 1864,
      "Econ": 1865,
      "conflic": 1866,
      "investment": 1867,
      "Ger": 1868,
      "IM": 1869,
      "udit": 1870,
      "final": 1871,
      "Feb": 1872,
      "kets": 1873,
      "changes": 1874,
      "ological": 1875,
      "profession": 1876,
      "deleg": 1877,
      "clud": 1878,
      "example": 1879,
      "Lis": 1880,
      "associ": 1881,
      "compli": 1882,
      "implementing": 1883,
      "aware": 1884,
      "gas": 1885,
      "better": 1886,
      "ruary": 1887,
      "nowled": 1888,
      "February": 1889,
      "belie": 1890,
      "publish": 1891,
      "contribu": 1892,
      "Bel": 1893,
      "vity": 1894,
      "opport": 1895,
      "cies": 1896,
      "communication": 1897,
      "ately": 1898,
      "dialogue": 1899,
      "Br": 1900,
      "inno": 1901,
      "results": 1902,
      "hand": 1903,
      "poses": 1904,
      "administrative": 1905,
      "total": 1906,
      "outh": 1907,
      "detail": 1908,
      "financing": 1909,
      "fundamental": 1910,
      "objective": 1911,
      "consist": 1912,
      "small": 1913,
      "astruc": 1914,
      "suffic": 1915,
      "spec": 1916,
      "continue": 1917,
      "echan": 1918,
      "Economic": 1919,
      "LE": 1920,
      "urn": 1921,
      "establishing": 1922,
      "agricultural": 1923,
      "vered": 1924,
      "ck": 1925,
      "ption": 1926,
      "adoption": 1927,
      "Se": 1928,
      "post": 1929,
      "Ru": 1930,
      "Wi": 1931,
      "ze": 1932,
      "real": 1933,
      "def": 1934,
      "amendment": 1935,
      "stat": 1936,
      "held": 1937,
      "regular": 1938,
      "practi": 1939,
      "ology": 1940,
      "**": 1941,
      "AS": 1942,
      "cess": 1943,
      "fl": 1944,
      "stud": 1945,
      "ator": 1946,
      "tocol": 1947,
      "peace": 1948,
      "terror": 1949,
      "parties": 1950,
      "tor": 1951,
      "asp": 1952,
      "posed": 1953,
      "facilit": 1954,
      "IS": 1955,
      "Wel": 1956,
      "cross": 1957,
      "her": 1958,
      "list": 1959,
      "appe": 1960,
      "protect": 1961,
      "sufficient": 1962,
      "Justice": 1963,
      "dom": 1964,
      "last": 1965,
      "nor": 1966,
      "sche": 1967,
      "lid": 1968,
      "adopt": 1969,
      "points": 1970,
      "Pe": 1971,
      "To": 1972,
      "discus": 1973,
      "consumers": 1974,
      "capac": 1975,
      "emissions": 1976,
      "icy": 1977,
      "strong": 1978,
      "ecially": 1979,
      "close": 1980,
      "called": 1981,
      "ER": 1982,
      "ison": 1983,
      "ials": 1984,
      "because": 1985,
      "especially": 1986,
      "Lisbon": 1987,
      "Or": 1988,
      "Tr": 1989,
      "ele": 1990,
      "power": 1991,
      "climate": 1992,
      "mechan": 1993,
      "sk": 1994,
      "providing": 1995,
      "traffic": 1996,
      "building": 1997,
      "dam": 1998,
      "adequ": 1999,
      "Fra": 2000,
      "ming": 2001,
      "involved": 2002,
      "guarantee": 2003,
      "job": 2004,
      "mis": 2005,
      "ness": 2006,
      "markets": 2007,
      "undertaking": 2008,
      "Program": 2009,
      "labour": 2010,
      "reports": 2011,
      "reference": 2012,
      "There": 2013,
      "cover": 2014,
      "give": 2015,
      "decisions": 2016,
      "consumer": 2017,
      "initiative": 2018,
      "groups": 2019,
      "infrastruc": 2020,
      "Med": 2021,
      "eli": 2022,
      "ins": 2023,
      "company": 2024,
      "considered": 2025,
      "idelines": 2026,
      "instruments": 2027,
      "Tra": 2028,
      "reli": 2029,
      "demand": 2030,
      "budgetary": 2031,
      "Policy": 2032,
      "treatment": 2033,
      "lack": 2034,
      "conduc": 2035,
      "months": 2036,
      "\".": 2037,
      "ds": 2038,
      "super": 2039,
      "Part": 2040,
      "33": 2041,
      "value": 2042,
      "amending": 2043,
      "currently": 2044,
      "strateg": 2045,
      "ean": 2046,
      "fam": 2047,
      "wide": 2048,
      "using": 2049,
      "establishment": 2050,
      "reading": 2051,
      "joint": 2052,
      "Ne": 2053,
      "inst": 2054,
      "natural": 2055,
      "Social": 2056,
      "Bud": 2057,
      "Gi": 2058,
      "tle": 2059,
      "stu": 2060,
      "ateg": 2061,
      "ably": 2062,
      "express": 2063,
      "external": 2064,
      "noti": 2065,
      "versity": 2066,
      "integration": 2067,
      "Finan": 2068,
      "olutions": 2069,
      "istration": 2070,
      "Bo": 2071,
      "war": 2072,
      "accession": 2073,
      "placed": 2074,
      "cultural": 2075,
      "fav": 2076,
      "hi": 2077,
      "sed": 2078,
      "vious": 2079,
      "effects": 2080,
      "charge": 2081,
      "bly": 2082,
      "every": 2083,
      "increasing": 2084,
      "compliance": 2085,
      "back": 2086,
      "alloc": 2087,
      "dio": 2088,
      "ussels": 2089,
      "entific": 2090,
      "economy": 2091,
      "maintain": 2092,
      "surance": 2093,
      "Security": 2094,
      "den": 2095,
      "gal": 2096,
      "another": 2097,
      "connec": 2098,
      "experi": 2099,
      "gether": 2100,
      "III": 2101,
      "Welcomes": 2102,
      "poll": 2103,
      "redit": 2104,
      "ensuring": 2105,
      "Region": 2106,
      "effect": 2107,
      "fishing": 2108,
      "C6": 2109,
      "avo": 2110,
      "tas": 2111,
      "ania": 2112,
      "aged": 2113,
      "carry": 2114,
      "priority": 2115,
      "potential": 2116,
      "cope": 2117,
      "continu": 2118,
      "interests": 2119,
      "Russia": 2120,
      "Brussels": 2121,
      "consequ": 2122,
      "allen": 2123,
      "levels": 2124,
      "collec": 2125,
      "contract": 2126,
      "various": 2127,
      "practice": 2128,
      "pa": 2129,
      "racy": 2130,
      "anal": 2131,
      "inten": 2132,
      "considers": 2133,
      "laration": 2134,
      "additional": 2135,
      "submitted": 2136,
      "tices": 2137,
      "growth": 2138,
      "amount": 2139,
      "fair": 2140,
      "wers": 2141,
      "manu": 2142,
      "Consi": 2143,
      "cannot": 2144,
      "Rule": 2145,
      "avoid": 2146,
      "rea": 2147,
      "together": 2148,
      "bio": 2149,
      "AAAAAAAAAAAAAAAA": 2150,
      "single": 2151,
      "steps": 2152,
      "individual": 2153,
      "With": 2154,
      "AP": 2155,
      "vol": 2156,
      "reduce": 2157,
      "sug": 2158,
      "commitment": 2159,
      "INI": 2160,
      "diffic": 2161,
      "subsi": 2162,
      "medic": 2163,
      "addition": 2164,
      "participation": 2165,
      "greater": 2166,
      "Fr": 2167,
      "How": 2168,
      "bur": 2169,
      "media": 2170,
      "purpose": 2171,
      "increased": 2172,
      "regulatory": 2173,
      "Turkey": 2174,
      "Trans": 2175,
      "Programme": 2176,
      "Ban": 2177,
      "ody": 2178,
      "private": 2179,
      "threat": 2180,
      "ices": 2181,
      "ateral": 2182,
      "responsibility": 2183,
      "substances": 2184,
      "discrimination": 2185,
      "AT": 2186,
      "ok": 2187,
      "tees": 2188,
      "elections": 2189,
      "industri": 2190,
      "renew": 2191,
      "matter": 2192,
      "Author": 2193,
      "broad": 2194,
      "lies": 2195,
      "Char": 2196,
      "propor": 2197,
      "goods": 2198,
      "target": 2199,
      "Gu": 2200,
      "arrange": 2201,
      "abil": 2202,
      "ending": 2203,
      "ording": 2204,
      "uclear": 2205,
      "entry": 2206,
      "\",": 2207,
      "agen": 2208,
      "governments": 2209,
      "ways": 2210,
      "fil": 2211,
      "ece": 2212,
      "population": 2213,
      "98": 2214,
      "NG": 2215,
      "Acc": 2216,
      "atis": 2217,
      "independent": 2218,
      "unctioning": 2219,
      "Pal": 2220,
      "nes": 2221,
      "prec": 2222,
      "onic": 2223,
      "subparagraph": 2224,
      "We": 2225,
      "minimum": 2226,
      "obtain": 2227,
      "needed": 2228,
      "creation": 2229,
      "Framework": 2230,
      "bring": 2231,
      "justi": 2232,
      "rate": 2233,
      "sal": 2234,
      "aring": 2235,
      "ican": 2236,
      "sions": 2237,
      "comply": 2238,
      "amendments": 2239,
      "mention": 2240,
      "capacity": 2241,
      "sen": 2242,
      "deal": 2243,
      "covered": 2244,
      "setting": 2245,
      "Com": 2246,
      "scope": 2247,
      "youn": 2248,
      "purposes": 2249,
      "achieve": 2250,
      "encourage": 2251,
      "infrastructure": 2252,
      "Financial": 2253,
      "suc": 2254,
      "plann": 2255,
      "initiatives": 2256,
      "evaluation": 2257,
      "Sy": 2258,
      "ai": 2259,
      "estin": 2260,
      "custo": 2261,
      "intended": 2262,
      "RI": 2263,
      "body": 2264,
      "attention": 2265,
      "guidelines": 2266,
      "applied": 2267,
      "applicable": 2268,
      "coordination": 2269,
      "practices": 2270,
      "adequate": 2271,
      "Considers": 2272,
      "Offic": 2273,
      "UK": 2274,
      "cid": 2275,
      "Environment": 2276,
      "connection": 2277,
      "46": 2278,
      "yet": 2279,
      "let": 2280,
      "vice": 2281,
      "firm": 2282,
      "nowledge": 2283,
      "According": 2284,
      "short": 2285,
      "reques": 2286,
      "promoting": 2287,
      "Action": 2288,
      "scientific": 2289,
      "dri": 2290,
      "itary": 2291,
      "agreed": 2292,
      "Members": 2293,
      "claim": 2294,
      "previous": 2295,
      "approved": 2296,
      "Ser": 2297,
      "event": 2298,
      "fle": 2299,
      "hes": 2300,
      "ute": 2301,
      "uses": 2302,
      "bourg": 2303,
      "Greece": 2304,
      "cand": 2305,
      "oil": 2306,
      "commer": 2307,
      "Sch": 2308,
      "staff": 2309,
      "harmon": 2310,
      "young": 2311,
      "88": 2312,
      "A6": 2313,
      "solid": 2314,
      "prepar": 2315,
      "lands": 2316,
      "langu": 2317,
      "reasons": 2318,
      "High": 2319,
      "bar": 2320,
      "sent": 2321,
      "itarian": 2322,
      "construc": 2323,
      "powers": 2324,
      "coming": 2325,
      "lling": 2326,
      "territory": 2327,
      "conflict": 2328,
      "she": 2329,
      "pover": 2330,
      "organisation": 2331,
      "payment": 2332,
      "problem": 2333,
      "documents": 2334,
      "published": 2335,
      "best": 2336,
      "cir": 2337,
      "enable": 2338,
      "emer": 2339,
      "exer": 2340,
      "obser": 2341,
      "basic": 2342,
      "judic": 2343,
      "ev": 2344,
      "star": 2345,
      "authorisation": 2346,
      "personal": 2347,
      "animal": 2348,
      "hen": 2349,
      "tial": 2350,
      "challen": 2351,
      "exper": 2352,
      "enda": 2353,
      "ESS": 2354,
      "nature": 2355,
      "Minister": 2356,
      "migration": 2357,
      "pack": 2358,
      "deli": 2359,
      "plain": 2360,
      "nergy": 2361,
      "instrument": 2362,
      "medicin": 2363,
      "35": 2364,
      "36": 2365,
      "40": 2366,
      "mean": 2367,
      "fisheries": 2368,
      "aspects": 2369,
      "Will": 2370,
      "ither": 2371,
      "sol": 2372,
      "thus": 2373,
      "ategy": 2374,
      "plans": 2375,
      "provides": 2376,
      "technology": 2377,
      "Strategy": 2378,
      "reduction": 2379,
      "Be": 2380,
      "Sup": 2381,
      "iture": 2382,
      "veral": 2383,
      "credit": 2384,
      "nuclear": 2385,
      "yl": 2386,
      "exchange": 2387,
      "Under": 2388,
      "contribution": 2389,
      "equip": 2390,
      "World": 2391,
      "cluded": 2392,
      "candid": 2393,
      "Fo": 2394,
      "equal": 2395,
      "ners": 2396,
      "formation": 2397,
      "These": 2398,
      "democracy": 2399,
      "violence": 2400,
      "contribute": 2401,
      "poverty": 2402,
      "illegal": 2403,
      "susp": 2404,
      "rati": 2405,
      "chair": 2406,
      "aper": 2407,
      "China": 2408,
      "rule": 2409,
      "efficient": 2410,
      "transparency": 2411,
      "study": 2412,
      "37": 2413,
      "Ro": 2414,
      "iency": 2415,
      "pes": 2416,
      "added": 2417,
      "obligations": 2418,
      "32": 2419,
      "san": 2420,
      "immedi": 2421,
      "whole": 2422,
      "Health": 2423,
      "analys": 2424,
      "tural": 2425,
      "anted": 2426,
      "accept": 2427,
      "partnership": 2428,
      "conclusions": 2429,
      "name": 2430,
      "AF": 2431,
      "mers": 2432,
      "Commissioner": 2433,
      "prices": 2434,
      "tically": 2435,
      "Protocol": 2436,
      "representatives": 2437,
      "professional": 2438,
      "45": 2439,
      "Bar": 2440,
      "IC": 2441,
      "WTO": 2442,
      "ols": 2443,
      "forms": 2444,
      "Conference": 2445,
      "fuel": 2446,
      "document": 2447,
      "Where": 2448,
      "rail": 2449,
      "prehen": 2450,
      "standing": 2451,
      "next": 2452,
      "Isra": 2453,
      "defined": 2454,
      "Authority": 2455,
      "loc": 2456,
      "type": 2457,
      "sectors": 2458,
      "penditure": 2459,
      "become": 2460,
      "exerc": 2461,
      "Energy": 2462,
      "Man": 2463,
      "gre": 2464,
      "forman": 2465,
      "chec": 2466,
      "safegu": 2467,
      "mentioned": 2468,
      "hesion": 2469,
      "ME": 2470,
      "acqu": 2471,
      "manufac": 2472,
      "Fore": 2473,
      "direc": 2474,
      "istan": 2475,
      "certi": 2476,
      "response": 2477,
      "contracts": 2478,
      "confid": 2479,
      "cul": 2480,
      "ime": 2481,
      "del": 2482,
      "demon": 2483,
      "authorised": 2484,
      "activity": 2485,
      "Bul": 2486,
      "adver": 2487,
      "via": 2488,
      "movement": 2489,
      "posal": 2490,
      "Notes": 2491,
      "risks": 2492,
      "signed": 2493,
      "infring": 2494,
      "limited": 2495,
      "PRESS": 2496,
      "Italy": 2497,
      "Foreign": 2498,
      "session": 2499,
      "proceed": 2500,
      "comprehen": 2501,
      "grant": 2502,
      "Iran": 2503,
      "death": 2504,
      "graph": 2505,
      "implemented": 2506,
      "recommendations": 2507,
      "vehicles": 2508,
      "Gree": 2509,
      "fight": 2510,
      "several": 2511,
      "met": 2512,
      "measure": 2513,
      "Amer": 2514,
      "criminal": 2515,
      "animals": 2516,
      "OL": 2517,
      "don": 2518,
      "mal": 2519,
      "anced": 2520,
      "rep": 2521,
      "ering": 2522,
      "simp": 2523,
      "delay": 2524,
      "prison": 2525,
      "performan": 2526,
      "transfer": 2527,
      "standard": 2528,
      "distri": 2529,
      "electronic": 2530,
      "multi": 2531,
      "48": 2532,
      "insurance": 2533,
      "tims": 2534,
      "statis": 2535,
      "show": 2536,
      "nel": 2537,
      "decid": 2538,
      "concerns": 2539,
      "Presidency": 2540,
      "ologies": 2541,
      "commercial": 2542,
      "))": 2543,
      "Por": 2544,
      "eth": 2545,
      "adap": 2546,
      "vid": 2547,
      "upon": 2548,
      "Proced": 2549,
      "institutional": 2550,
      "directly": 2551,
      "consultation": 2552,
      "arrangements": 2553,
      "Pri": 2554,
      "cour": 2555,
      "ined": 2556,
      "stability": 2557,
      "sem": 2558,
      "expenditure": 2559,
      "max": 2560,
      "site": 2561,
      "Trade": 2562,
      "39": 2563,
      "IV": 2564,
      "Rules": 2565,
      "ake": 2566,
      "gs": 2567,
      "itself": 2568,
      "simil": 2569,
      "ched": 2570,
      "advant": 2571,
      "They": 2572,
      "2012": 2573,
      "operations": 2574,
      "humanitarian": 2575,
      "affected": 2576,
      "Research": 2577,
      "Os": 2578,
      "RE": 2579,
      "Sw": 2580,
      "tled": 2581,
      "alia": 2582,
      "focus": 2583,
      "emphas": 2584,
      "whose": 2585,
      "notes": 2586,
      "going": 2587,
      "victims": 2588,
      "foreign": 2589,
      "visory": 2590,
      ".\"": 2591,
      "60": 2592,
      "National": 2593,
      "tem": 2594,
      "enforce": 2595,
      "respective": 2596,
      "positive": 2597,
      "statement": 2598,
      "questions": 2599,
      "billion": 2600,
      "efficiency": 2601,
      "Greek": 2602,
      "47": 2603,
      "Nor": 2604,
      "OP": 2605,
      "Communic": 2606,
      "possibility": 2607,
      "2013": 2608,
      "ighbour": 2609,
      "gender": 2610,
      "Direct": 2611,
      "content": 2612,
      "included": 2613,
      "pointed": 2614,
      "penal": 2615,
      "Charter": 2616,
      "Bulg": 2617,
      "performance": 2618,
      "similar": 2619,
      "Rap": 2620,
      "knowledge": 2621,
      "my": 2622,
      "share": 2623,
      "governance": 2624,
      "throughout": 2625,
      "parliamentary": 2626,
      "Africa": 2627,
      "facilitate": 2628,
      "circ": 2629,
      "rup": 2630,
      "anish": 2631,
      "stresses": 2632,
      "tered": 2633,
      "excep": 2634,
      "Stresses": 2635,
      "ended": 2636,
      "partners": 2637,
      "higher": 2638,
      "improving": 2639,
      "hold": 2640,
      "benefit": 2641,
      "jobs": 2642,
      "Procedure": 2643,
      "categ": 2644,
      "raft": 2645,
      "combat": 2646,
      "status": 2647,
      "favour": 2648,
      "keep": 2649,
      "ranean": 2650,
      "iterranean": 2651,
      "industrial": 2652,
      "proportion": 2653,
      "Palestin": 2654,
      "equipment": 2655,
      "Portu": 2656,
      "C5": 2657,
      "Cha": 2658,
      "EI": 2659,
      "ga": 2660,
      "six": 2661,
      "extent": 2662,
      "modi": 2663,
      "counter": 2664,
      "minor": 2665,
      "compens": 2666,
      "laws": 2667,
      "affect": 2668,
      "recognition": 2669,
      "success": 2670,
      "Af": 2671,
      "cle": 2672,
      "ons": 2673,
      "remo": 2674,
      "often": 2675,
      "explo": 2676,
      "diversity": 2677,
      "fuge": 2678,
      "payments": 2679,
      "return": 2680,
      "benefits": 2681,
      "Mediterranean": 2682,
      "judicial": 2683,
      "38": 2684,
      "49": 2685,
      "SP": 2686,
      "until": 2687,
      "granted": 2688,
      "military": 2689,
      "aimed": 2690,
      "clearly": 2691,
      "Spain": 2692,
      "matters": 2693,
      "uditors": 2694,
      "AI": 2695,
      "paid": 2696,
      "ories": 2697,
      "price": 2698,
      "permit": 2699,
      "developments": 2700,
      "oney": 2701,
      "drawn": 2702,
      "surve": 2703,
      "capital": 2704,
      "bilities": 2705,
      "innovation": 2706,
      "experience": 2707,
      "enary": 2708,
      "isted": 2709,
      "tele": 2710,
      "issued": 2711,
      "ORAL": 2712,
      "terrorism": 2713,
      "ied": 2714,
      "altern": 2715,
      "aria": 2716,
      "acter": 2717,
      "create": 2718,
      "Further": 2719,
      "P5": 2720,
      "ality": 2721,
      "estim": 2722,
      "loss": 2723,
      "overall": 2724,
      "regulations": 2725,
      "priorities": 2726,
      "methods": 2727,
      "comprehensive": 2728,
      "sembly": 2729,
      "Nations": 2730,
      "Pub": 2731,
      "ek": 2732,
      "ire": 2733,
      "prises": 2734,
      "pression": 2735,
      "Im": 2736,
      "Lu": 2737,
      "SME": 2738,
      "aver": 2739,
      "cam": 2740,
      "dic": 2741,
      "io": 2742,
      "’.": 2743,
      "artic": 2744,
      "stance": 2745,
      "dem": 2746,
      "Information": 2747,
      "labe": 2748,
      "five": 2749,
      "meetings": 2750,
      "Mo": 2751,
      "Mari": 2752,
      "atch": 2753,
      "eder": 2754,
      "Constitu": 2755,
      "amended": 2756,
      "grounds": 2757,
      "sanc": 2758,
      "Communication": 2759,
      "Public": 2760,
      "Ci": 2761,
      "sc": 2762,
      "table": 2763,
      "aries": 2764,
      "sex": 2765,
      "ries": 2766,
      "etary": 2767,
      "ournal": 2768,
      "laun": 2769,
      "prevention": 2770,
      "marketing": 2771,
      "networks": 2772,
      "damage": 2773,
      "agencies": 2774,
      "New": 2775,
      "SC": 2776,
      "Su": 2777,
      "az": 2778,
      "central": 2779,
      "orpor": 2780,
      "entre": 2781,
      "informed": 2782,
      "announ": 2783,
      "appropriations": 2784,
      "institution": 2785,
      "ourable": 2786,
      "Secret": 2787,
      "achieved": 2788,
      "Joint": 2789,
      "scheme": 2790,
      "manufacture": 2791,
      "’,": 2792,
      "ension": 2793,
      "sibilities": 2794,
      "prohi": 2795,
      "prep": 2796,
      "introduction": 2797,
      "infringe": 2798,
      "justice": 2799,
      "though": 2800,
      "tel": 2801,
      "entitled": 2802,
      "COD": 2803,
      "When": 2804,
      "received": 2805,
      "speed": 2806,
      "construction": 2807,
      "Rapporteur": 2808,
      "mary": 2809,
      "might": 2810,
      "plant": 2811,
      "soon": 2812,
      "tures": 2813,
      "ource": 2814,
      "outside": 2815,
      "Mark": 2816,
      "promotion": 2817,
      "stances": 2818,
      "property": 2819,
      "much": 2820,
      "believes": 2821,
      "South": 2822,
      "evid": 2823,
      "four": 2824,
      "functioning": 2825,
      "ances": 2826,
      "iting": 2827,
      "accid": 2828,
      "ung": 2829,
      "technologies": 2830,
      "Italian": 2831,
      "tasks": 2832,
      "maximum": 2833,
      "HE": 2834,
      "asyl": 2835,
      "ligh": 2836,
      "community": 2837,
      "approval": 2838,
      "abled": 2839,
      "unicip": 2840,
      "Speci": 2841,
      "recognised": 2842,
      "asylum": 2843,
      "Auditors": 2844,
      "NS": 2845,
      "Ur": 2846,
      "og": 2847,
      "xi": 2848,
      "thereof": 2849,
      "ALDE": 2850,
      "integrated": 2851,
      "Stras": 2852,
      "official": 2853,
      "targets": 2854,
      "strategic": 2855,
      "34": 2856,
      "80": 2857,
      "found": 2858,
      "rural": 2859,
      "itation": 2860,
      "stated": 2861,
      "stress": 2862,
      "ria": 2863,
      "did": 2864,
      "web": 2865,
      "clari": 2866,
      "feed": 2867,
      "satis": 2868,
      "accounts": 2869,
      "holders": 2870,
      "competitiveness": 2871,
      "opportunities": 2872,
      "demonstr": 2873,
      "Director": 2874,
      "SMEs": 2875,
      "fall": 2876,
      "across": 2877,
      "processing": 2878,
      "consumption": 2879,
      "majority": 2880,
      "designed": 2881,
      "appear": 2882,
      "Food": 2883,
      "Strasbourg": 2884,
      "PPE": 2885,
      "Sum": 2886,
      "either": 2887,
      "ination": 2888,
      "agenda": 2889,
      "exec": 2890,
      "model": 2891,
      "gence": 2892,
      "fig": 2893,
      "character": 2894,
      "flu": 2895,
      "Budget": 2896,
      "consequences": 2897,
      "Em": 2898,
      "sources": 2899,
      "living": 2900,
      "sets": 2901,
      "compar": 2902,
      "operate": 2903,
      "operators": 2904,
      "descri": 2905,
      "commitments": 2906,
      "longer": 2907,
      "delegation": 2908,
      "conduct": 2909,
      "Board": 2910,
      "ana": 2911,
      "lea": 2912,
      "ster": 2913,
      "quanti": 2914,
      "communications": 2915,
      "studies": 2916,
      "Bank": 2917,
      "44": 2918,
      "bin": 2919,
      "municip": 2920,
      "nam": 2921,
      "ov": 2922,
      "repe": 2923,
      "recover": 2924,
      "consideration": 2925,
      "structs": 2926,
      "recently": 2927,
      "Partnership": 2928,
      "family": 2929,
      "Dis": 2930,
      "PES": 2931,
      "pt": 2932,
      "org": 2933,
      "resolutions": 2934,
      "selec": 2935,
      "abs": 2936,
      "tran": 2937,
      "thern": 2938,
      "discharge": 2939,
      "Section": 2940,
      "definition": 2941,
      "differen": 2942,
      "largement": 2943,
      "consistent": 2944,
      "France": 2945,
      "simpli": 2946,
      "ees": 2947,
      "face": 2948,
      "ler": 2949,
      "money": 2950,
      "scho": 2951,
      "test": 2952,
      "ats": 2953,
      "concluded": 2954,
      "Common": 2955,
      "aging": 2956,
      "que": 2957,
      "developed": 2958,
      "ITEM": 2959,
      "Protection": 2960,
      "takes": 2961,
      "Associ": 2962,
      "award": 2963,
      "ACP": 2964,
      "undertakings": 2965,
      "medicinal": 2966,
      "analysis": 2967,
      "decided": 2968,
      ")(": 2969,
      "Car": 2970,
      "Plan": 2971,
      "wish": 2972,
      "refuge": 2973,
      "prom": 2974,
      "separ": 2975,
      "urg": 2976,
      "adjust": 2977,
      "Represent": 2978,
      "incorpor": 2979,
      "draf": 2980,
      "Turk": 2981,
      "flexi": 2982,
      "Central": 2983,
      "bre": 2984,
      "icity": 2985,
      "Instructs": 2986,
      "interpre": 2987,
      "committed": 2988,
      "effectively": 2989,
      "Organ": 2990,
      "Regional": 2991,
      "circum": 2992,
      "vere": 2993,
      "mobility": 2994,
      "operating": 2995,
      "values": 2996,
      "ployment": 2997,
      "complete": 2998,
      "expressed": 2999,
      "pollution": 3000,
      "76": 3001,
      "Bal": 3002,
      "Mal": 3003,
      "export": 3004,
      "dia": 3005,
      "produced": 3006,
      "party": 3007,
      "valid": 3008,
      "fying": 3009,
      "Fundamental": 3010,
      "detailed": 3011,
      "proceedings": 3012,
      "Palestinian": 3013,
      "sanctions": 3014,
      "EF": 3015,
      "mic": 3016,
      "run": 3017,
      "itable": 3018,
      "dead": 3019,
      "ems": 3020,
      "record": 3021,
      "tradi": 3022,
      "linked": 3023,
      "effectiveness": 3024,
      "introduced": 3025,
      "parliaments": 3026,
      "failure": 3027,
      "enterprises": 3028,
      "opportunity": 3029,
      "volun": 3030,
      "average": 3031,
      "Ap": 3032,
      "DG": 3033,
      "Fish": 3034,
      "ww": 3035,
      "isms": 3036,
      "urges": 3037,
      "parts": 3038,
      "balance": 3039,
      "................................": 3040,
      "likely": 3041,
      "material": 3042,
      "Civil": 3043,
      "75": 3044,
      "96": 3045,
      "Bri": 3046,
      "Wed": 3047,
      "cup": 3048,
      "manner": 3049,
      "requires": 3050,
      "occur": 3051,
      "Spanish": 3052,
      "nesday": 3053,
      "language": 3054,
      "Wednesday": 3055,
      "95": 3056,
      "Cy": 3057,
      "East": 3058,
      "PS": 3059,
      "Ver": 3060,
      "rates": 3061,
      "solution": 3062,
      "scal": 3063,
      "ond": 3064,
      "offer": 3065,
      "isters": 3066,
      "exceed": 3067,
      "cohesion": 3068,
      "forest": 3069,
      "Cooperation": 3070,
      "caused": 3071,
      "Belar": 3072,
      "exercise": 3073,
      "enforcement": 3074,
      "Summit": 3075,
      "100": 3076,
      "breach": 3077,
      "dim": 3078,
      "liber": 3079,
      "neg": 3080,
      "presented": 3081,
      "Assembly": 3082,
      "days": 3083,
      "farmers": 3084,
      "species": 3085,
      "77": 3086,
      "dan": 3087,
      "dru": 3088,
      "pi": 3089,
      "rop": 3090,
      "intel": 3091,
      "leading": 3092,
      "expected": 3093,
      "reflec": 3094,
      "Romania": 3095,
      "Given": 3096,
      "43": 3097,
      "eu": 3098,
      "iz": 3099,
      "stage": 3100,
      "apter": 3101,
      "lled": 3102,
      "producers": 3103,
      "firms": 3104,
      "Declaration": 3105,
      "fraud": 3106,
      "charges": 3107,
      "welcomes": 3108,
      "candidate": 3109,
      "safeguard": 3110,
      "evidence": 3111,
      "phas": 3112,
      "uel": 3113,
      "va": 3114,
      "live": 3115,
      "porary": 3116,
      "regime": 3117,
      "matic": 3118,
      "police": 3119,
      "strengthening": 3120,
      "92": 3121,
      "93": 3122,
      "EE": 3123,
      "Ge": 3124,
      "IA": 3125,
      "atic": 3126,
      "rev": 3127,
      "asked": 3128,
      "exten": 3129,
      "atest": 3130,
      "crime": 3131,
      "Chris": 3132,
      "applicant": 3133,
      "Internet": 3134,
      "mutual": 3135,
      "materials": 3136,
      "challenges": 3137,
      "AG": 3138,
      "Ber": 3139,
      "CF": 3140,
      "Gen": 3141,
      "OF": 3142,
      "ier": 3143,
      "ink": 3144,
      "reven": 3145,
      "assi": 3146,
      "stre": 3147,
      "substance": 3148,
      "voc": 3149,
      "investigation": 3150,
      "African": 3151,
      "***": 3152,
      "manufacturer": 3153,
      "binding": 3154,
      "scale": 3155,
      "55": 3156,
      "NO": 3157,
      "P6": 3158,
      "Since": 3159,
      "propose": 3160,
      "actual": 3161,
      "reser": 3162,
      "neighbour": 3163,
      "illed": 3164,
      "utes": 3165,
      "seek": 3166,
      "transparent": 3167,
      "mechanism": 3168,
      "mechanisms": 3169,
      "trafficking": 3170,
      "Urges": 3171,
      "cru": 3172,
      "iation": 3173,
      "kra": 3174,
      "kind": 3175,
      "zone": 3176,
      "recommendation": 3177,
      "Bulgaria": 3178,
      "Furthermore": 3179,
      "announced": 3180,
      "More": 3181,
      "pat": 3182,
      "tt": 3183,
      "ste": 3184,
      "rather": 3185,
      "old": 3186,
      "...": 3187,
      "vessels": 3188,
      "resulting": 3189,
      "facilities": 3190,
      "independence": 3191,
      "Association": 3192,
      "90": 3193,
      "Dem": 3194,
      "Lat": 3195,
      "Ukra": 3196,
      "ping": 3197,
      "once": 3198,
      "replaced": 3199,
      "arch": 3200,
      "stor": 3201,
      "2020": 3202,
      "Indu": 3203,
      "mination": 3204,
      "early": 3205,
      "structural": 3206,
      "condition": 3207,
      "renewable": 3208,
      "Office": 3209,
      "Israel": 3210,
      "70": 3211,
      "Saf": 3212,
      "br": 3213,
      "ival": 3214,
      "kes": 3215,
      "times": 3216,
      "enlargement": 3217,
      "too": 3218,
      "contro": 3219,
      "identified": 3220,
      "businesses": 3221,
      "German": 3222,
      "Belgi": 3223,
      "Chair": 3224,
      "transi": 3225,
      "Representative": 3226,
      "DR": 3227,
      "THE": 3228,
      "ah": 3229,
      "bed": 3230,
      "centr": 3231,
      "exemp": 3232,
      "viation": 3233,
      "users": 3234,
      "reduced": 3235,
      "evalu": 3236,
      "elements": 3237,
      "Turkish": 3238,
      "circumstances": 3239,
      "Safety": 3240,
      "Irel": 3241,
      "Pl": 3242,
      "equality": 3243,
      "rets": 3244,
      "arrest": 3245,
      "ask": 3246,
      "urs": 3247,
      "appointed": 3248,
      "finding": 3249,
      "compati": 3250,
      "supplement": 3251,
      "views": 3252,
      "rought": 3253,
      "equival": 3254,
      "medium": 3255,
      "Market": 3256,
      "Ireland": 3257,
      "CNS": 3258,
      "_TA": 3259,
      "tack": 3260,
      "uri": 3261,
      "inspec": 3262,
      "istic": 3263,
      "bey": 3264,
      "sugges": 3265,
      "BRI": 3266,
      "DP": 3267,
      "Hung": 3268,
      "hist": 3269,
      "mac": 3270,
      "pati": 3271,
      "ints": 3272,
      "envis": 3273,
      "ery": 3274,
      "forces": 3275,
      "expo": 3276,
      "rench": 3277,
      "disas": 3278,
      "travel": 3279,
      "ously": 3280,
      "contact": 3281,
      "votes": 3282,
      "structure": 3283,
      "employed": 3284,
      "restrictions": 3285,
      "AAAAAAAAAAAAAAAAAAAAAAAAAAAAAAAA": 3286,
      "difficul": 3287,
      "experts": 3288,
      "89": 3289,
      "Agr": 3290,
      "French": 3291,
      "Pr": 3292,
      "ulations": 3293,
      "complement": 3294,
      "spect": 3295,
      "subsequ": 3296,
      "types": 3297,
      "section": 3298,
      "requirement": 3299,
      "receive": 3300,
      "difficult": 3301,
      "package": 3302,
      "distribution": 3303,
      "recovery": 3304,
      "later": 3305,
      "tre": 3306,
      "ick": 3307,
      "adv": 3308,
      "immigration": 3309,
      "compon": 3310,
      "TIC": 3311,
      "aims": 3312,
      "committees": 3313,
      "officials": 3314,
      "mandate": 3315,
      "reached": 3316,
      "requested": 3317,
      "Agric": 3318,
      "85": 3319,
      "El": 3320,
      "Vi": 3321,
      "audit": 3322,
      "urban": 3323,
      "etc": 3324,
      "plenary": 3325,
      "register": 3326,
      "haz": 3327,
      "ciliation": 3328,
      "nationals": 3329,
      "acting": 3330,
      "involvement": 3331,
      "bene": 3332,
      "limits": 3333,
      "obligation": 3334,
      "vehicle": 3335,
      "System": 3336,
      "ruption": 3337,
      "By": 3338,
      "Tues": 3339,
      "ians": 3340,
      "alleg": 3341,
      "estic": 3342,
      "ash": 3343,
      "concentr": 3344,
      "notably": 3345,
      "perman": 3346,
      "occup": 3347,
      "tests": 3348,
      "containing": 3349,
      "migrants": 3350,
      "reaties": 3351,
      "subsidi": 3352,
      "Transport": 3353,
      "municipality": 3354,
      "Fisheries": 3355,
      "Tuesday": 3356,
      "Aust": 3357,
      "Centre": 3358,
      "nic": 3359,
      "oto": 3360,
      "theless": 3361,
      "former": 3362,
      "formal": 3363,
      "pressure": 3364,
      "adopting": 3365,
      "board": 3366,
      "sitting": 3367,
      "planning": 3368,
      "Secretary": 3369,
      "42": 3370,
      "Her": 3371,
      "Ma": 3372,
      "ium": 3373,
      "trol": 3374,
      "inf": 3375,
      "rein": 3376,
      "reme": 3377,
      "ature": 3378,
      "forced": 3379,
      "conver": 3380,
      "cohe": 3381,
      "fici": 3382,
      "prejud": 3383,
      "medical": 3384,
      "organised": 3385,
      "1998": 3386,
      "holding": 3387,
      "laying": 3388,
      "growing": 3389,
      "Legal": 3390,
      "paign": 3391,
      "letter": 3392,
      "confidential": 3393,
      "temporary": 3394,
      "alternative": 3395,
      "Special": 3396,
      "stream": 3397,
      "67": 3398,
      "atter": 3399,
      "withdraw": 3400,
      "versi": 3401,
      "registration": 3402,
      "operational": 3403,
      "declaration": 3404,
      "agriculture": 3405,
      "Russian": 3406,
      "schemes": 3407,
      "99": 3408,
      "Slo": 3409,
      "ii": 3410,
      "conform": 3411,
      "Institu": 3412,
      "space": 3413,
      "transmission": 3414,
      "introduce": 3415,
      "office": 3416,
      "amounts": 3417,
      "practical": 3418,
      "engers": 3419,
      "associated": 3420,
      "abilities": 3421,
      "compensation": 3422,
      "prohib": 3423,
      "storage": 3424,
      "beyond": 3425,
      "65": 3426,
      "Ko": 3427,
      "TS": 3428,
      "Tex": 3429,
      "dr": 3430,
      "fare": 3431,
      "hy": 3432,
      "kno": 3433,
      "listed": 3434,
      "mical": 3435,
      "acks": 3436,
      "lood": 3437,
      "outcome": 3438,
      "urement": 3439,
      "gious": 3440,
      "includes": 3441,
      "residence": 3442,
      "competitive": 3443,
      "involving": 3444,
      "closure": 3445,
      "correspon": 3446,
      "reducing": 3447,
      "substantial": 3448,
      "constitute": 3449,
      "closely": 3450,
      "customs": 3451,
      "Portugal": 3452,
      "',": 3453,
      "71": 3454,
      "Fran": 3455,
      "Ira": 3456,
      "Ob": 3457,
      "PO": 3458,
      "ones": 3459,
      "revision": 3460,
      "expression": 3461,
      "quali": 3462,
      "election": 3463,
      "release": 3464,
      "install": 3465,
      "certific": 3466,
      "Swed": 3467,
      "Such": 3468,
      "Has": 3469,
      "King": 3470,
      "court": 3471,
      "ka": 3472,
      "pective": 3473,
      "ines": 3474,
      "income": 3475,
      "echn": 3476,
      "deep": 3477,
      "duties": 3478,
      "move": 3479,
      "mariti": 3480,
      "publication": 3481,
      "rapid": 3482,
      "consult": 3483,
      "combating": 3484,
      "Sea": 3485,
      "statistics": 3486,
      "maritime": 3487,
      "House": 3488,
      "Me": 3489,
      "Paper": 3490,
      "flow": 3491,
      "latest": 3492,
      "ograph": 3493,
      "influ": 3494,
      "istered": 3495,
      "explain": 3496,
      "reating": 3497,
      "reported": 3498,
      "ARTIC": 3499,
      "Germany": 3500,
      "domestic": 3501,
      "emergency": 3502,
      "campaign": 3503,
      "demn": 3504,
      "danger": 3505,
      "prejudice": 3506,
      "Iraq": 3507,
      "78": 3508,
      "ior": 3509,
      "mid": 3510,
      "along": 3511,
      "around": 3512,
      "stake": 3513,
      "derog": 3514,
      "phys": 3515,
      "fix": 3516,
      "gible": 3517,
      "Proposal": 3518,
      "believe": 3519,
      "defence": 3520,
      "strategies": 3521,
      "planned": 3522,
      "Ukraine": 3523,
      "FR": 3524,
      "Women": 3525,
      "ira": 3526,
      "past": 3527,
      "thing": 3528,
      "took": 3529,
      "arms": 3530,
      "log": 3531,
      "amb": 3532,
      "Parliamentary": 3533,
      "obst": 3534,
      "vices": 3535,
      "fulfil": 3536,
      "supporting": 3537,
      "buds": 3538,
      "followed": 3539,
      "achieving": 3540,
      "borders": 3541,
      "administration": 3542,
      "multil": 3543,
      "enhance": 3544,
      "passengers": 3545,
      "association": 3546,
      "tlement": 3547,
      "equivalent": 3548,
      "ARTICLE": 3549,
      "DS": 3550,
      "SA": 3551,
      "done": 3552,
      "gment": 3553,
      "gain": 3554,
      "tary": 3555,
      "zer": 3556,
      "istics": 3557,
      "cell": 3558,
      "rid": 3559,
      "legally": 3560,
      "rise": 3561,
      "Chapter": 3562,
      "employees": 3563,
      "ferences": 3564,
      "consulted": 3565,
      "electricity": 3566,
      "determined": 3567,
      "religious": 3568,
      "supervision": 3569,
      "allocation": 3570,
      "directives": 3571,
      "A5": 3572,
      "EL": 3573,
      "GU": 3574,
      "Pa": 3575,
      "tun": 3576,
      "begin": 3577,
      "Communities": 3578,
      "preser": 3579,
      "thereby": 3580,
      "purch": 3581,
      "improved": 3582,
      "Internal": 3583,
      "debt": 3584,
      "fields": 3585,
      "acceptable": 3586,
      "acquis": 3587,
      "Belarus": 3588,
      "Industry": 3589,
      "known": 3590,
      "budsman": 3591,
      "97": 3592,
      "Asi": 3593,
      "B6": 3594,
      "gest": 3595,
      "hour": 3596,
      "ought": 3597,
      "lives": 3598,
      "deri": 3599,
      "vig": 3600,
      "week": 3601,
      "ventions": 3602,
      "acces": 3603,
      "specified": 3604,
      "desp": 3605,
      "statements": 3606,
      "intends": 3607,
      "relationship": 3608,
      "allocated": 3609,
      "exposure": 3610,
      "Texts": 3611,
      "Kingdom": 3612,
      "68": 3613,
      "RES": 3614,
      "utive": 3615,
      "note": 3616,
      "coast": 3617,
      "auto": 3618,
      "legiti": 3619,
      "Consum": 3620,
      "created": 3621,
      "opening": 3622,
      "says": 3623,
      "famil": 3624,
      "start": 3625,
      "chairman": 3626,
      "negative": 3627,
      "conformity": 3628,
      "obstac": 3629,
      "despite": 3630,
      "62": 3631,
      "Mor": 3632,
      "Om": 3633,
      "brought": 3634,
      "func": 3635,
      "your": 3636,
      "suff": 3637,
      "therlands": 3638,
      "classi": 3639,
      "actors": 3640,
      "few": 3641,
      "ables": 3642,
      "sites": 3643,
      "supported": 3644,
      "ruit": 3645,
      "calcul": 3646,
      "specifically": 3647,
      "hood": 3648,
      "existence": 3649,
      "leaders": 3650,
      "controls": 3651,
      "Liber": 3652,
      "Netherlands": 3653,
      "obtained": 3654,
      "meaning": 3655,
      "adverse": 3656,
      "Employment": 3657,
      "Organisation": 3658,
      "legitim": 3659,
      "Hon": 3660,
      "cause": 3661,
      "creating": 3662,
      "solutions": 3663,
      "uine": 3664,
      "ale": 3665,
      "ente": 3666,
      "accep": 3667,
      "imports": 3668,
      "ghan": 3669,
      "presid": 3670,
      "genuine": 3671,
      "lower": 3672,
      "abling": 3673,
      "situ": 3674,
      "visa": 3675,
      "areness": 3676,
      "applying": 3677,
      "violations": 3678,
      "innov": 3679,
      "requests": 3680,
      "solidarity": 3681,
      "immediate": 3682,
      "ethnic": 3683,
      "Afghan": 3684,
      "article": 3685,
      "labelling": 3686,
      "sexual": 3687,
      "urgent": 3688,
      "Ombudsman": 3689,
      "010": 3690,
      "91": 3691,
      "IL": 3692,
      "Ky": 3693,
      "PAR": 3694,
      "dou": 3695,
      "ever": 3696,
      "journal": 3697,
      "mobil": 3698,
      "illance": 3699,
      "perform": 3700,
      "mind": 3701,
      "procurement": 3702,
      "decide": 3703,
      "financed": 3704,
      "although": 3705,
      "visit": 3706,
      "examine": 3707,
      "inclusion": 3708,
      "events": 3709,
      "immediately": 3710,
      "figures": 3711,
      "liberal": 3712,
      "58": 3713,
      "HR": 3714,
      "Home": 3715,
      "Pre": 3716,
      "raw": 3717,
      "iry": 3718,
      "exclu": 3719,
      "duty": 3720,
      "sole": 3721,
      "rence": 3722,
      "others": 3723,
      "link": 3724,
      "applications": 3725,
      "governing": 3726,
      "selves": 3727,
      "crete": 3728,
      "membership": 3729,
      "AND": 3730,
      "course": 3731,
      "EIB": 3732,
      "permanent": 3733,
      "Honourable": 3734,
      "Go": 3735,
      "P7": 3736,
      "Vice": 3737,
      "cks": 3738,
      "dle": 3739,
      "lau": 3740,
      "pul": 3741,
      "tour": 3742,
      "raised": 3743,
      "lier": 3744,
      "peti": 3745,
      "sea": 3746,
      "teed": 3747,
      "ides": 3748,
      "utin": 3749,
      "operator": 3750,
      "awareness": 3751,
      "citizen": 3752,
      "correct": 3753,
      "identify": 3754,
      "extreme": 3755,
      "justified": 3756,
      "DA": 3757,
      "you": 3758,
      "reject": 3759,
      "enger": 3760,
      "top": 3761,
      "confirm": 3762,
      "ulner": 3763,
      "plants": 3764,
      "ffs": 3765,
      "India": 3766,
      "prus": 3767,
      "communities": 3768,
      "presence": 3769,
      "entire": 3770,
      "secure": 3771,
      "representative": 3772,
      "opinions": 3773,
      "harm": 3774,
      "guaranteed": 3775,
      "extend": 3776,
      "Recommend": 3777,
      "heading": 3778,
      "NGL": 3779,
      "NGOs": 3780,
      "America": 3781,
      "refugees": 3782,
      "voluntary": 3783,
      "difficulties": 3784,
      "multilateral": 3785,
      "Bur": 3786,
      "DC": 3787,
      "Law": 3788,
      "Per": 3789,
      "home": 3790,
      "know": 3791,
      "ses": 3792,
      "forth": 3793,
      "unless": 3794,
      "poor": 3795,
      "why": 3796,
      "implic": 3797,
      "appoint": 3798,
      "never": 3799,
      "cessive": 3800,
      "providers": 3801,
      "critic": 3802,
      "responsibilities": 3803,
      "allowed": 3804,
      "chemical": 3805,
      "welfare": 3806,
      "surveillance": 3807,
      "infringement": 3808,
      "dimension": 3809,
      "56": 3810,
      "83": 3811,
      "B7": 3812,
      "Col": 3813,
      "MO": 3814,
      "VI": 3815,
      "ame": 3816,
      "wise": 3817,
      "xim": 3818,
      "engen": 3819,
      "ites": 3820,
      "concrete": 3821,
      "lying": 3822,
      "voting": 3823,
      "milk": 3824,
      "themselves": 3825,
      "corruption": 3826,
      "reforms": 3827,
      "centres": 3828,
      "Constitution": 3829,
      "87": 3830,
      "TF": 3831,
      "ease": 3832,
      "pan": 3833,
      "vulner": 3834,
      "orial": 3835,
      "always": 3836,
      "accompan": 3837,
      "proposes": 3838,
      "trading": 3839,
      "transactions": 3840,
      "bilateral": 3841,
      "attemp": 3842,
      "Green": 3843,
      "individuals": 3844,
      "enhouse": 3845,
      "failed": 3846,
      "details": 3847,
      "Budgets": 3848,
      "checks": 3849,
      "prepared": 3850,
      "Democ": 3851,
      "accompanied": 3852,
      "94": 3853,
      "Eur": 3854,
      "Global": 3855,
      "Kar": 3856,
      "VAT": 3857,
      "cut": 3858,
      "gital": 3859,
      "ito": 3860,
      "ene": 3861,
      "ased": 3862,
      "radio": 3863,
      "opposition": 3864,
      "agency": 3865,
      "comprom": 3866,
      "ills": 3867,
      "servation": 3868,
      "gene": 3869,
      "primary": 3870,
      "supports": 3871,
      "Ann": 3872,
      "contribut": 3873,
      "indicate": 3874,
      "guarantees": 3875,
      "reasonable": 3876,
      "effort": 3877,
      "remains": 3878,
      "intention": 3879,
      "subsidies": 3880,
      "Schengen": 3881,
      "Cyprus": 3882,
      "):": 3883,
      "74": 3884,
      "82": 3885,
      "Ha": 3886,
      "Mid": 3887,
      "ij": 3888,
      "source": 3889,
      "onia": 3890,
      "inary": 3891,
      "mental": 3892,
      "detention": 3893,
      "union": 3894,
      "parl": 3895,
      "marine": 3896,
      "annex": 3897,
      "carbon": 3898,
      "technological": 3899,
      "improvement": 3900,
      "versal": 3901,
      "Management": 3902,
      "phase": 3903,
      "entered": 3904,
      "FOR": 3905,
      "Feder": 3906,
      "MEN": 3907,
      "UL": 3908,
      "vital": 3909,
      "assets": 3910,
      "consolid": 3911,
      "imposed": 3912,
      "registered": 3913,
      "geograph": 3914,
      "find": 3915,
      "decl": 3916,
      "bile": 3917,
      "akes": 3918,
      "properly": 3919,
      "iterates": 3920,
      "determine": 3921,
      "normal": 3922,
      "buildings": 3923,
      "harmonised": 3924,
      "characteristics": 3925,
      "Cz": 3926,
      "Cam": 3927,
      "rutin": 3928,
      "tly": 3929,
      "produce": 3930,
      "clause": 3931,
      "diseas": 3932,
      "highly": 3933,
      "becom": 3934,
      "seeking": 3935,
      "Aug": 3936,
      "terrorist": 3937,
      "supervisory": 3938,
      "greenhouse": 3939,
      "revenue": 3940,
      "NOT": 3941,
      "stakeholders": 3942,
      "families": 3943,
      "diseases": 3944,
      "://": 3945,
      "Freedom": 3946,
      "Mi": 3947,
      "NE": 3948,
      "Sh": 3949,
      "Vo": 3950,
      "culture": 3951,
      "house": 3952,
      "htt": 3953,
      "mas": 3954,
      "thu": 3955,
      "mobile": 3956,
      "makes": 3957,
      "Inv": 3958,
      "Control": 3959,
      "crimes": 3960,
      "affir": 3961,
      "External": 3962,
      "complex": 3963,
      "passenger": 3964,
      "stocks": 3965,
      "advantage": 3966,
      "clarify": 3967,
      "compatible": 3968,
      "Agriculture": 3969,
      "physical": 3970,
      "http": 3971,
      "tence": 3972,
      "ying": 3973,
      "ically": 3974,
      "rian": 3975,
      "uration": 3976,
      "meat": 3977,
      "complain": 3978,
      "recy": 3979,
      "tually": 3980,
      "spir": 3981,
      "lantic": 3982,
      "Poland": 3983,
      "participate": 3984,
      "indicated": 3985,
      "governmental": 3986,
      "conducted": 3987,
      "carrying": 3988,
      "proportionate": 3989,
      "scrutin": 3990,
      "crucial": 3991,
      "benefici": 3992,
      "August": 3993,
      "41": 3994,
      "86": 3995,
      "All": 3996,
      "C7": 3997,
      "Cro": 3998,
      "IPR": 3999,
      "Net": 4000,
      "frequ": 4001,
      "tari": 4002,
      "replace": 4003,
      "atom": 4004,
      "atures": 4005,
      "resol": 4006,
      "bert": 4007,
      "visual": 4008,
      "healthcare": 4009,
      "learning": 4010,
      "holder": 4011,
      "Code": 4012,
      "pension": 4013,
      "barri": 4014,
      "launch": 4015,
      "differences": 4016,
      "hazard": 4017,
      "GUE": 4018,
      "Draft": 4019,
      "EG": 4020,
      "PA": 4021,
      "PL": 4022,
      "TR": 4023,
      "Tun": 4024,
      "aqu": 4025,
      "bor": 4026,
      "him": 4027,
      "mass": 4028,
      "sound": 4029,
      "refer": 4030,
      "round": 4031,
      "finance": 4032,
      "works": 4033,
      "undermin": 4034,
      "reporting": 4035,
      "lectual": 4036,
      "boo": 4037,
      "secret": 4038,
      "competence": 4039,
      "defini": 4040,
      "significantly": 4041,
      "American": 4042,
      "lights": 4043,
      "Consumer": 4044,
      "300": 4045,
      "CAP": 4046,
      "wa": 4047,
      "ongoing": 4048,
      "tools": 4049,
      "omin": 4050,
      "condemn": 4051,
      "Uni": 4052,
      "perspective": 4053,
      "Mart": 4054,
      "contained": 4055,
      "Roma": 4056,
      "sugar": 4057,
      "preparation": 4058,
      "73": 4059,
      "hard": 4060,
      "istry": 4061,
      "eco": 4062,
      "raise": 4063,
      "seas": 4064,
      "abit": 4065,
      "plom": 4066,
      "fees": 4067,
      "giving": 4068,
      "summit": 4069,
      "follows": 4070,
      "INT": 4071,
      "investments": 4072,
      "europarl": 4073,
      "completed": 4074,
      "Admin": 4075,
      "harmonisation": 4076,
      "railway": 4077,
      "penalties": 4078,
      "stressed": 4079,
      "school": 4080,
      "drugs": 4081,
      "extension": 4082,
      "Ir": 4083,
      "One": 4084,
      "aviation": 4085,
      "bia": 4086,
      "craft": 4087,
      "lam": 4088,
      "ped": 4089,
      "ano": 4090,
      "ened": 4091,
      "tox": 4092,
      "protocol": 4093,
      "hearing": 4094,
      "shown": 4095,
      "paragraphs": 4096,
      "positions": 4097,
      "considering": 4098,
      "periods": 4099,
      "allowing": 4100,
      "lieves": 4101,
      "tonnes": 4102,
      "increasingly": 4103,
      "INION": 4104,
      "Believes": 4105,
      "OPINION": 4106,
      "categories": 4107,
      "affecting": 4108,
      "successful": 4109,
      "subsidiarity": 4110,
      "vulnerable": 4111,
      "CC": 4112,
      "Egy": 4113,
      "Pers": 4114,
      "Sa": 4115,
      "Ter": 4116,
      "ive": 4117,
      "rating": 4118,
      "van": 4119,
      "tock": 4120,
      "size": 4121,
      "sten": 4122,
      "rad": 4123,
      "digital": 4124,
      "motor": 4125,
      "noted": 4126,
      "lined": 4127,
      "base": 4128,
      "fron": 4129,
      "ligion": 4130,
      "uniform": 4131,
      "task": 4132,
      "claims": 4133,
      "category": 4134,
      "separate": 4135,
      "Middle": 4136,
      "Den": 4137,
      "Ph": 4138,
      "Pat": 4139,
      "think": 4140,
      "religion": 4141,
      "tish": 4142,
      "alle": 4143,
      "taint": 4144,
      "certaint": 4145,
      "disposal": 4146,
      "understanding": 4147,
      "cession": 4148,
      "Direc": 4149,
      "That": 4150,
      "Thurs": 4151,
      "respected": 4152,
      "indent": 4153,
      "Head": 4154,
      "ifications": 4155,
      "Lithu": 4156,
      "continued": 4157,
      "collective": 4158,
      "deliver": 4159,
      "certainty": 4160,
      "Thursday": 4161,
      "Elec": 4162,
      "Press": 4163,
      "She": 4164,
      "ather": 4165,
      "cop": 4166,
      "fri": 4167,
      "hom": 4168,
      "ls": 4169,
      "pon": 4170,
      "tivity": 4171,
      "aters": 4172,
      "sim": 4173,
      "const": 4174,
      "confir": 4175,
      "exclusion": 4176,
      "phar": 4177,
      "stipul": 4178,
      "Not": 4179,
      "continues": 4180,
      "coordinated": 4181,
      "Monetary": 4182,
      "conflicts": 4183,
      "regularly": 4184,
      "protecting": 4185,
      "targeted": 4186,
      "accident": 4187,
      "break": 4188,
      "Christi": 4189,
      "envisaged": 4190,
      "obstacles": 4191,
      "accepted": 4192,
      "Euratom": 4193,
      "__": 4194,
      "jur": 4195,
      "……": 4196,
      "ancing": 4197,
      "excessive": 4198,
      "apan": 4199,
      "Stat": 4200,
      "Stability": 4201,
      "mail": 4202,
      "undertaken": 4203,
      "approxim": 4204,
      "settlement": 4205,
      "accounting": 4206,
      "host": 4207,
      "closed": 4208,
      "Although": 4209,
      "Working": 4210,
      "choice": 4211,
      "addressed": 4212,
      "discussed": 4213,
      "burden": 4214,
      "broadcas": 4215,
      "minorities": 4216,
      "leave": 4217,
      "POINT": 4218,
      "implications": 4219,
      "Czech": 4220,
      "barriers": 4221,
      "Directives": 4222,
      "66": 4223,
      "Follow": 4224,
      "Jos": 4225,
      "Jean": 4226,
      "Mic": 4227,
      "NA": 4228,
      "duration": 4229,
      "mor": 4230,
      "sched": 4231,
      "tren": 4232,
      "turn": 4233,
      "waters": 4234,
      "ics": 4235,
      "deg": 4236,
      "unemployment": 4237,
      "extra": 4238,
      "except": 4239,
      "diplom": 4240,
      "quo": 4241,
      "fores": 4242,
      "disabled": 4243,
      "orders": 4244,
      "And": 4245,
      "initial": 4246,
      "involve": 4247,
      "calling": 4248,
      "banks": 4249,
      "Resolution": 4250,
      "territorial": 4251,
      "Points": 4252,
      "delegated": 4253,
      "preced": 4254,
      "sensi": 4255,
      "languages": 4256,
      "adverti": 4257,
      "reply": 4258,
      "accidents": 4259,
      "deadline": 4260,
      "Moreover": 4261,
      "tackle": 4262,
      "Moroc": 4263,
      "innovative": 4264,
      "025": 4265,
      "59": 4266,
      "79": 4267,
      "Eas": 4268,
      "Functioning": 4269,
      "HIV": 4270,
      "La": 4271,
      "dy": 4272,
      "ki": 4273,
      "rac": 4274,
      "sory": 4275,
      "estern": 4276,
      "conn": 4277,
      "conciliation": 4278,
      "pol": 4279,
      "version": 4280,
      "qui": 4281,
      "near": 4282,
      "cooperate": 4283,
      "disse": 4284,
      "disease": 4285,
      "funded": 4286,
      "critical": 4287,
      "factor": 4288,
      "Struc": 4289,
      "Monday": 4290,
      "investigations": 4291,
      "collection": 4292,
      "precise": 4293,
      "modified": 4294,
      "traditional": 4295,
      "patients": 4296,
      "treated": 4297,
      "alleged": 4298,
      "qualified": 4299,
      "forthcoming": 4300,
      "SEC": 4301,
      "Techn": 4302,
      "aud": 4303,
      "tan": 4304,
      "v01": 4305,
      "wine": 4306,
      "ange": 4307,
      "enjo": 4308,
      "offe": 4309,
      "arising": 4310,
      "seen": 4311,
      "oph": 4312,
      "shared": 4313,
      "moder": 4314,
      "weak": 4315,
      "foot": 4316,
      "disp": 4317,
      "compared": 4318,
      "aily": 4319,
      "regulated": 4320,
      "Funds": 4321,
      "substanti": 4322,
      "attach": 4323,
      "placing": 4324,
      "Recalls": 4325,
      "drawing": 4326,
      "demands": 4327,
      "dealing": 4328,
      "prisoners": 4329,
      "adapt": 4330,
      "exceptional": 4331,
      "estimated": 4332,
      "British": 4333,
      "influence": 4334,
      "Asia": 4335,
      "TFEU": 4336,
      "scrutiny": 4337,
      "A7": 4338,
      "Est": 4339,
      "GM": 4340,
      "Takes": 4341,
      "bl": 4342,
      "crop": 4343,
      "dated": 4344,
      "rul": 4345,
      "tro": 4346,
      "thres": 4347,
      "almost": 4348,
      "item": 4349,
      "assu": 4350,
      "outhern": 4351,
      "suitable": 4352,
      "concept": 4353,
      "cipl": 4354,
      "loo": 4355,
      "core": 4356,
      "trial": 4357,
      "ureau": 4358,
      "gradu": 4359,
      "useful": 4360,
      "qualifications": 4361,
      "ships": 4362,
      "mainly": 4363,
      "Deleg": 4364,
      "dependent": 4365,
      "mandatory": 4366,
      "freedoms": 4367,
      "attacks": 4368,
      "sale": 4369,
      "Official": 4370,
      "diction": 4371,
      "launched": 4372,
      "PSE": 4373,
      "components": 4374,
      "Koso": 4375,
      "fixed": 4376,
      "57": 4377,
      "Bu": 4378,
      "Japan": 4379,
      "Kore": 4380,
      "Pak": 4381,
      "Treaties": 4382,
      "nation": 4383,
      "pm": 4384,
      "wo": 4385,
      "ya": 4386,
      "ening": 4387,
      "isa": 4388,
      "armed": 4389,
      "iling": 4390,
      "defic": 4391,
      "apons": 4392,
      "kept": 4393,
      "minim": 4394,
      "margin": 4395,
      "entities": 4396,
      "compul": 4397,
      "incid": 4398,
      "balanced": 4399,
      "factors": 4400,
      "interested": 4401,
      "farming": 4402,
      "negotiating": 4403,
      "bank": 4404,
      "leader": 4405,
      "contributions": 4406,
      "Peti": 4407,
      "stuffs": 4408,
      "intenance": 4409,
      "location": 4410,
      "Implement": 4411,
      "vereign": 4412,
      "Latin": 4413,
      "Afghanistan": 4414,
      "Irish": 4415,
      "José": 4416,
      "Eastern": 4417,
      "Pakistan": 4418,
      "61": 4419,
      "DEC": 4420,
      "EA": 4421,
      "Gal": 4422,
      "Gaz": 4423,
      "HO": 4424,
      "Mol": 4425,
      "Sing": 4426,
      "Tit": 4427,
      "Your": 4428,
      "mach": 4429,
      "ino": 4430,
      "oul": 4431,
      "prosec": 4432,
      "ches": 4433,
      "chain": 4434,
      "load": 4435,
      "tured": 4436,
      "earlier": 4437,
      "discipl": 4438,
      "saving": 4439,
      "marks": 4440,
      "competen": 4441,
      "processes": 4442,
      "indicators": 4443,
      "identity": 4444,
      "extended": 4445,
      "accordingly": 4446,
      "skills": 4447,
      "diovisual": 4448,
      "Super": 4449,
      "namely": 4450,
      "Prime": 4451,
      "exception": 4452,
      "Sweden": 4453,
      "hours": 4454,
      "accessible": 4455,
      "Lithuania": 4456,
      "confirmed": 4457,
      "degree": 4458,
      "compulsory": 4459,
      ")?": 4460,
      "Ara": 4461,
      "Cri": 4462,
      "RO": 4463,
      "gg": 4464,
      "hous": 4465,
      "ired": 4466,
      "pu": 4467,
      "pred": 4468,
      "anian": 4469,
      "reci": 4470,
      "atti": 4471,
      "argu": 4472,
      "liability": 4473,
      "maintenance": 4474,
      "percent": 4475,
      "grants": 4476,
      "partner": 4477,
      "economies": 4478,
      "applies": 4479,
      "strongly": 4480,
      "maintaining": 4481,
      "challenge": 4482,
      "Budgetary": 4483,
      "described": 4484,
      "absence": 4485,
      "flexibility": 4486,
      "interpretation": 4487,
      "micro": 4488,
      "Belgium": 4489,
      "Austria": 4490,
      "coherent": 4491,
      "doub": 4492,
      "Annual": 4493,
      "Croati": 4494,
      "Title": 4495,
      "Cub": 4496,
      "Def": 4497,
      "HS": 4498,
      "Other": 4499,
      "Tour": 4500,
      "band": 4501,
      "rem": 4502,
      "art": 4503,
      "itage": 4504,
      "absten": 4505,
      "sovereign": 4506,
      "minate": 4507,
      "serve": 4508,
      "monetary": 4509,
      "mitted": 4510,
      "programming": 4511,
      "generation": 4512,
      "expect": 4513,
      "receiving": 4514,
      "centre": 4515,
      "continuing": 4516,
      "statistical": 4517,
      "minority": 4518,
      "Lux": 4519,
      "intellectual": 4520,
      "findings": 4521,
      "exclusive": 4522,
      "hazardous": 4523,
      "friend": 4524,
      "advertising": 4525,
      "012": 4526,
      "52": 4527,
      "CON": 4528,
      "ET": 4529,
      "Ni": 4530,
      "Qu": 4531,
      "San": 4532,
      "dest": 4533,
      "flood": 4534,
      "gl": 4535,
      "nu": 4536,
      "rs": 4537,
      "sport": 4538,
      "enn": 4539,
      "row": 4540,
      "asks": 4541,
      "bear": 4542,
      "seems": 4543,
      "option": 4544,
      "adic": 4545,
      "veri": 4546,
      "comed": 4547,
      "tric": 4548,
      "illing": 4549,
      "minal": 4550,
      "phen": 4551,
      "casion": 4552,
      "itiz": 4553,
      "channel": 4554,
      "generally": 4555,
      "encouraging": 4556,
      "designated": 4557,
      "constitutes": 4558,
      "Poli": 4559,
      "discussion": 4560,
      "biodiversity": 4561,
      "North": 4562,
      "clean": 4563,
      "www": 4564,
      "inspection": 4565,
      "macro": 4566,
      "subsequent": 4567,
      "situations": 4568,
      "compromise": 4569,
      "geographical": 4570,
      "sensitive": 4571,
      "Structural": 4572,
      "63": 4573,
      "Citiz": 4574,
      "GDP": 4575,
      "IF": 4576,
      "Mus": 4577,
      "Sal": 4578,
      "oration": 4579,
      "siz": 4580,
      "heav": 4581,
      "iring": 4582,
      "imm": 4583,
      "quar": 4584,
      "ham": 4585,
      "weapons": 4586,
      "entially": 4587,
      "airport": 4588,
      "tionality": 4589,
      "occasion": 4590,
      "1997": 4591,
      "ALE": 4592,
      "sustainability": 4593,
      "taxation": 4594,
      "actively": 4595,
      "protected": 4596,
      "enhanced": 4597,
      "Underlines": 4598,
      "granting": 4599,
      "keeping": 4600,
      "AIDS": 4601,
      "Marie": 4602,
      "awarded": 4603,
      "urities": 4604,
      "Hungary": 4605,
      "corresponding": 4606,
      "recycl": 4607,
      "spirit": 4608,
      "forese": 4609,
      "Luxem": 4610,
      ".(": 4611,
      "53": 4612,
      "69": 4613,
      "Culture": 4614,
      "Er": 4615,
      "Ri": 4616,
      "bro": 4617,
      "bab": 4618,
      "bann": 4619,
      "habit": 4620,
      "latter": 4621,
      "ona": 4622,
      "ofuel": 4623,
      "sibly": 4624,
      "ilst": 4625,
      "severe": 4626,
      "compl": 4627,
      "quick": 4628,
      "quiry": 4629,
      "ished": 4630,
      "understand": 4631,
      "guid": 4632,
      "Any": 4633,
      "ariat": 4634,
      "considerable": 4635,
      "1996": 4636,
      "struct": 4637,
      "ordinary": 4638,
      "Exec": 4639,
      "identification": 4640,
      "olume": 4641,
      "welcomed": 4642,
      "truction": 4643,
      "Recital": 4644,
      "engine": 4645,
      "universal": 4646,
      "cluding": 4647,
      "eligible": 4648,
      "Israeli": 4649,
      "drafts": 4650,
      "flexible": 4651,
      "histor": 4652,
      "certificate": 4653,
      "Following": 4654,
      "Kosovo": 4655,
      "Tourism": 4656,
      "Luxembourg": 4657,
      "500": 4658,
      "81": 4659,
      "Could": 4660,
      "Educ": 4661,
      "Fir": 4662,
      "MA": 4663,
      "UTION": 4664,
      "cli": 4665,
      "fis": 4666,
      "lit": 4667,
      "ps": 4668,
      "rich": 4669,
      "below": 4670,
      "mere": 4671,
      "code": 4672,
      "ECB": 4673,
      "series": 4674,
      "COMM": 4675,
      "mix": 4676,
      "recognise": 4677,
      "Finally": 4678,
      "introducing": 4679,
      "places": 4680,
      "improvements": 4681,
      "People": 4682,
      "Without": 4683,
      "threats": 4684,
      "check": 4685,
      "confidence": 4686,
      "OLAF": 4687,
      "losses": 4688,
      "Constitutional": 4689,
      "prepare": 4690,
      "CFSP": 4691,
      "P6_TA": 4692,
      "transitional": 4693,
      "tourism": 4694,
      "Recommendation": 4695,
      "Vote": 4696,
      "(+": 4697,
      "Si": 4698,
      "Sud": 4699,
      "UC": 4700,
      "Year": 4701,
      "daily": 4702,
      "ets": 4703,
      "kers": 4704,
      "pil": 4705,
      "ually": 4706,
      "win": 4707,
      "wit": 4708,
      "inser": 4709,
      "reim": 4710,
      "title": 4711,
      "orient": 4712,
      "ali": 4713,
      "room": 4714,
      "acco": 4715,
      "units": 4716,
      "Stand": 4717,
      "tative": 4718,
      "ambi": 4719,
      "class": 4720,
      "regarded": 4721,
      "facing": 4722,
      "Ass": 4723,
      "credi": 4724,
      "numer": 4725,
      "contrary": 4726,
      "Polish": 4727,
      "violation": 4728,
      "taxes": 4729,
      "Ministers": 4730,
      "preventing": 4731,
      "stop": 4732,
      "stock": 4733,
      "associations": 4734,
      "handling": 4735,
      "element": 4736,
      "notification": 4737,
      "Regions": 4738,
      "Service": 4739,
      "candidates": 4740,
      "repeated": 4741,
      "Institute": 4742,
      "dangerous": 4743,
      "beginning": 4744,
      "MENT": 4745,
      "declared": 4746,
      "Egypt": 4747,
      "modern": 4748,
      "reimbur": 4749,
      "51": 4750,
      "64": 4751,
      "Cor": 4752,
      "Emp": 4753,
      "Mac": 4754,
      "map": 4755,
      "mus": 4756,
      "pill": 4757,
      "ured": 4758,
      "volume": 4759,
      "online": 4760,
      "enced": 4761,
      "enough": 4762,
      "eradic": 4763,
      "outer": 4764,
      "beha": 4765,
      "cel": 4766,
      "seven": 4767,
      "sha": 4768,
      "dign": 4769,
      "motion": 4770,
      "recall": 4771,
      "look": 4772,
      "prise": 4773,
      "accur": 4774,
      "undertake": 4775,
      "ensus": 4776,
      "marked": 4777,
      "organic": 4778,
      "elected": 4779,
      "structures": 4780,
      "build": 4781,
      "holds": 4782,
      "toral": 4783,
      "industries": 4784,
      "penalty": 4785,
      "website": 4786,
      "repeal": 4787,
      "patent": 4788,
      "Liberties": 4789,
      "Tunis": 4790,
      "Gaza": 4791,
      "Moldo": 4792,
      "percentage": 4793,
      "Education": 4794,
      ".)": 4795,
      "Air": 4796,
      "Each": 4797,
      "HA": 4798,
      "LA": 4799,
      "gap": 4800,
      "send": 4801,
      "sports": 4802,
      "tabled": 4803,
      "want": 4804,
      "redi": 4805,
      "enders": 4806,
      "attr": 4807,
      "dele": 4808,
      "depos": 4809,
      "conta": 4810,
      "atell": 4811,
      "abuse": 4812,
      "immigrants": 4813,
      "managed": 4814,
      "Instru": 4815,
      "goals": 4816,
      "willing": 4817,
      "interoper": 4818,
      "owing": 4819,
      "plicit": 4820,
      "changed": 4821,
      "Presidents": 4822,
      "increases": 4823,
      "affairs": 4824,
      "Islam": 4825,
      "idea": 4826,
      "availability": 4827,
      "represents": 4828,
      "corpor": 4829,
      "supplies": 4830,
      "distor": 4831,
      "constitutional": 4832,
      "populations": 4833,
      "appeal": 4834,
      "notified": 4835,
      "emphasis": 4836,
      "exploitation": 4837,
      "permitted": 4838,
      "selection": 4839,
      "wishes": 4840,
      "Verts": 4841,
      "revised": 4842,
      "neighbouring": 4843,
      "disasters": 4844,
      "rejected": 4845,
      "Network": 4846,
      "tariff": 4847,
      "Denmark": 4848,
      "Executive": 4849,
      "014": 4850,
      "Bas": 4851,
      "Bos": 4852,
      "During": 4853,
      "Gar": 4854,
      "Journal": 4855,
      "Mill": 4856,
      "Oper": 4857,
      "ahead": 4858,
      "dro": 4859,
      "happ": 4860,
      "tool": 4861,
      "ico": 4862,
      "belong": 4863,
      "devices": 4864,
      "unit": 4865,
      "teach": 4866,
      "whom": 4867,
      "dian": 4868,
      "viour": 4869,
      "Inte": 4870,
      "Party": 4871,
      "lav": 4872,
      "minutes": 4873,
      "spending": 4874,
      "voted": 4875,
      "destruction": 4876,
      "acknowled": 4877,
      "judgment": 4878,
      "reaching": 4879,
      "peaceful": 4880,
      "heritage": 4881,
      "sufficiently": 4882,
      "favourable": 4883,
      "contracting": 4884,
      "APH": 4885,
      "medicines": 4886,
      "ratification": 4887,
      "After": 4888,
      "television": 4889,
      "schools": 4890,
      "Meet": 4891,
      "liberalisation": 4892,
      "Ab": 4893,
      "Sci": 4894,
      "Whe": 4895,
      "ball": 4896,
      "bul": 4897,
      "ead": 4898,
      "fies": 4899,
      "je": 4900,
      "paper": 4901,
      "án": 4902,
      "ini": 4903,
      "today": 4904,
      "contra": 4905,
      "explicit": 4906,
      "ames": 4907,
      "auton": 4908,
      "minary": 4909,
      "goal": 4910,
      "spent": 4911,
      "disabilities": 4912,
      "underlines": 4913,
      "Regrets": 4914,
      "incenti": 4915,
      "anni": 4916,
      "itious": 4917,
      "respond": 4918,
      "imported": 4919,
      "1990": 4920,
      "closer": 4921,
      "Express": 4922,
      "Ministry": 4923,
      "consistency": 4924,
      "students": 4925,
      "facilitating": 4926,
      "ski": 4927,
      "covering": 4928,
      "sales": 4929,
      "cidal": 4930,
      "driving": 4931,
      "sentence": 4932,
      "Portugu": 4933,
      "articles": 4934,
      "Georg": 4935,
      "Gender": 4936,
      "withdrawal": 4937,
      "derogation": 4938,
      "Phil": 4939,
      "Morocco": 4940,
      "enjoy": 4941,
      "offered": 4942,
      "fiscal": 4943,
      "behaviour": 4944,
      "Instrument": 4945,
      "autonom": 4946,
      "54": 4947,
      "Pact": 4948,
      "Rural": 4949,
      "Zim": 4950,
      "aking": 4951,
      "bound": 4952,
      "tory": 4953,
      "uted": 4954,
      "vak": 4955,
      "enabling": 4956,
      "attain": 4957,
      "left": 4958,
      "terinary": 4959,
      "optim": 4960,
      "advice": 4961,
      "older": 4962,
      "trust": 4963,
      "fications": 4964,
      "gos": 4965,
      "transit": 4966,
      "cycle": 4967,
      "sides": 4968,
      "While": 4969,
      "cars": 4970,
      "Chin": 4971,
      "ify": 4972,
      "personnel": 4973,
      "facility": 4974,
      "biofuel": 4975,
      "Act": 4976,
      "europa": 4977,
      "olute": 4978,
      "investigate": 4979,
      "speech": 4980,
      "flag": 4981,
      "Therefore": 4982,
      "instead": 4983,
      "safeguards": 4984,
      "OLUTION": 4985,
      "SCE": 4986,
      "manufacturers": 4987,
      "disaster": 4988,
      "AAAAAAAAAAAAAAAAAAAAAAAAAAAAAAAAAAAAAAAAAAAAAAAAAAAAAAAAAAAAAAAA": 4989,
      "streaming": 4990,
      "RESOLUTION": 4991,
      "calculated": 4992,
      "legitimate": 4993,
      "Kyoto": 4994,
      "journalists": 4995,
      "Political": 4996,
      "Emphas": 4997,
      "pillar": 4998,
      "Portuguese": 4999,
      "BE": 5000,
      "Dan": 5001,
      "Dut": 5002,
      "Hel": 5003,
      "Ms": 5004,
      "OSCE": 5005,
      "bit": 5006,
      "feder": 5007,
      "hu": 5008,
      "hun": 5009,
      "hop": 5010,
      "ane": 5011,
      "remed": 5012,
      "tise": 5013,
      "items": 5014,
      "conv": 5015,
      "conservation": 5016,
      "rain": 5017,
      "wider": 5018,
      "recalls": 5019,
      "possibilities": 5020,
      "possibly": 5021,
      "finally": 5022,
      "commod": 5023,
      "doing": 5024,
      "foster": 5025,
      "2015": 5026,
      "aircraft": 5027,
      "whereby": 5028,
      "techni": 5029,
      "join": 5030,
      "educational": 5031,
      "played": 5032,
      "original": 5033,
      "reliable": 5034,
      "notify": 5035,
      "pollut": 5036,
      "transition": 5037,
      "Slovak": 5038,
      "ambitious": 5039,
      "functions": 5040,
      "petition": 5041,
      "extremely": 5042,
      "abstentions": 5043,
      "friendly": 5044,
      "First": 5045,
      "Meeting": 5046,
      "Expresses": 5047,
      "Chinese": 5048,
      "1a": 5049,
      "But": 5050,
      "PT": 5051,
      "Rome": 5052,
      "RAPH": 5053,
      "TV": 5054,
      "Val": 5055,
      "ibility": 5056,
      "smo": 5057,
      "uter": 5058,
      "inde": 5059,
      "indirect": 5060,
      "ands": 5061,
      "entail": 5062,
      "stations": 5063,
      "conven": 5064,
      "unacceptable": 5065,
      "urgency": 5066,
      "ago": 5067,
      "excluded": 5068,
      "los": 5069,
      "loans": 5070,
      "audiovisual": 5071,
      "forec": 5072,
      "accum": 5073,
      "marking": 5074,
      "producing": 5075,
      "Those": 5076,
      "TEE": 5077,
      "Agenda": 5078,
      "Romanian": 5079,
      "See": 5080,
      "discussions": 5081,
      "widely": 5082,
      "sense": 5083,
      "emphasises": 5084,
      "adjustment": 5085,
      "AGRAPH": 5086,
      "PARAGRAPH": 5087,
      "Invest": 5088,
      "complaints": 5089,
      "EGF": 5090,
      "boost": 5091,
      "juris": 5092,
      "Moldova": 5093,
      "incentives": 5094,
      "Emphasises": 5095,
      "Area": 5096,
      "Fer": 5097,
      "IP": 5098,
      "Some": 5099,
      "Written": 5100,
      "dat": 5101,
      "ig": 5102,
      "las": 5103,
      "rum": 5104,
      "instruc": 5105,
      "atlantic": 5106,
      "ingredi": 5107,
      "sil": 5108,
      "prosp": 5109,
      "bel": 5110,
      "ada": 5111,
      "mod": 5112,
      "prescri": 5113,
      "ighting": 5114,
      "intervention": 5115,
      "proposing": 5116,
      "fire": 5117,
      "links": 5118,
      "issuing": 5119,
      "1995": 5120,
      "251": 5121,
      "farm": 5122,
      "representation": 5123,
      "consent": 5124,
      "Liby": 5125,
      "offences": 5126,
      "ASP": 5127,
      "discuss": 5128,
      "diox": 5129,
      "biocidal": 5130,
      "881": 5131,
      "fuels": 5132,
      "estimates": 5133,
      "infringements": 5134,
      "falling": 5135,
      "comparison": 5136,
      "Discus": 5137,
      "testing": 5138,
      "Baltic": 5139,
      "controlled": 5140,
      "Petitions": 5141,
      "Single": 5142,
      "competences": 5143,
      "Croatia": 5144,
      "Defence": 5145,
      "nutri": 5146,
      "Citizens": 5147,
      "quickly": 5148,
      "016": 5149,
      "84": 5150,
      "Equality": 5151,
      "FA": 5152,
      "Pres": 5153,
      "fem": 5154,
      "late": 5155,
      "mom": 5156,
      "tur": 5157,
      "ura": 5158,
      "zo": 5159,
      "arily": 5160,
      "stay": 5161,
      "acted": 5162,
      "conference": 5163,
      "unfair": 5164,
      "resource": 5165,
      "sharing": 5166,
      "irregular": 5167,
      "irrespective": 5168,
      "impose": 5169,
      "exports": 5170,
      "derly": 5171,
      "partial": 5172,
      "quid": 5173,
      "istance": 5174,
      "nationality": 5175,
      "otherwise": 5176,
      "Regulations": 5177,
      "fulf": 5178,
      "persist": 5179,
      "timetable": 5180,
      "big": 5181,
      "TER": 5182,
      "factory": 5183,
      "sectoral": 5184,
      "represented": 5185,
      "assessments": 5186,
      "foods": 5187,
      "Cohesion": 5188,
      "examination": 5189,
      "integrity": 5190,
      "distinc": 5191,
      "Solid": 5192,
      "encourages": 5193,
      "forwarded": 5194,
      "causes": 5195,
      "strengthened": 5196,
      "abilisation": 5197,
      "advantages": 5198,
      "Belgian": 5199,
      "Freedoms": 5200,
      "quiries": 5201,
      "babwe": 5202,
      "Zimbabwe": 5203,
      "%,": 5204,
      "019": 5205,
      "72": 5206,
      "Hans": 5207,
      "Lan": 5208,
      "Mer": 5209,
      "Nat": 5210,
      "Op": 5211,
      "Yu": 5212,
      "ba": 5213,
      "hagen": 5214,
      "lations": 5215,
      "retail": 5216,
      "alone": 5217,
      "atal": 5218,
      "conferred": 5219,
      "radi": 5220,
      "lifer": 5221,
      "tering": 5222,
      "ticip": 5223,
      "whilst": 5224,
      "pring": 5225,
      "cancer": 5226,
      "Produc": 5227,
      "budgets": 5228,
      "apparen": 5229,
      "frame": 5230,
      "pending": 5231,
      "faced": 5232,
      "debates": 5233,
      "allows": 5234,
      "Grow": 5235,
      "missions": 5236,
      "seriously": 5237,
      "Monitor": 5238,
      "enhancing": 5239,
      "LEG": 5240,
      "torture": 5241,
      "nesses": 5242,
      "expertise": 5243,
      "pestic": 5244,
      "Barro": 5245,
      "Iranian": 5246,
      "shows": 5247,
      "Prize": 5248,
      "execution": 5249,
      "incorporated": 5250,
      "Balk": 5251,
      "Malta": 5252,
      "inspections": 5253,
      "Sloven": 5254,
      "consultations": 5255,
      "suffering": 5256,
      "Burma": 5257,
      "attempt": 5258,
      "beneficiaries": 5259,
      "substantially": 5260,
      "attached": 5261,
      "Delegation": 5262,
      "Arab": 5263,
      "outermost": 5264,
      "Dutch": 5265,
      "datab": 5266,
      "Ale": 5267,
      "Climate": 5268,
      "Du": 5269,
      "Mad": 5270,
      "OS": 5271,
      "Time": 5272,
      "Western": 5273,
      "ax": 5274,
      "aint": 5275,
      "bacco": 5276,
      "city": 5277,
      "fre": 5278,
      "flight": 5279,
      "gres": 5280,
      "gies": 5281,
      "lor": 5282,
      "pun": 5283,
      "za": 5284,
      "oni": 5285,
      "iss": 5286,
      "tobacco": 5287,
      "deem": 5288,
      "ficial": 5289,
      "internet": 5290,
      "stimul": 5291,
      "elderly": 5292,
      "Anne": 5293,
      "affor": 5294,
      "representing": 5295,
      "Mrs": 5296,
      "contains": 5297,
      "offence": 5298,
      "discriminatory": 5299,
      "instance": 5300,
      "drivers": 5301,
      "preparations": 5302,
      "ratified": 5303,
      "certification": 5304,
      "counterfe": 5305,
      "convergence": 5306,
      "Federation": 5307,
      "deficit": 5308,
      "sized": 5309,
      "Sudan": 5310,
      "Discussion": 5311,
      ")).": 5312,
      "018": 5313,
      "Are": 5314,
      "Mil": 5315,
      "Ste": 5316,
      "VE": 5317,
      "Watch": 5318,
      "bri": 5319,
      "eties": 5320,
      "foun": 5321,
      "mits": 5322,
      "usu": 5323,
      "ía": 5324,
      "insufficient": 5325,
      "eration": 5326,
      "ermen": 5327,
      "oral": 5328,
      "stable": 5329,
      "promp": 5330,
      "bearing": 5331,
      "depart": 5332,
      "resto": 5333,
      "ceiling": 5334,
      "team": 5335,
      "ague": 5336,
      "quot": 5337,
      "user": 5338,
      "usal": 5339,
      "Initi": 5340,
      "words": 5341,
      "interim": 5342,
      "entity": 5343,
      "requiring": 5344,
      "presentation": 5345,
      "Item": 5346,
      "Why": 5347,
      "White": 5348,
      "Asks": 5349,
      "facturing": 5350,
      "offices": 5351,
      "participants": 5352,
      "Finland": 5353,
      "Forum": 5354,
      "deterior": 5355,
      "refers": 5356,
      "tisation": 5357,
      "stronger": 5358,
      "manufacturing": 5359,
      "bringing": 5360,
      "eva": 5361,
      "appears": 5362,
      "reflect": 5363,
      "Hungarian": 5364,
      "subsequently": 5365,
      "concentration": 5366,
      "derived": 5367,
      "coastal": 5368,
      "solely": 5369,
      "genetically": 5370,
      "becoming": 5371,
      "toxic": 5372,
      "Korea": 5373,
      "COMMIT": 5374,
      "Integr": 5375,
      "Philip": 5376,
      "Investment": 5377,
      "jurisdiction": 5378,
      "liferation": 5379,
      "Growth": 5380,
      "quotas": 5381,
      "'.": 5382,
      "015": 5383,
      "Bra": 5384,
      "Copen": 5385,
      "Mu": 5386,
      "Mex": 5387,
      "SIS": 5388,
      "Van": 5389,
      "destin": 5390,
      "ible": 5391,
      "nd": 5392,
      "vations": 5393,
      "wage": 5394,
      "ón": 5395,
      "inking": 5396,
      "aculture": 5397,
      "actually": 5398,
      "detain": 5399,
      "raising": 5400,
      "unanim": 5401,
      "liquid": 5402,
      "chi": 5403,
      "porters": 5404,
      "weight": 5405,
      "soil": 5406,
      "endors": 5407,
      "lock": 5408,
      "licence": 5409,
      "Reiterates": 5410,
      "marily": 5411,
      "phone": 5412,
      "provider": 5413,
      "specify": 5414,
      "highligh": 5415,
      "fishermen": 5416,
      "assessing": 5417,
      "negotiated": 5418,
      "recognises": 5419,
      "putting": 5420,
      "attack": 5421,
      "USA": 5422,
      "Leban": 5423,
      "extending": 5424,
      "Recogn": 5425,
      "determination": 5426,
      "Posi": 5427,
      "delegations": 5428,
      "posts": 5429,
      "justification": 5430,
      "respectively": 5431,
      "selected": 5432,
      "validity": 5433,
      "occurred": 5434,
      "drug": 5435,
      "Geor": 5436,
      "cells": 5437,
      "appointment": 5438,
      "definitions": 5439,
      "Administrative": 5440,
      "Christian": 5441,
      "connected": 5442,
      "structuring": 5443,
      "numerous": 5444,
      "Solidarity": 5445,
      "Monitoring": 5446,
      "COMMITTEE": 5447,
      "Copenhagen": 5448,
      "Aid": 5449,
      "Case": 5450,
      "card": 5451,
      "fers": 5452,
      "hind": 5453,
      "sof": 5454,
      "zy": 5455,
      "inery": 5456,
      "forcing": 5457,
      "accompany": 5458,
      "degra": 5459,
      "convic": 5460,
      "ligence": 5461,
      "sement": 5462,
      "ops": 5463,
      "cities": 5464,
      "regret": 5465,
      "regrets": 5466,
      "coal": 5467,
      "cohol": 5468,
      "minated": 5469,
      "vessel": 5470,
      "processed": 5471,
      "largest": 5472,
      "allowances": 5473,
      "banking": 5474,
      "pursue": 5475,
      "expen": 5476,
      "participating": 5477,
      "attend": 5478,
      "combined": 5479,
      "pensions": 5480,
      "restrictive": 5481,
      "speak": 5482,
      "science": 5483,
      "proportionality": 5484,
      "Barcel": 5485,
      "quantities": 5486,
      "exemption": 5487,
      "supplementary": 5488,
      "Objec": 5489,
      "nevertheless": 5490,
      "copy": 5491,
      "Statute": 5492,
      "ophob": 5493,
      "ennium": 5494,
      "complaint": 5495,
      "pilot": 5496,
      "interoperability": 5497,
      "corporate": 5498,
      "Millennium": 5499,
      "female": 5500,
      "moment": 5501,
      "freight": 5502,
      "Barcelona": 5503,
      "BA": 5504,
      "IG": 5505,
      "Over": 5506,
      "VII": 5507,
      "duly": 5508,
      "fruit": 5509,
      "gis": 5510,
      "ko": 5511,
      "spo": 5512,
      "treaty": 5513,
      "vast": 5514,
      "relative": 5515,
      "isations": 5516,
      "unable": 5517,
      "resh": 5518,
      "liers": 5519,
      "emb": 5520,
      "options": 5521,
      "Europol": 5522,
      "exact": 5523,
      "dump": 5524,
      "wered": 5525,
      "redund": 5526,
      "sphere": 5527,
      "ventive": 5528,
      "serv": 5529,
      "ownership": 5530,
      "primarily": 5531,
      "systematic": 5532,
      "Anti": 5533,
      "Change": 5534,
      "electoral": 5535,
      "irds": 5536,
      "negotiation": 5537,
      "Strateg": 5538,
      "investors": 5539,
      "opened": 5540,
      "receip": 5541,
      "civilian": 5542,
      "completion": 5543,
      "globalisation": 5544,
      "amongst": 5545,
      "warn": 5546,
      "packaging": 5547,
      "Support": 5548,
      "multiannual": 5549,
      "quantity": 5550,
      "incorporate": 5551,
      "EFA": 5552,
      "forests": 5553,
      "reserve": 5554,
      "Plenary": 5555,
      "Prof": 5556,
      "citizenship": 5557,
      "contributing": 5558,
      "dynam": 5559,
      "nationally": 5560,
      "Criminal": 5561,
      "immunity": 5562,
      "recycling": 5563,
      "convinc": 5564,
      "Position": 5565,
      "020": 5566,
      "017": 5567,
      "Data": 5568,
      "Jose": 5569,
      "NR": 5570,
      "Ra": 5571,
      "Sust": 5572,
      "Stock": 5573,
      "Tim": 5574,
      "catch": 5575,
      "jan": 5576,
      "son": 5577,
      "vacc": 5578,
      "inadequate": 5579,
      "inquiry": 5580,
      "reaffir": 5581,
      "restructuring": 5582,
      "oring": 5583,
      "ases": 5584,
      "forum": 5585,
      "sts": 5586,
      "sures": 5587,
      "suffe": 5588,
      "abol": 5589,
      "ades": 5590,
      "Eurostat": 5591,
      "exists": 5592,
      "noise": 5593,
      "diff": 5594,
      "apers": 5595,
      "commission": 5596,
      "spread": 5597,
      "prene": 5598,
      "declar": 5599,
      "EPA": 5600,
      "gives": 5601,
      "book": 5602,
      "residents": 5603,
      "changing": 5604,
      "1992": 5605,
      "highest": 5606,
      "furthermore": 5607,
      "expects": 5608,
      "violent": 5609,
      "profit": 5610,
      "worldwide": 5611,
      "encouraged": 5612,
      "EDF": 5613,
      "engage": 5614,
      "remaining": 5615,
      "determining": 5616,
      "restricted": 5617,
      "Comp": 5618,
      "customers": 5619,
      "Ministerial": 5620,
      "remove": 5621,
      "comparable": 5622,
      "simplified": 5623,
      "advance": 5624,
      "confidentiality": 5625,
      "installations": 5626,
      "classification": 5627,
      "harmful": 5628,
      "University": 5629,
      "quota": 5630,
      "housing": 5631,
      "dignity": 5632,
      "biofuels": 5633,
      ",\"": 5634,
      "CS": 5635,
      "FIN": 5636,
      "Non": 5637,
      "PHS": 5638,
      "Sak": 5639,
      "bes": 5640,
      "fit": 5641,
      "function": 5642,
      "ker": 5643,
      "nit": 5644,
      "psy": 5645,
      "satell": 5646,
      "reconstruction": 5647,
      "tile": 5648,
      "encies": 5649,
      "tionary": 5650,
      "veterinary": 5651,
      "search": 5652,
      "oples": 5653,
      "explan": 5654,
      "plat": 5655,
      "composition": 5656,
      "moved": 5657,
      "logy": 5658,
      "manag": 5659,
      "tude": 5660,
      "wording": 5661,
      "submission": 5662,
      "preventive": 5663,
      "productive": 5664,
      "tene": 5665,
      "ITS": 5666,
      "securities": 5667,
      "CO2": 5668,
      "Child": 5669,
      "numbers": 5670,
      "assessed": 5671,
      "Doha": 5672,
      "consensus": 5673,
      "indication": 5674,
      "obliged": 5675,
      "Greens": 5676,
      "refuse": 5677,
      "lingu": 5678,
      "Neighbour": 5679,
      "notice": 5680,
      "continuous": 5681,
      "Syria": 5682,
      "emerging": 5683,
      "Supports": 5684,
      "partnerships": 5685,
      "Bulgarian": 5686,
      "leaving": 5687,
      "spectrum": 5688,
      "reinforce": 5689,
      "schedul": 5690,
      "machinery": 5691,
      "predic": 5692,
      "heavy": 5693,
      "Georgia": 5694,
      "gressive": 5695,
      "punish": 5696,
      "deemed": 5697,
      "convinced": 5698,
      "Sustain": 5699,
      "BU": 5700,
      "Bi": 5701,
      "Da": 5702,
      "Har": 5703,
      "MDG": 5704,
      "RA": 5705,
      "Som": 5706,
      "cance": 5707,
      "fear": 5708,
      "hoc": 5709,
      "lu": 5710,
      "sam": 5711,
      "southern": 5712,
      "inj": 5713,
      "ena": 5714,
      "alcohol": 5715,
      "isol": 5716,
      "prov": 5717,
      "behind": 5718,
      "conclu": 5719,
      "rig": 5720,
      "opted": 5721,
      "advis": 5722,
      "ola": 5723,
      "exchanges": 5724,
      "diver": 5725,
      "diversi": 5726,
      "verify": 5727,
      "comments": 5728,
      "Staff": 5729,
      "worth": 5730,
      "2014": 5731,
      "disclosure": 5732,
      "train": 5733,
      "airlines": 5734,
      "partly": 5735,
      "researchers": 5736,
      "foodstuffs": 5737,
      "EURO": 5738,
      "Montene": 5739,
      "Peace": 5740,
      "capacities": 5741,
      "missible": 5742,
      "collected": 5743,
      "Fron": 5744,
      "previously": 5745,
      "Serbia": 5746,
      "starting": 5747,
      "green": 5748,
      "alternatives": 5749,
      "prohibi": 5750,
      "demonstrated": 5751,
      "absolute": 5752,
      "pipe": 5753,
      "extensive": 5754,
      "Geneva": 5755,
      "suggests": 5756,
      "complementary": 5757,
      "component": 5758,
      "Austrian": 5759,
      "flows": 5760,
      "classified": 5761,
      "threshold": 5762,
      "foreseen": 5763,
      "draftsman": 5764,
      "Tunisia": 5765,
      "explicitly": 5766,
      "huge": 5767,
      "CE": 5768,
      "Hu": 5769,
      "Meas": 5770,
      "NI": 5771,
      "RS": 5772,
      "Spe": 5773,
      "STO": 5774,
      "Ti": 5775,
      "aer": 5776,
      "batter": 5777,
      "fur": 5778,
      "hor": 5779,
      "mess": 5780,
      "thous": 5781,
      "island": 5782,
      "arri": 5783,
      "arbit": 5784,
      "stages": 5785,
      "proved": 5786,
      "conventions": 5787,
      "lia": 5788,
      "sell": 5789,
      "shif": 5790,
      "Eurojust": 5791,
      "clarity": 5792,
      "fine": 5793,
      "intra": 5794,
      "doc": 5795,
      "earth": 5796,
      "decreas": 5797,
      "Conclusion": 5798,
      "ensured": 5799,
      "incur": 5800,
      "monito": 5801,
      "sections": 5802,
      "facts": 5803,
      "Interinstitutional": 5804,
      "examined": 5805,
      "ligent": 5806,
      "talks": 5807,
      "geria": 5808,
      "seeks": 5809,
      "ORT": 5810,
      "territories": 5811,
      "addressing": 5812,
      "jointly": 5813,
      "consequently": 5814,
      "analy": 5815,
      "468": 5816,
      "preparing": 5817,
      "suspension": 5818,
      "ICT": 5819,
      "deaths": 5820,
      "history": 5821,
      "coherence": 5822,
      "laugh": 5823,
      "aquaculture": 5824,
      "diplomatic": 5825,
      "crops": 5826,
      "ruling": 5827,
      "savings": 5828,
      "channels": 5829,
      "merely": 5830,
      "Whereas": 5831,
      "techniques": 5832,
      "Yugos": 5833,
      "Barroso": 5834,
      "Slovenia": 5835,
      "Sustainable": 5836,
      "monitored": 5837,
      "BER": 5838,
      "Bureau": 5839,
      "Mc": 5840,
      "Many": 5841,
      "PP": 5842,
      "PV": 5843,
      "Tri": 5844,
      "da": 5845,
      "iary": 5846,
      "km": 5847,
      "leng": 5848,
      "sch": 5849,
      "slaugh": 5850,
      "treaties": 5851,
      "vary": 5852,
      "writ": 5853,
      "wants": 5854,
      "wai": 5855,
      "rees": 5856,
      "town": 5857,
      "arti": 5858,
      "asts": 5859,
      "ulators": 5860,
      "exc": 5861,
      "matically": 5862,
      "usto": 5863,
      "recruit": 5864,
      "cot": 5865,
      "posing": 5866,
      "updated": 5867,
      "ECR": 5868,
      "feas": 5869,
      "airports": 5870,
      "valu": 5871,
      "cash": 5872,
      "establishments": 5873,
      "applicants": 5874,
      "timely": 5875,
      "Maria": 5876,
      "considerations": 5877,
      "employers": 5878,
      "collab": 5879,
      "hope": 5880,
      "Amendments": 5881,
      "capable": 5882,
      "define": 5883,
      "Eng": 5884,
      "recommends": 5885,
      "Work": 5886,
      "restrict": 5887,
      "eliminate": 5888,
      "precau": 5889,
      "delivery": 5890,
      "Manuel": 5891,
      "direction": 5892,
      "adapted": 5893,
      "survey": 5894,
      "satisfactory": 5895,
      "models": 5896,
      "Appro": 5897,
      "vocational": 5898,
      "evaluate": 5899,
      "inflation": 5900,
      "versities": 5901,
      "Paul": 5902,
      "purchase": 5903,
      "Democratic": 5904,
      "season": 5905,
      "phenomen": 5906,
      "shares": 5907,
      "prospects": 5908,
      "Libya": 5909,
      "dioxide": 5910,
      "Strategic": 5911,
      "declarations": 5912,
      "scheduled": 5913,
      "%.": 5914,
      "(\"": 5915,
      "CAR": 5916,
      "MS": 5917,
      "Sen": 5918,
      "bid": 5919,
      "culation": 5920,
      "ey": 5921,
      "ni": 5922,
      "none": 5923,
      "nomin": 5924,
      "util": 5925,
      "youth": 5926,
      "retain": 5927,
      "assigned": 5928,
      "abroad": 5929,
      "division": 5930,
      "Europeans": 5931,
      "plural": 5932,
      "true": 5933,
      "mann": 5934,
      "clin": 5935,
      "prising": 5936,
      "commun": 5937,
      "vene": 5938,
      "discre": 5939,
      "pread": 5940,
      "transfers": 5941,
      "aceu": 5942,
      "sulph": 5943,
      "lawy": 5944,
      "plores": 5945,
      "activis": 5946,
      "153": 5947,
      "visas": 5948,
      "signing": 5949,
      "buted": 5950,
      "princip": 5951,
      "accountability": 5952,
      "resulted": 5953,
      "ordination": 5954,
      "expand": 5955,
      "supplied": 5956,
      "harov": 5957,
      "Level": 5958,
      "designate": 5959,
      "lifelong": 5960,
      "easier": 5961,
      "defenders": 5962,
      "background": 5963,
      "Guidelines": 5964,
      "justify": 5965,
      "Services": 5966,
      "delivered": 5967,
      "suspended": 5968,
      "Norway": 5969,
      "entreprene": 5970,
      "satisfied": 5971,
      "DRC": 5972,
      "arrested": 5973,
      "campaigns": 5974,
      "irable": 5975,
      "tuna": 5976,
      "presidential": 5977,
      "ILO": 5978,
      "P7_TA": 5979,
      "constant": 5980,
      "dispute": 5981,
      "guidance": 5982,
      "historical": 5983,
      "little": 5984,
      "belonging": 5985,
      "ingredients": 5986,
      "Initiative": 5987,
      "Mexico": 5988,
      "highlighted": 5989,
      "Sakharov": 5990,
      "linguistic": 5991,
      "arbitr": 5992,
      ")),": 5993,
      "CH": 5994,
      "Cer": 5995,
      "PC": 5996,
      "Ren": 5997,
      "SE": 5998,
      "fresh": 5999,
      "killed": 6000,
      "swi": 6001,
      "sists": 6002,
      "vit": 6003,
      "zon": 6004,
      "ang": 6005,
      "reh": 6006,
      "referen": 6007,
      "orate": 6008,
      "aler": 6009,
      "proliferation": 6010,
      "liminary": 6011,
      "died": 6012,
      "neu": 6013,
      "aming": 6014,
      "managing": 6015,
      "codecision": 6016,
      "Insists": 6017,
      "formul": 6018,
      "fined": 6019,
      "preliminary": 6020,
      "feel": 6021,
      "complied": 6022,
      "informal": 6023,
      "Contr": 6024,
      "Third": 6025,
      "itig": 6026,
      "cury": 6027,
      "specifications": 6028,
      "beings": 6029,
      "biological": 6030,
      "ception": 6031,
      "surface": 6032,
      "debated": 6033,
      "charged": 6034,
      "ileo": 6035,
      "integral": 6036,
      "correc": 6037,
      "reductions": 6038,
      "suppliers": 6039,
      "lays": 6040,
      "Life": 6041,
      "reviewed": 6042,
      "helping": 6043,
      "passed": 6044,
      "universities": 6045,
      "eastern": 6046,
      "defend": 6047,
      "soldi": 6048,
      "ethical": 6049,
      "gave": 6050,
      "feeding": 6051,
      "figure": 6052,
      "simplification": 6053,
      "breaches": 6054,
      "seekers": 6055,
      "Latvia": 6056,
      "certificates": 6057,
      "MOTION": 6058,
      "Globalisation": 6059,
      "front": 6060,
      "Implementation": 6061,
      "Islamic": 6062,
      "Bosn": 6063,
      "ophobia": 6064,
      "length": 6065,
      "aceutical": 6066,
      "activists": 6067,
      "Black": 6068,
      "Cris": 6069,
      "Dru": 6070,
      "Desp": 6071,
      "GB": 6072,
      "GI": 6073,
      "Ice": 6074,
      "Lo": 6075,
      "Ps": 6076,
      "Second": 6077,
      "Would": 6078,
      "West": 6079,
      "Youth": 6080,
      "gers": 6081,
      "ja": 6082,
      "moun": 6083,
      "tors": 6084,
      "wind": 6085,
      "arise": 6086,
      "ander": 6087,
      "assurance": 6088,
      "stating": 6089,
      "accommod": 6090,
      "det": 6091,
      "deployment": 6092,
      "ury": 6093,
      "abuses": 6094,
      "manage": 6095,
      "licences": 6096,
      "Relations": 6097,
      "worker": 6098,
      "trials": 6099,
      "underlying": 6100,
      "news": 6101,
      "object": 6102,
      "features": 6103,
      "computer": 6104,
      "Conciliation": 6105,
      "relate": 6106,
      "incen": 6107,
      "summary": 6108,
      "provisional": 6109,
      "calculation": 6110,
      "hosp": 6111,
      "Coton": 6112,
      "achievement": 6113,
      "communicate": 6114,
      "herein": 6115,
      "causing": 6116,
      "specialised": 6117,
      "offers": 6118,
      "John": 6119,
      "professionals": 6120,
      "reality": 6121,
      "guaranteeing": 6122,
      "Never": 6123,
      "Environmental": 6124,
      "claimed": 6125,
      "ratify": 6126,
      "Northern": 6127,
      "names": 6128,
      "tradition": 6129,
      "intelligence": 6130,
      "EEAS": 6131,
      "suggested": 6132,
      "hydro": 6133,
      "preserve": 6134,
      "mobilisation": 6135,
      "chemicals": 6136,
      "undermine": 6137,
      "pharm": 6138,
      "Galileo": 6139,
      "instructions": 6140,
      "Braz": 6141,
      "receipt": 6142,
      "Neighbourhood": 6143,
      "Tibet": 6144,
      "neutr": 6145,
      "Despite": 6146,
      "Iceland": 6147,
      "Cotonou": 6148,
      "013": 6149,
      "112": 6150,
      "AD": 6151,
      "Eth": 6152,
      "FI": 6153,
      "Found": 6154,
      "Ju": 6155,
      "Lam": 6156,
      "OEC": 6157,
      "Pan": 6158,
      "Pac": 6159,
      "RUL": 6160,
      "UEN": 6161,
      "away": 6162,
      "bad": 6163,
      "dens": 6164,
      "fighting": 6165,
      "pas": 6166,
      "sought": 6167,
      "usi": 6168,
      "ér": 6169,
      "reiterates": 6170,
      "islands": 6171,
      "ato": 6172,
      "tos": 6173,
      "itative": 6174,
      "proof": 6175,
      "prove": 6176,
      "veal": 6177,
      "veget": 6178,
      "seem": 6179,
      "paralle": 6180,
      "lost": 6181,
      "Intel": 6182,
      "Parties": 6183,
      "Paragraph": 6184,
      "forming": 6185,
      "string": 6186,
      "goes": 6187,
      "005": 6188,
      "disability": 6189,
      "transposition": 6190,
      "tender": 6191,
      "summer": 6192,
      "socio": 6193,
      "conditional": 6194,
      "crew": 6195,
      "Accession": 6196,
      "paying": 6197,
      "contractual": 6198,
      "mium": 6199,
      "consci": 6200,
      "judge": 6201,
      "distance": 6202,
      "strictly": 6203,
      "Soci": 6204,
      "PE4": 6205,
      "choose": 6206,
      "easily": 6207,
      "gases": 6208,
      "expresses": 6209,
      "warning": 6210,
      "sold": 6211,
      "graphic": 6212,
      "donors": 6213,
      "adaptation": 6214,
      "courts": 6215,
      "removed": 6216,
      "adjustments": 6217,
      "drafting": 6218,
      "revenues": 6219,
      "Chairman": 6220,
      "patient": 6221,
      "Swedish": 6222,
      "derogations": 6223,
      "stipulates": 6224,
      "approximately": 6225,
      "NATO": 6226,
      "destro": 6227,
      "floods": 6228,
      "verification": 6229,
      "UCITS": 6230,
      "Maced": 6231,
      "accurate": 6232,
      "Balkans": 6233,
      "referendu": 6234,
      "hereinafter": 6235,
      "Nevertheless": 6236,
      "Brazil": 6237,
      "OECD": 6238,
      "RULES": 6239,
      "110": 6240,
      "Bro": 6241,
      "Eri": 6242,
      "Gra": 6243,
      "Ivo": 6244,
      "RC": 6245,
      "Tele": 6246,
      "War": 6247,
      "atically": 6248,
      "bun": 6249,
      "bate": 6250,
      "blood": 6251,
      "block": 6252,
      "cr": 6253,
      "cat": 6254,
      "eight": 6255,
      "flights": 6256,
      "jour": 6257,
      "lap": 6258,
      "mag": 6259,
      "ox": 6260,
      "page": 6261,
      "rant": 6262,
      "tabling": 6263,
      "reti": 6264,
      "resu": 6265,
      "enquiries": 6266,
      "told": 6267,
      "toler": 6268,
      "ecological": 6269,
      "station": 6270,
      "protec": 6271,
      "acking": 6272,
      "liable": 6273,
      "seat": 6274,
      "wides": 6275,
      "agno": 6276,
      "ador": 6277,
      "advoc": 6278,
      "extr": 6279,
      "plus": 6280,
      "neither": 6281,
      "wealth": 6282,
      "codi": 6283,
      "undred": 6284,
      "internationally": 6285,
      "underlined": 6286,
      "newsp": 6287,
      "productivity": 6288,
      "approve": 6289,
      "overcome": 6290,
      "publicly": 6291,
      "forestry": 6292,
      "Anna": 6293,
      "jection": 6294,
      "curren": 6295,
      "environmentally": 6296,
      "elect": 6297,
      "signs": 6298,
      "Access": 6299,
      "survi": 6300,
      "Annexes": 6301,
      "dependence": 6302,
      "allowance": 6303,
      "indicative": 6304,
      "coordinate": 6305,
      "Alban": 6306,
      "Adjust": 6307,
      "Adopted": 6308,
      "variety": 6309,
      "electrical": 6310,
      "players": 6311,
      "potentially": 6312,
      "entering": 6313,
      "smaller": 6314,
      "renewed": 6315,
      "arrangement": 6316,
      "simply": 6317,
      "Specific": 6318,
      "description": 6319,
      "refugee": 6320,
      "urgently": 6321,
      "drafted": 6322,
      "Cypri": 6323,
      "ized": 6324,
      "prohibit": 6325,
      "vigil": 6326,
      "correctly": 6327,
      "itology": 6328,
      "Having": 6329,
      "annexed": 6330,
      "broadcasting": 6331,
      "trends": 6332,
      "attitude": 6333,
      "Cuba": 6334,
      "Slovakia": 6335,
      "suffered": 6336,
      "recruitment": 6337,
      "clinical": 6338,
      "Foundation": 6339,
      "parallel": 6340,
      "stringent": 6341,
      "widespread": 6342,
      "3pm": 6343,
      "Cl": 6344,
      "Cari": 6345,
      "Equal": 6346,
      "Fac": 6347,
      "From": 6348,
      "Free": 6349,
      "Kon": 6350,
      "Mat": 6351,
      "NL": 6352,
      "REC": 6353,
      "Sar": 6354,
      "bol": 6355,
      "bran": 6356,
      "bloc": 6357,
      "cred": 6358,
      "dil": 6359,
      "dol": 6360,
      "fa": 6361,
      "ots": 6362,
      "pir": 6363,
      "sis": 6364,
      "inhabit": 6365,
      "ansion": 6366,
      "timber": 6367,
      "enlar": 6368,
      "acce": 6369,
      "dep": 6370,
      "peoples": 6371,
      "seats": 6372,
      "emor": 6373,
      "oles": 6374,
      "etter": 6375,
      "etnam": 6376,
      "wee": 6377,
      "lob": 6378,
      "lod": 6379,
      "covers": 6380,
      "acced": 6381,
      "subs": 6382,
      "dispar": 6383,
      "disadvant": 6384,
      "Process": 6385,
      "invited": 6386,
      "aiming": 6387,
      "biom": 6388,
      "expansion": 6389,
      "orizon": 6390,
      "parents": 6391,
      "Legis": 6392,
      "came": 6393,
      "refused": 6394,
      "mercury": 6395,
      "coverage": 6396,
      "maintained": 6397,
      "volati": 6398,
      "threatened": 6399,
      "film": 6400,
      "Comb": 6401,
      "driver": 6402,
      "observed": 6403,
      "EFSA": 6404,
      "safeguarding": 6405,
      "evaluating": 6406,
      "Elisa": 6407,
      "Vietnam": 6408,
      "allegations": 6409,
      "prohibited": 6410,
      "installation": 6411,
      "movements": 6412,
      "consolidated": 6413,
      "becomes": 6414,
      "NEX": 6415,
      "pharmac": 6416,
      "trend": 6417,
      "dissemination": 6418,
      "GMOs": 6419,
      "remun": 6420,
      "banned": 6421,
      "indeed": 6422,
      "afford": 6423,
      "dynamic": 6424,
      "satellite": 6425,
      "conclude": 6426,
      "Conclusions": 6427,
      "pharmaceutical": 6428,
      "Adjustment": 6429,
      "acceler": 6430,
      "disadvantaged": 6431,
      "\")": 6432,
      "Bor": 6433,
      "Categ": 6434,
      "Clau": 6435,
      "Ham": 6436,
      "Kur": 6437,
      "Pos": 6438,
      "STA": 6439,
      "Ul": 6440,
      "Web": 6441,
      "bing": 6442,
      "birds": 6443,
      "hundred": 6444,
      "ially": 6445,
      "lists": 6446,
      "mitig": 6447,
      "orest": 6448,
      "path": 6449,
      "reaction": 6450,
      "routes": 6451,
      "progressive": 6452,
      "bean": 6453,
      "beli": 6454,
      "Commit": 6455,
      "shr": 6456,
      "porter": 6457,
      "excluding": 6458,
      "vileg": 6459,
      "recital": 6460,
      "weigh": 6461,
      "track": 6462,
      "lot": 6463,
      "estine": 6464,
      "outstanding": 6465,
      "perpe": 6466,
      "minors": 6467,
      "minister": 6468,
      "ministers": 6469,
      "interinstitutional": 6470,
      "photo": 6471,
      "ENP": 6472,
      "sym": 6473,
      "systematically": 6474,
      "rising": 6475,
      "plication": 6476,
      "legisl": 6477,
      "enses": 6478,
      "governed": 6479,
      "considerably": 6480,
      "learn": 6481,
      "1993": 6482,
      "Amster": 6483,
      "fishery": 6484,
      "textile": 6485,
      "pursued": 6486,
      "Strong": 6487,
      "introductory": 6488,
      "strict": 6489,
      "combination": 6490,
      "ANNEX": 6491,
      "built": 6492,
      "Oral": 6493,
      "infrastructures": 6494,
      "Training": 6495,
      "consequence": 6496,
      "renewal": 6497,
      "courses": 6498,
      "temper": 6499,
      "removal": 6500,
      "label": 6501,
      "Motion": 6502,
      "Secretariat": 6503,
      "rapidly": 6504,
      "Paolo": 6505,
      "functional": 6506,
      "resolve": 6507,
      "orientation": 6508,
      "repealing": 6509,
      "distinction": 6510,
      "Natura": 6511,
      "Lebanon": 6512,
      "Georgi": 6513,
      "accompanying": 6514,
      "degrad": 6515,
      "Objective": 6516,
      "rehabil": 6517,
      "soldiers": 6518,
      "Society": 6519,
      "journe": 6520,
      "weeks": 6521,
      "belief": 6522,
      "Amsterdam": 6523,
      "Azer": 6524,
      "CR": 6525,
      "Cap": 6526,
      "Dim": 6527,
      "Hor": 6528,
      "Last": 6529,
      "Mission": 6530,
      "SI": 6531,
      "Sol": 6532,
      "Tow": 6533,
      "ae": 6534,
      "bs": 6535,
      "bir": 6536,
      "breed": 6537,
      "fal": 6538,
      "hon": 6539,
      "reveal": 6540,
      "isive": 6541,
      "rog": 6542,
      "edi": 6543,
      "beth": 6544,
      "hear": 6545,
      "lition": 6546,
      "ulf": 6547,
      "olf": 6548,
      "impossible": 6549,
      "novation": 6550,
      "diagno": 6551,
      "pled": 6552,
      "mother": 6553,
      "recast": 6554,
      "Review": 6555,
      "earing": 6556,
      "accredit": 6557,
      "decisive": 6558,
      "fiable": 6559,
      "transmitted": 6560,
      "tenders": 6561,
      "annes": 6562,
      "qualities": 6563,
      "procedural": 6564,
      "shipping": 6565,
      "Islands": 6566,
      "holm": 6567,
      "released": 6568,
      "defining": 6569,
      "Agreements": 6570,
      "cuts": 6571,
      "profile": 6572,
      "freely": 6573,
      "Canada": 6574,
      "playing": 6575,
      "failing": 6576,
      "insist": 6577,
      "insists": 6578,
      "backed": 6579,
      "suggest": 6580,
      "burg": 6581,
      "Guid": 6582,
      "observation": 6583,
      "judiciary": 6584,
      "started": 6585,
      "Robert": 6586,
      "delays": 6587,
      "emphasised": 6588,
      "Maritime": 6589,
      "recorded": 6590,
      "................................................................": 6591,
      "vigation": 6592,
      "suffer": 6593,
      "performed": 6594,
      "criticised": 6595,
      "contributes": 6596,
      "Martin": 6597,
      "ecosystems": 6598,
      "____": 6599,
      "football": 6600,
      "wood": 6601,
      "leadership": 6602,
      "exclusively": 6603,
      "inserted": 6604,
      "credibility": 6605,
      "fulfilled": 6606,
      "Recognises": 6607,
      "shift": 6608,
      "incurred": 6609,
      "precautionary": 6610,
      "pluralism": 6611,
      "sulphur": 6612,
      "Pacific": 6613,
      "Ivoire": 6614,
      "Towards": 6615,
      ".,": 6616,
      "Custo": 6617,
      "Danish": 6618,
      "JHA": 6619,
      "Ken": 6620,
      "My": 6621,
      "Mul": 6622,
      "OD": 6623,
      "RD": 6624,
      "RU": 6625,
      "Rem": 6626,
      "Sche": 6627,
      "Text": 6628,
      "Ve": 6629,
      "VIII": 6630,
      "Wil": 6631,
      "XX": 6632,
      "gir": 6633,
      "hence": 6634,
      "ize": 6635,
      "ken": 6636,
      "kil": 6637,
      "mur": 6638,
      "nar": 6639,
      "sme": 6640,
      "tend": 6641,
      "things": 6642,
      "refra": 6643,
      "tot": 6644,
      "astic": 6645,
      "fortun": 6646,
      "sight": 6647,
      "depri": 6648,
      "lif": 6649,
      "selling": 6650,
      "river": 6651,
      "opard": 6652,
      "urged": 6653,
      "teen": 6654,
      "agents": 6655,
      "expl": 6656,
      "exposed": 6657,
      "comment": 6658,
      "nez": 6659,
      "cla": 6660,
      "redress": 6661,
      "Rein": 6662,
      "workplace": 6663,
      "distric": 6664,
      "intervene": 6665,
      "utor": 6666,
      "utmost": 6667,
      "thorough": 6668,
      "fel": 6669,
      "decomm": 6670,
      "decentral": 6671,
      "fires": 6672,
      "requis": 6673,
      "transferred": 6674,
      "bases": 6675,
      "qualitative": 6676,
      "desirable": 6677,
      "1994": 6678,
      "societies": 6679,
      "balances": 6680,
      "bench": 6681,
      "owners": 6682,
      "administr": 6683,
      "indications": 6684,
      "parent": 6685,
      "organisms": 6686,
      "civilians": 6687,
      "crises": 6688,
      "constitution": 6689,
      "Joh": 6690,
      "groundwater": 6691,
      "IMF": 6692,
      "realistic": 6693,
      "relief": 6694,
      "intensive": 6695,
      "dealt": 6696,
      "observers": 6697,
      "expert": 6698,
      "deliber": 6699,
      "Road": 6700,
      "documentation": 6701,
      "acquired": 6702,
      "demonstrate": 6703,
      "completely": 6704,
      "running": 6705,
      "qualification": 6706,
      "deeply": 6707,
      "gained": 6708,
      "automatically": 6709,
      "PARL": 6710,
      "radioactive": 6711,
      "borne": 6712,
      "definitive": 6713,
      "constra": 6714,
      "Supervisory": 6715,
      "reciproc": 6716,
      "sovereignty": 6717,
      "eradication": 6718,
      "Scientific": 6719,
      "Present": 6720,
      "pesticides": 6721,
      "database": 6722,
      "brief": 6723,
      "founded": 6724,
      "Stockholm": 6725,
      "Montenegro": 6726,
      "Measures": 6727,
      "thousands": 6728,
      "writing": 6729,
      "phenomenon": 6730,
      "swift": 6731,
      "Bosnia": 6732,
      "incentive": 6733,
      "Macedonia": 6734,
      "enlarged": 6735,
      "depth": 6736,
      "orizontal": 6737,
      "rehabilitation": 6738,
      "birth": 6739,
      "030": 6740,
      "Ala": 6741,
      "Cô": 6742,
      "Cather": 6743,
      "Dar": 6744,
      "Fu": 6745,
      "Fri": 6746,
      "Gr": 6747,
      "GSP": 6748,
      "Kr": 6749,
      "Lon": 6750,
      "Lar": 6751,
      "Lab": 6752,
      "OM": 6753,
      "Sk": 6754,
      "Seven": 6755,
      "UR": 6756,
      "WHO": 6757,
      "bai": 6758,
      "cin": 6759,
      "fast": 6760,
      "gare": 6761,
      "greg": 6762,
      "hne": 6763,
      "iel": 6764,
      "oth": 6765,
      "slow": 6766,
      "scre": 6767,
      "vance": 6768,
      "vated": 6769,
      "wan": 6770,
      "indi": 6771,
      "indirectly": 6772,
      "recon": 6773,
      "reconciliation": 6774,
      "enophobia": 6775,
      "alar": 6776,
      "attri": 6777,
      "army": 6778,
      "ros": 6779,
      "asing": 6780,
      "asser": 6781,
      "stra": 6782,
      "protests": 6783,
      "ilateral": 6784,
      "poorest": 6785,
      "meets": 6786,
      "shore": 6787,
      "imper": 6788,
      "Commissioners": 6789,
      "parti": 6790,
      "comings": 6791,
      "composed": 6792,
      "essment": 6793,
      "endar": 6794,
      "formally": 6795,
      "prud": 6796,
      "mines": 6797,
      "regardless": 6798,
      "disproportionate": 6799,
      "ageing": 6800,
      "intermedi": 6801,
      "uting": 6802,
      "prem": 6803,
      "preci": 6804,
      "owski": 6805,
      "privileg": 6806,
      "grade": 6807,
      "authorising": 6808,
      "ESF": 6809,
      "Congo": 6810,
      "Congress": 6811,
      "securing": 6812,
      "Progress": 6813,
      "resident": 6814,
      "annually": 6815,
      "dedic": 6816,
      "fusion": 6817,
      "necessarily": 6818,
      "struction": 6819,
      "generate": 6820,
      "signatures": 6821,
      "continuation": 6822,
      "akis": 6823,
      "depending": 6824,
      "sometimes": 6825,
      "pursuit": 6826,
      "officially": 6827,
      "match": 6828,
      "recognising": 6829,
      "courages": 6830,
      "indicates": 6831,
      "indicating": 6832,
      "equity": 6833,
      "largely": 6834,
      "approaches": 6835,
      "abovementioned": 6836,
      "secondary": 6837,
      "electric": 6838,
      "refusal": 6839,
      "engaged": 6840,
      "aspect": 6841,
      "missing": 6842,
      "subsidis": 6843,
      "Guaran": 6844,
      "fleet": 6845,
      "preparatory": 6846,
      "donor": 6847,
      "industrialised": 6848,
      "telecommunications": 6849,
      "demonstration": 6850,
      "deadlines": 6851,
      "CFP": 6852,
      "stead": 6853,
      "occupational": 6854,
      "automatic": 6855,
      "panel": 6856,
      "beneficiary": 6857,
      "resolved": 6858,
      "Martí": 6859,
      "simple": 6860,
      "…………": 6861,
      "Micha": 6862,
      "gradually": 6863,
      "incidents": 6864,
      "recalled": 6865,
      "deleted": 6866,
      "jeopard": 6867,
      "pollutants": 6868,
      "modal": 6869,
      "persistent": 6870,
      "restore": 6871,
      "destination": 6872,
      "endorsed": 6873,
      "FINAL": 6874,
      "MDGs": 6875,
      "batteries": 6876,
      "valuable": 6877,
      "inhabitants": 6878,
      "Azerbai": 6879,
      "accreditation": 6880,
      "Customs": 6881,
      "PARLIA": 6882,
      "Côte": 6883,
      "Catherine": 6884,
      "London": 6885,
      "Azerbaijan": 6886,
      ".”": 6887,
      "2a": 6888,
      "AU": 6889,
      "Des": 6890,
      "Eli": 6891,
      "Hol": 6892,
      "Mob": 6893,
      "Oly": 6894,
      "Sem": 6895,
      "Tan": 6896,
      "TEU": 6897,
      "bbean": 6898,
      "cis": 6899,
      "drop": 6900,
      "gent": 6901,
      "hin": 6902,
      "mir": 6903,
      "nity": 6904,
      "swit": 6905,
      "won": 6906,
      "zones": 6907,
      "ancy": 6908,
      "rela": 6909,
      "alter": 6910,
      "atric": 6911,
      "icing": 6912,
      "outs": 6913,
      "ecution": 6914,
      "detri": 6915,
      "concep": 6916,
      "raf": 6917,
      "uncertainty": 6918,
      "pet": 6919,
      "ultim": 6920,
      "shar": 6921,
      "shop": 6922,
      "aband": 6923,
      "imes": 6924,
      "vide": 6925,
      "moving": 6926,
      "format": 6927,
      "outlined": 6928,
      "ishing": 6929,
      "Reform": 6930,
      "minute": 6931,
      "utory": 6932,
      "actor": 6933,
      "genic": 6934,
      "genous": 6935,
      "usted": 6936,
      "transatlantic": 6937,
      "guide": 6938,
      "lining": 6939,
      "else": 6940,
      "partment": 6941,
      "Anton": 6942,
      "TIVE": 6943,
      "ultane": 6944,
      "respecting": 6945,
      "Accoun": 6946,
      "impacts": 6947,
      "subjected": 6948,
      "Governments": 6949,
      "Exchange": 6950,
      "recommended": 6951,
      "Advisory": 6952,
      "northern": 6953,
      "adequately": 6954,
      "Within": 6955,
      "obtaining": 6956,
      "shortcomings": 6957,
      "dict": 6958,
      "difference": 6959,
      "simplify": 6960,
      "records": 6961,
      "offering": 6962,
      "Belarusi": 6963,
      "iii": 6964,
      "accessibility": 6965,
      "legitimacy": 6966,
      "Democracy": 6967,
      "consolidation": 6968,
      "massive": 6969,
      "condemns": 6970,
      "homes": 6971,
      "discipline": 6972,
      "Muslim": 6973,
      "Six": 6974,
      "hopes": 6975,
      "lasting": 6976,
      "Products": 6977,
      "Alex": 6978,
      "IGC": 6979,
      "Somalia": 6980,
      "EUROPE": 6981,
      "arbitrary": 6982,
      "referendum": 6983,
      "currency": 6984,
      "Caribbean": 6985,
      "Legislative": 6986,
      "remuneration": 6987,
      "district": 6988,
      "requisite": 6989,
      "Presentation": 6990,
      "PARLIAMENT": 6991,
      "Olymp": 6992,
      "3G": 6993,
      "Dam": 6994,
      "Doc": 6995,
      "Equ": 6996,
      "Far": 6997,
      "MAR": 6998,
      "Pi": 6999,
      "Qual": 7000,
      "Sit": 7001,
      "Scho": 7002,
      "TC": 7003,
      "Te": 7004,
      "Two": 7005,
      "cou": 7006,
      "gun": 7007,
      "kg": 7008,
      "lending": 7009,
      "nom": 7010,
      "sper": 7011,
      "spot": 7012,
      "south": 7013,
      "tin": 7014,
      "yal": 7015,
      "inside": 7016,
      "toys": 7017,
      "anda": 7018,
      "roaming": 7019,
      "itals": 7020,
      "aside": 7021,
      "oman": 7022,
      "ley": 7023,
      "lege": 7024,
      "prospect": 7025,
      "heard": 7026,
      "heating": 7027,
      "conferences": 7028,
      "cease": 7029,
      "embar": 7030,
      "urch": 7031,
      "withstanding": 7032,
      "chos": 7033,
      "impartial": 7034,
      "exha": 7035,
      "ditions": 7036,
      "modes": 7037,
      "arding": 7038,
      "geared": 7039,
      "permits": 7040,
      "mining": 7041,
      "vency": 7042,
      "interventions": 7043,
      "obvious": 7044,
      "decent": 7045,
      "decline": 7046,
      "authorise": 7047,
      "producer": 7048,
      "translation": 7049,
      "Consequ": 7050,
      "109": 7051,
      "invite": 7052,
      "invites": 7053,
      "acknowledge": 7054,
      "sumption": 7055,
      "Marco": 7056,
      "150": 7057,
      "156": 7058,
      "ING": 7059,
      "certainly": 7060,
      "expiry": 7061,
      "expenses": 7062,
      "consists": 7063,
      "equitable": 7064,
      "addresses": 7065,
      "carrier": 7066,
      "criterion": 7067,
      "Atlantic": 7068,
      "popular": 7069,
      "ACTA": 7070,
      "Peter": 7071,
      "Medic": 7072,
      "supervis": 7073,
      "avoiding": 7074,
      "Palestine": 7075,
      "aired": 7076,
      "directed": 7077,
      "measurement": 7078,
      "Swit": 7079,
      "Palestinians": 7080,
      "Chamber": 7081,
      "Most": 7082,
      "Directorate": 7083,
      "quantitative": 7084,
      "organs": 7085,
      "ization": 7086,
      "Agricultural": 7087,
      "Institutions": 7088,
      "livestock": 7089,
      "Prevention": 7090,
      "Should": 7091,
      "household": 7092,
      "frequently": 7093,
      "radical": 7094,
      "simultane": 7095,
      "breakdown": 7096,
      "Michel": 7097,
      "Implementing": 7098,
      "quarters": 7099,
      "contamination": 7100,
      "irregularities": 7101,
      "usually": 7102,
      "Integrated": 7103,
      "relatively": 7104,
      "dumping": 7105,
      "diversification": 7106,
      "prohibition": 7107,
      "slaughter": 7108,
      "protective": 7109,
      "Cypriot": 7110,
      "vigilance": 7111,
      "disparities": 7112,
      "Category": 7113,
      "refrain": 7114,
      "clauses": 7115,
      "218": 7116,
      "Ash": 7117,
      "Ben": 7118,
      "Bio": 7119,
      "CM": 7120,
      "Day": 7121,
      "EX": 7122,
      "Every": 7123,
      "Fi": 7124,
      "JPA": 7125,
      "MED": 7126,
      "OV": 7127,
      "ODA": 7128,
      "Pen": 7129,
      "Pay": 7130,
      "PORT": 7131,
      "TEC": 7132,
      "bra": 7133,
      "bureau": 7134,
      "gments": 7135,
      "horizontal": 7136,
      "pure": 7137,
      "wanted": 7138,
      "woman": 7139,
      "és": 7140,
      "iner": 7141,
      "inspect": 7142,
      "rew": 7143,
      "references": 7144,
      "tification": 7145,
      "tivation": 7146,
      "andum": 7147,
      "dev": 7148,
      "deploy": 7149,
      "confined": 7150,
      "unnecessary": 7151,
      "rip": 7152,
      "ulated": 7153,
      "urge": 7154,
      "adding": 7155,
      "ends": 7156,
      "noting": 7157,
      "codes": 7158,
      "answers": 7159,
      "Indian": 7160,
      "accused": 7161,
      "ECA": 7162,
      "undering": 7163,
      "fif": 7164,
      "compound": 7165,
      "gues": 7166,
      "finances": 7167,
      "tension": 7168,
      "Ange": 7169,
      "Statement": 7170,
      "Which": 7171,
      "ranging": 7172,
      "economically": 7173,
      "Chechn": 7174,
      "healthy": 7175,
      "calendar": 7176,
      "politic": 7177,
      "generated": 7178,
      "bian": 7179,
      "Dead": 7180,
      "initiate": 7181,
      "initiated": 7182,
      "Cost": 7183,
      "examples": 7184,
      "roads": 7185,
      "millions": 7186,
      "welcome": 7187,
      "prevented": 7188,
      "stored": 7189,
      "norm": 7190,
      "skilled": 7191,
      "broadband": 7192,
      "Charles": 7193,
      "salary": 7194,
      "customer": 7195,
      "observations": 7196,
      "modification": 7197,
      "Mario": 7198,
      "executive": 7199,
      "municipal": 7200,
      "neighbours": 7201,
      "tackling": 7202,
      "Princi": 7203,
      "zero": 7204,
      "zerland": 7205,
      "situated": 7206,
      "Goals": 7207,
      "cutting": 7208,
      "approximation": 7209,
      "Estonia": 7210,
      "blue": 7211,
      "assume": 7212,
      "incident": 7213,
      "teachers": 7214,
      "acknowledged": 7215,
      "autonomy": 7216,
      "FAO": 7217,
      "stimulate": 7218,
      "counterfeiting": 7219,
      "departments": 7220,
      "expense": 7221,
      "province": 7222,
      "emorandum": 7223,
      "Website": 7224,
      "hundreds": 7225,
      "girls": 7226,
      "garet": 7227,
      "premises": 7228,
      "Guarantee": 7229,
      "Belarusian": 7230,
      "EUROPEAN": 7231,
      "Switzerland": 7232,
      "Chechnya": 7233,
      "%)": 7234,
      ".’": 7235,
      "9am": 7236,
      "Aviation": 7237,
      "Better": 7238,
      "Cas": 7239,
      "ETS": 7240,
      "Nuclear": 7241,
      "Ol": 7242,
      "Open": 7243,
      "SU": 7244,
      "Vol": 7245,
      "Was": 7246,
      "brid": 7247,
      "hus": 7248,
      "lity": 7249,
      "mut": 7250,
      "pone": 7251,
      "tling": 7252,
      "vy": 7253,
      "vate": 7254,
      "vable": 7255,
      "vina": 7256,
      "…/": 7257,
      "invo": 7258,
      "enshr": 7259,
      "itors": 7260,
      "assembly": 7261,
      "asmus": 7262,
      "oured": 7263,
      "prob": 7264,
      "prosper": 7265,
      "heat": 7266,
      "rape": 7267,
      "ratisation": 7268,
      "cement": 7269,
      "seed": 7270,
      "opposed": 7271,
      "withdrawn": 7272,
      "cham": 7273,
      "admitted": 7274,
      "endor": 7275,
      "Art": 7276,
      "outline": 7277,
      "worked": 7278,
      "laundering": 7279,
      "mine": 7280,
      "minating": 7281,
      "ECHR": 7282,
      "newly": 7283,
      "gencies": 7284,
      "entists": 7285,
      "transmit": 7286,
      "linking": 7287,
      "grat": 7288,
      "Thus": 7289,
      "systemic": 7290,
      "lawful": 7291,
      "inequalities": 7292,
      "visibility": 7293,
      "organise": 7294,
      "fragment": 7295,
      "employer": 7296,
      "Actions": 7297,
      "continent": 7298,
      "demographic": 7299,
      "examining": 7300,
      "pursuing": 7301,
      "owned": 7302,
      "Encourages": 7303,
      "equally": 7304,
      "carriers": 7305,
      "carriage": 7306,
      "identifying": 7307,
      "navigation": 7308,
      "protest": 7309,
      "ACH": 7310,
      "heads": 7311,
      "Point": 7312,
      "unique": 7313,
      "statutory": 7314,
      "atories": 7315,
      "domin": 7316,
      "broader": 7317,
      "Undertaking": 7318,
      "suspected": 7319,
      "showing": 7320,
      "surveys": 7321,
      "telephone": 7322,
      "Impro": 7323,
      "Carlos": 7324,
      "steel": 7325,
      "exemptions": 7326,
      "compatibility": 7327,
      "occupation": 7328,
      "Herze": 7329,
      "infec": 7330,
      "Francis": 7331,
      "alongside": 7332,
      "double": 7333,
      "Colom": 7334,
      "unions": 7335,
      "Federal": 7336,
      "master": 7337,
      "Invites": 7338,
      "secretariat": 7339,
      "Heads": 7340,
      "precedent": 7341,
      "troops": 7342,
      "oultry": 7343,
      "disciplinary": 7344,
      "Cuban": 7345,
      "Assessment": 7346,
      "apparently": 7347,
      "unanimously": 7348,
      "message": 7349,
      "collaboration": 7350,
      "destroy": 7351,
      "perpetr": 7352,
      "Strongly": 7353,
      "RULE": 7354,
      "constraints": 7355,
      "Labour": 7356,
      "dedicated": 7357,
      "Martínez": 7358,
      "switch": 7359,
      "chosen": 7360,
      "498": 7361,
      "Cau": 7362,
      "Catal": 7363,
      "DB": 7364,
      "DI": 7365,
      "Ev": 7366,
      "FF": 7367,
      "Gil": 7368,
      "Gulf": 7369,
      "Hong": 7370,
      "Jord": 7371,
      "Kong": 7372,
      "Small": 7373,
      "STR": 7374,
      "Southern": 7375,
      "Ty": 7376,
      "Tor": 7377,
      "VIS": 7378,
      "cards": 7379,
      "dates": 7380,
      "ht": 7381,
      "junction": 7382,
      "len": 7383,
      "lag": 7384,
      "mm": 7385,
      "nine": 7386,
      "oting": 7387,
      "pin": 7388,
      "sess": 7389,
      "spring": 7390,
      "vor": 7391,
      "vatives": 7392,
      "inational": 7393,
      "incompatible": 7394,
      "anticip": 7395,
      "rever": 7396,
      "rell": 7397,
      "reactions": 7398,
      "repression": 7399,
      "enci": 7400,
      "ork": 7401,
      "lez": 7402,
      "powered": 7403,
      "ulates": 7404,
      "agrees": 7405,
      "shoc": 7406,
      "chr": 7407,
      "chapter": 7408,
      "dering": 7409,
      "ditional": 7410,
      "vian": 7411,
      "viable": 7412,
      "complic": 7413,
      "comprising": 7414,
      "comitology": 7415,
      "registers": 7416,
      "regimes": 7417,
      "cow": 7418,
      "cooper": 7419,
      "govina": 7420,
      "006": 7421,
      "fos": 7422,
      "subsid": 7423,
      "owner": 7424,
      "file": 7425,
      "transnational": 7426,
      "thereto": 7427,
      "victim": 7428,
      "ENVI": 7429,
      "Conditions": 7430,
      "publications": 7431,
      "contacts": 7432,
      "Regarding": 7433,
      "mono": 7434,
      "astro": 7435,
      "invitation": 7436,
      "gestion": 7437,
      "cargo": 7438,
      "mainstreaming": 7439,
      "ultinational": 7440,
      "awa": 7441,
      "surround": 7442,
      "ield": 7443,
      "depends": 7444,
      "closing": 7445,
      "director": 7446,
      "Finance": 7447,
      "eurozone": 7448,
      "coordinating": 7449,
      "Also": 7450,
      "constituent": 7451,
      "saying": 7452,
      "tissu": 7453,
      "privacy": 7454,
      "complies": 7455,
      "consisting": 7456,
      "consistently": 7457,
      "misleading": 7458,
      "Media": 7459,
      "reliability": 7460,
      "Schmid": 7461,
      "Before": 7462,
      "suspend": 7463,
      "ICC": 7464,
      "acquire": 7465,
      "manufactured": 7466,
      "replies": 7467,
      "distributed": 7468,
      "modifications": 7469,
      "volunte": 7470,
      "reflected": 7471,
      "revise": 7472,
      ".../": 7473,
      "beneficial": 7474,
      "occupied": 7475,
      "Asian": 7476,
      "attempts": 7477,
      "genetic": 7478,
      "affirms": 7479,
      "Administration": 7480,
      "Territ": 7481,
      "racism": 7482,
      "Technical": 7483,
      "thresholds": 7484,
      "Galic": 7485,
      "Supervis": 7486,
      "push": 7487,
      "credible": 7488,
      "reimbursement": 7489,
      "AAAAAAAAAAAAAAAAAAAAAAAAAAAAAAAAAAAAAAAAAAAAAAAAAAAAAAAAAAAAAAAAAAAAAAAAAAAAAAAAAAAAAAAAAAAAAAAAAAAAAAAAAAAAAAAAAAAAAAAAAAAAAAAA": 7490,
      "forecasts": 7491,
      "Madrid": 7492,
      "deterioration": 7493,
      "psych": 7494,
      "pipeline": 7495,
      "analyse": 7496,
      "English": 7497,
      "mountain": 7498,
      "piracy": 7499,
      "subscri": 7500,
      "temperature": 7501,
      "fortunately": 7502,
      "decommission": 7503,
      "Alain": 7504,
      "video": 7505,
      "Deadline": 7506,
      "Herzegovina": 7507,
      "3a": 7508,
      "BO": 7509,
      "Che": 7510,
      "CIA": 7511,
      "FAI": 7512,
      "GH": 7513,
      "Hy": 7514,
      "Il": 7515,
      "Mun": 7516,
      "Nice": 7517,
      "PNR": 7518,
      "Round": 7519,
      "SK": 7520,
      "Tam": 7521,
      "Uz": 7522,
      "WIT": 7523,
      "Water": 7524,
      "York": 7525,
      "apo": 7526,
      "cused": 7527,
      "kistan": 7528,
      "nations": 7529,
      "pic": 7530,
      "wild": 7531,
      "él": 7532,
      "”.": 7533,
      "insu": 7534,
      "input": 7535,
      "resi": 7536,
      "remin": 7537,
      "remarks": 7538,
      "rers": 7539,
      "tier": 7540,
      "arma": 7541,
      "edge": 7542,
      "omas": 7543,
      "lets": 7544,
      "lease": 7545,
      "stering": 7546,
      "deplores": 7547,
      "liance": 7548,
      "alling": 7549,
      "chlor": 7550,
      "oling": 7551,
      "imprison": 7552,
      "excell": 7553,
      "aps": 7554,
      "pling": 7555,
      "essentially": 7556,
      "netic": 7557,
      "lose": 7558,
      "cosme": 7559,
      "possession": 7560,
      "licens": 7561,
      "Indon": 7562,
      "duct": 7563,
      "output": 7564,
      "focused": 7565,
      "ECON": 7566,
      "displaced": 7567,
      "prev": 7568,
      "premium": 7569,
      "authorisations": 7570,
      "assent": 7571,
      "assisted": 7572,
      "transaction": 7573,
      "1989": 7574,
      "overview": 7575,
      "airy": 7576,
      "Anim": 7577,
      "valuation": 7578,
      "arians": 7579,
      "104": 7580,
      "persecution": 7581,
      "rants": 7582,
      "María": 7583,
      "visits": 7584,
      "necessity": 7585,
      "1605": 7586,
      "promoted": 7587,
      "whenever": 7588,
      "ideas": 7589,
      "tware": 7590,
      "250": 7591,
      "texts": 7592,
      "transported": 7593,
      "involves": 7594,
      "lessons": 7595,
      "versary": 7596,
      "additives": 7597,
      "harass": 7598,
      "euros": 7599,
      "organisational": 7600,
      "Only": 7601,
      "Austr": 7602,
      "migrant": 7603,
      "cape": 7604,
      "significance": 7605,
      "postpone": 7606,
      "exercising": 7607,
      "replied": 7608,
      "multiple": 7609,
      "exceptions": 7610,
      "gather": 7611,
      "websites": 7612,
      "IAEA": 7613,
      "reserves": 7614,
      "pattern": 7615,
      "reinforcing": 7616,
      "holdings": 7617,
      "drinking": 7618,
      "logical": 7619,
      "ELDR": 7620,
      "acquisition": 7621,
      "adversely": 7622,
      "presidency": 7623,
      "petitions": 7624,
      "criticism": 7625,
      "Patent": 7626,
      "Electr": 7627,
      "Christians": 7628,
      "tangible": 7629,
      "gradual": 7630,
      "minimise": 7631,
      "argued": 7632,
      "doubts": 7633,
      "macroeconomic": 7634,
      "occasions": 7635,
      "repeatedly": 7636,
      "reimbursed": 7637,
      "contaminated": 7638,
      "Valenci": 7639,
      "igno": 7640,
      "prompt": 7641,
      "spoke": 7642,
      "redundant": 7643,
      "platform": 7644,
      "earthqu": 7645,
      "principal": 7646,
      "bunal": 7647,
      "retire": 7648,
      "Facility": 7649,
      "Combating": 7650,
      "breeding": 7651,
      "ediatric": 7652,
      "decentralised": 7653,
      "Seventh": 7654,
      "Olympic": 7655,
      "fossil": 7656,
      "Uzbe": 7657,
      "Indones": 7658,
      "B5": 7659,
      "Cur": 7660,
      "DF": 7661,
      "Ed": 7662,
      "Es": 7663,
      "Eff": 7664,
      "Flo": 7665,
      "Io": 7666,
      "Jer": 7667,
      "LI": 7668,
      "Land": 7669,
      "Spring": 7670,
      "Ts": 7671,
      "Tai": 7672,
      "black": 7673,
      "brea": 7674,
      "cau": 7675,
      "dairy": 7676,
      "ee": 7677,
      "eg": 7678,
      "hit": 7679,
      "iop": 7680,
      "killing": 7681,
      "lad": 7682,
      "ml": 7683,
      "oci": 7684,
      "ovigilance": 7685,
      "poultry": 7686,
      "rist": 7687,
      "’;": 7688,
      "ancies": 7689,
      "rey": 7690,
      "ende": 7691,
      "ofin": 7692,
      "align": 7693,
      "atmo": 7694,
      "toll": 7695,
      "aster": 7696,
      "stone": 7697,
      "aces": 7698,
      "acid": 7699,
      "illegally": 7700,
      "bee": 7701,
      "depar": 7702,
      "conjunction": 7703,
      "petrol": 7704,
      "cere": 7705,
      "admissible": 7706,
      "Statis": 7707,
      "dual": 7708,
      "dura": 7709,
      "essor": 7710,
      "ardo": 7711,
      "ecting": 7712,
      "trace": 7713,
      "cosur": 7714,
      "tue": 7715,
      "Infr": 7716,
      "Paris": 7717,
      "wheel": 7718,
      "Armen": 7719,
      "audi": 7720,
      "update": 7721,
      "Refuge": 7722,
      "fines": 7723,
      "dos": 7724,
      "earmarked": 7725,
      "venant": 7726,
      "subjects": 7727,
      "disadvantage": 7728,
      "save": 7729,
      "decades": 7730,
      "trains": 7731,
      "transl": 7732,
      "measuring": 7733,
      "Consul": 7734,
      "Conduct": 7735,
      "Dialogue": 7736,
      "Regulators": 7737,
      "ITAL": 7738,
      "marketed": 7739,
      "humans": 7740,
      "Prosec": 7741,
      "epide": 7742,
      "energies": 7743,
      "organising": 7744,
      "highlight": 7745,
      "larger": 7746,
      "structured": 7747,
      "pointing": 7748,
      "160": 7749,
      "buy": 7750,
      "131": 7751,
      "entrusted": 7752,
      "175": 7753,
      "Debate": 7754,
      "tested": 7755,
      "transportation": 7756,
      "IND": 7757,
      "regulate": 7758,
      "clearing": 7759,
      "democratisation": 7760,
      "mediation": 7761,
      "rying": 7762,
      "PROP": 7763,
      "university": 7764,
      "Gert": 7765,
      "cludes": 7766,
      "postal": 7767,
      "crossing": 7768,
      "Giov": 7769,
      "Financing": 7770,
      "intensi": 7771,
      "letters": 7772,
      "firmly": 7773,
      "sheet": 7774,
      "ratio": 7775,
      "analyses": 7776,
      "acceptance": 7777,
      "AFFAI": 7778,
      "Swiss": 7779,
      "circulation": 7780,
      "AIL": 7781,
      "SCH": 7782,
      "forestation": 7783,
      "reflects": 7784,
      "EEE": 7785,
      "neighbourhood": 7786,
      "kinds": 7787,
      "patents": 7788,
      "exempt": 7789,
      "envisage": 7790,
      "advanced": 7791,
      "Elmar": 7792,
      "Frances": 7793,
      "performing": 7794,
      "Prepar": 7795,
      "exclude": 7796,
      "topics": 7797,
      "Cambo": 7798,
      "NEW": 7799,
      "preceding": 7800,
      "Technology": 7801,
      "Erasmus": 7802,
      "clients": 7803,
      "willingness": 7804,
      "distortions": 7805,
      "autonomous": 7806,
      "remedy": 7807,
      "nutrition": 7808,
      "Mercosur": 7809,
      "BUD": 7810,
      "lawyer": 7811,
      "Crisis": 7812,
      "hospital": 7813,
      "Ethiop": 7814,
      "volatility": 7815,
      "degradation": 7816,
      "administrations": 7817,
      "concepts": 7818,
      "Consequently": 7819,
      "purely": 7820,
      "normally": 7821,
      "psychological": 7822,
      "decommissioning": 7823,
      "imprisoned": 7824,
      "PROPOS": 7825,
      "AFFAIRS": 7826,
      "120": 7827,
      "600": 7828,
      "AM": 7829,
      "Ali": 7830,
      "Ba": 7831,
      "Bus": 7832,
      "Bah": 7833,
      "Det": 7834,
      "Draw": 7835,
      "Four": 7836,
      "Hague": 7837,
      "Its": 7838,
      "IAS": 7839,
      "Ja": 7840,
      "Pack": 7841,
      "Rich": 7842,
      "Rail": 7843,
      "SG": 7844,
      "Sah": 7845,
      "TH": 7846,
      "VP": 7847,
      "WA": 7848,
      "Wall": 7849,
      "clic": 7850,
      "dish": 7851,
      "dating": 7852,
      "fat": 7853,
      "fill": 7854,
      "nish": 7855,
      "ply": 7856,
      "papers": 7857,
      "rors": 7858,
      "race": 7859,
      "uries": 7860,
      "yn": 7861,
      "zen": 7862,
      "thought": 7863,
      "ony": 7864,
      "inland": 7865,
      "incomes": 7866,
      "really": 7867,
      "reiter": 7868,
      "rejection": 7869,
      "tian": 7870,
      "tigh": 7871,
      "encoun": 7872,
      "engin": 7873,
      "encing": 7874,
      "rogen": 7875,
      "eda": 7876,
      "stabilisation": 7877,
      "prop": 7878,
      "deple": 7879,
      "concluding": 7880,
      "rique": 7881,
      "emen": 7882,
      "empowered": 7883,
      "ults": 7884,
      "uran": 7885,
      "urally": 7886,
      "sho": 7887,
      "oll": 7888,
      "parame": 7889,
      "Stabilisation": 7890,
      "clust": 7891,
      "esty": 7892,
      "Reaffirms": 7893,
      "spite": 7894,
      "fostering": 7895,
      "preferen": 7896,
      "preferences": 7897,
      "grave": 7898,
      "transformation": 7899,
      "supposed": 7900,
      "ESDP": 7901,
      "Confeder": 7902,
      "moreover": 7903,
      "orses": 7904,
      "gio": 7905,
      "106": 7906,
      "virtue": 7907,
      "1991": 7908,
      "IIA": 7909,
      "138": 7910,
      "Again": 7911,
      "charging": 7912,
      "payer": 7913,
      "Questions": 7914,
      "capabilities": 7915,
      "Covenant": 7916,
      "officers": 7917,
      "judges": 7918,
      "Governing": 7919,
      "Enter": 7920,
      "profits": 7921,
      "abolition": 7922,
      "divided": 7923,
      "properties": 7924,
      "rapporteurs": 7925,
      "Respon": 7926,
      "designation": 7927,
      "iteracy": 7928,
      "discriminate": 7929,
      "maternity": 7930,
      "professions": 7931,
      "hands": 7932,
      "ISLA": 7933,
      "north": 7934,
      "medicine": 7935,
      "burdens": 7936,
      "Authorities": 7937,
      "sentences": 7938,
      "sentenced": 7939,
      "constructive": 7940,
      "solve": 7941,
      "graphy": 7942,
      "distribut": 7943,
      "maxim": 7944,
      "focusing": 7945,
      "estimate": 7946,
      "webstreaming": 7947,
      "comparative": 7948,
      "interpreted": 7949,
      "Christa": 7950,
      "difficulty": 7951,
      "Herman": 7952,
      "hygi": 7953,
      "purchasing": 7954,
      "journalist": 7955,
      "Karl": 7956,
      "complexity": 7957,
      "Perspective": 7958,
      "doubt": 7959,
      "Nigeria": 7960,
      "quarter": 7961,
      "client": 7962,
      "Standards": 7963,
      "Assistance": 7964,
      "music": 7965,
      "anniversary": 7966,
      "Daniel": 7967,
      "Opport": 7968,
      "apparent": 7969,
      "LEGISLA": 7970,
      "teams": 7971,
      "detainees": 7972,
      "chief": 7973,
      "software": 7974,
      "Joseph": 7975,
      "communau": 7976,
      "codified": 7977,
      "Albania": 7978,
      "Committees": 7979,
      "totally": 7980,
      "Johannes": 7981,
      "indigenous": 7982,
      "Michael": 7983,
      "Sixth": 7984,
      "simultaneously": 7985,
      "bureauc": 7986,
      "Jordan": 7987,
      "WITH": 7988,
      "armament": 7989,
      "retirement": 7990,
      "Taiwan": 7991,
      "ocide": 7992,
      "preferential": 7993,
      "LEGISLATIVE": 7994,
      "AB": 7995,
      "Bill": 7996,
      "Ca": 7997,
      "Cross": 7998,
      "Dr": 7999,
      "Fe": 8000,
      "Gab": 8001,
      "Kla": 8002,
      "Mos": 8003,
      "Marian": 8004,
      "Rad": 8005,
      "Sam": 8006,
      "XL": 8007,
      "borg": 8008,
      "cum": 8009,
      "fallen": 8010,
      "flav": 8011,
      "gol": 8012,
      "ires": 8013,
      "igi": 8014,
      "mous": 8015,
      "mort": 8016,
      "multinational": 8017,
      "ppe": 8018,
      "rong": 8019,
      "tables": 8020,
      "utions": 8021,
      "wrong": 8022,
      "xx": 8023,
      "ène": 8024,
      "öt": 8025,
      "reinsurance": 8026,
      "tiers": 8027,
      "tivities": 8028,
      "enari": 8029,
      "oratory": 8030,
      "isc": 8031,
      "ingu": 8032,
      "itect": 8033,
      "omet": 8034,
      "levi": 8035,
      "suit": 8036,
      "detection": 8037,
      "device": 8038,
      "condem": 8039,
      "confusion": 8040,
      "congestion": 8041,
      "poly": 8042,
      "ried": 8043,
      "opt": 8044,
      "atever": 8045,
      "cigaret": 8046,
      "noon": 8047,
      "viability": 8048,
      "taire": 8049,
      "usz": 8050,
      "usage": 8051,
      "amm": 8052,
      "possess": 8053,
      "Counter": 8054,
      "Councils": 8055,
      "pris": 8056,
      "print": 8057,
      "pricing": 8058,
      "Reques": 8059,
      "door": 8060,
      "miner": 8061,
      "got": 8062,
      "substitu": 8063,
      "served": 8064,
      "cessions": 8065,
      "ller": 8066,
      "phones": 8067,
      "fee": 8068,
      "saw": 8069,
      "respects": 8070,
      "fibre": 8071,
      "transposed": 8072,
      "guar": 8073,
      "syner": 8074,
      "airspace": 8075,
      "gibility": 8076,
      "useppe": 8077,
      "specifying": 8078,
      "aids": 8079,
      "impunity": 8080,
      "relevance": 8081,
      "became": 8082,
      "roadmap": 8083,
      "judgments": 8084,
      "tality": 8085,
      "supplier": 8086,
      "consulting": 8087,
      "stricter": 8088,
      "independently": 8089,
      "Decisions": 8090,
      "welcoming": 8091,
      "Additional": 8092,
      "strength": 8093,
      "monthly": 8094,
      "plays": 8095,
      "requesting": 8096,
      "merits": 8097,
      "merger": 8098,
      "postpon": 8099,
      "elimination": 8100,
      "eligibility": 8101,
      "Giuseppe": 8102,
      "expressly": 8103,
      "denied": 8104,
      "connections": 8105,
      "Banking": 8106,
      "targeting": 8107,
      "AFT": 8108,
      "located": 8109,
      "deciding": 8110,
      "adapting": 8111,
      "compensatory": 8112,
      "explore": 8113,
      "Luigi": 8114,
      "scenari": 8115,
      "clarification": 8116,
      "appearance": 8117,
      "absor": 8118,
      "simplifying": 8119,
      "traditions": 8120,
      "vocation": 8121,
      "supplementing": 8122,
      "suggestions": 8123,
      "complementarity": 8124,
      "auditing": 8125,
      "conversion": 8126,
      "correspond": 8127,
      "gaining": 8128,
      "preservation": 8129,
      "obstacle": 8130,
      "mobilised": 8131,
      "College": 8132,
      "declare": 8133,
      "frequent": 8134,
      "condemned": 8135,
      "mortality": 8136,
      "extraordinary": 8137,
      "auditor": 8138,
      "Establish": 8139,
      "ggling": 8140,
      "expectations": 8141,
      "banning": 8142,
      "modernisation": 8143,
      "hunger": 8144,
      "radiation": 8145,
      "embry": 8146,
      "manager": 8147,
      "Yugoslav": 8148,
      "excise": 8149,
      "utilisation": 8150,
      "alert": 8151,
      "Juan": 8152,
      "tolerance": 8153,
      "RECITAL": 8154,
      "biomass": 8155,
      "Borrell": 8156,
      "deprived": 8157,
      "cinem": 8158,
      "abandon": 8159,
      "politicians": 8160,
      "Animal": 8161,
      "Uzbekistan": 8162,
      "Indonesia": 8163,
      "Giovanni": 8164,
      "Francesco": 8165,
      "Richard": 8166,
      "encountered": 8167,
      "engines": 8168,
      "Opportunities": 8169,
      "communautaire": 8170,
      "condemning": 8171,
      "Requests": 8172,
      "(‘": 8173,
      "Athen": 8174,
      "CL": 8175,
      "City": 8176,
      "Cultural": 8177,
      "Del": 8178,
      "EB": 8179,
      "Ear": 8180,
      "FM": 8181,
      "FTA": 8182,
      "Gas": 8183,
      "Hél": 8184,
      "Ki": 8185,
      "Mag": 8186,
      "Pöt": 8187,
      "SO": 8188,
      "Sur": 8189,
      "Scot": 8190,
      "Table": 8191,
      "Use": 8192,
      "bom": 8193,
      "bag": 8194,
      "east": 8195,
      "flo": 8196,
      "falls": 8197,
      "ju": 8198,
      "lers": 8199,
      "ptions": 8200,
      "ras": 8201,
      "smar": 8202,
      "scar": 8203,
      "tability": 8204,
      "ule": 8205,
      "var": 8206,
      "vac": 8207,
      "western": 8208,
      "xenophobia": 8209,
      "zá": 8210,
      "ür": 8211,
      "’)": 8212,
      "”,": 8213,
      "inal": 8214,
      "inos": 8215,
      "reproductive": 8216,
      "till": 8217,
      "enor": 8218,
      "enna": 8219,
      "enables": 8220,
      "era": 8221,
      "rob": 8222,
      "route": 8223,
      "ascertain": 8224,
      "stant": 8225,
      "acade": 8226,
      "sums": 8227,
      "concessions": 8228,
      "liances": 8229,
      "pere": 8230,
      "ull": 8231,
      "shor": 8232,
      "chance": 8233,
      "advisory": 8234,
      "imbalances": 8235,
      "Their": 8236,
      "quite": 8237,
      "mode": 8238,
      "coins": 8239,
      "licit": 8240,
      "Indic": 8241,
      "Innovation": 8242,
      "cles": 8243,
      "Particip": 8244,
      "reast": 8245,
      "ourse": 8246,
      "persu": 8247,
      "earn": 8248,
      "ECJ": 8249,
      "disappe": 8250,
      "interference": 8251,
      "fewer": 8252,
      "trained": 8253,
      "ESMA": 8254,
      "Cons": 8255,
      "oversight": 8256,
      "ensures": 8257,
      "Andr": 8258,
      "bot": 8259,
      "annis": 8260,
      "establishes": 8261,
      "deser": 8262,
      "carc": 8263,
      "apping": 8264,
      "visible": 8265,
      "politically": 8266,
      "signal": 8267,
      "atial": 8268,
      "114": 8269,
      "representations": 8270,
      "diesel": 8271,
      "negotiate": 8272,
      "inclusive": 8273,
      "clearance": 8274,
      "assisting": 8275,
      "defines": 8276,
      "corrid": 8277,
      "joined": 8278,
      "courage": 8279,
      "submitting": 8280,
      "Former": 8281,
      "greatly": 8282,
      "originating": 8283,
      "EMAIL": 8284,
      "restriction": 8285,
      "scientists": 8286,
      "easy": 8287,
      "IMO": 8288,
      "defa": 8289,
      "experiences": 8290,
      "experienced": 8291,
      "biotechnology": 8292,
      "Transatlantic": 8293,
      "Week": 8294,
      "senior": 8295,
      "achievements": 8296,
      "commerce": 8297,
      "observe": 8298,
      "equipped": 8299,
      "checked": 8300,
      "prisons": 8301,
      "Prior": 8302,
      "shareholders": 8303,
      "demonstrations": 8304,
      "promised": 8305,
      "exceeded": 8306,
      "exceeding": 8307,
      "Bernd": 8308,
      "controversi": 8309,
      "DRAFT": 8310,
      "supplemented": 8311,
      "Viol": 8312,
      "purchased": 8313,
      "president": 8314,
      "mobilise": 8315,
      "Recommends": 8316,
      "launching": 8317,
      "referring": 8318,
      "waiting": 8319,
      "protocols": 8320,
      "Heading": 8321,
      "precisely": 8322,
      "looks": 8323,
      "loading": 8324,
      "engineering": 8325,
      "Standard": 8326,
      "distortion": 8327,
      "teaching": 8328,
      "smooth": 8329,
      "Ferre": 8330,
      "prescription": 8331,
      "soft": 8332,
      "conviction": 8333,
      "copyright": 8334,
      "nitrogen": 8335,
      "managers": 8336,
      "Frontex": 8337,
      "waiver": 8338,
      "Future": 8339,
      "privileges": 8340,
      "ultimately": 8341,
      "elsewhere": 8342,
      "Situation": 8343,
      "enshrined": 8344,
      "prosperity": 8345,
      "Caucas": 8346,
      "chronic": 8347,
      "subsidy": 8348,
      "Australia": 8349,
      "eggs": 8350,
      "uranium": 8351,
      "parameters": 8352,
      "prisonment": 8353,
      "Athens": 8354,
      "Hélène": 8355,
      "Pöttering": 8356,
      "1st": 8357,
      "116": 8358,
      "113": 8359,
      "400": 8360,
      "5a": 8361,
      "BXL": 8362,
      "CI": 8363,
      "Cal": 8364,
      "Erit": 8365,
      "Gon": 8366,
      "G20": 8367,
      "IX": 8368,
      "Main": 8369,
      "MFF": 8370,
      "Nich": 8371,
      "Name": 8372,
      "Out": 8373,
      "Pur": 8374,
      "Pap": 8375,
      "Ris": 8376,
      "Red": 8377,
      "Session": 8378,
      "TRI": 8379,
      "Up": 8380,
      "df": 8381,
      "drought": 8382,
      "fash": 8383,
      "kill": 8384,
      "kov": 8385,
      "pec": 8386,
      "pace": 8387,
      "pdf": 8388,
      "swer": 8389,
      "vine": 8390,
      "yan": 8391,
      "’?": 8392,
      "inappropriate": 8393,
      "therap": 8394,
      "refund": 8395,
      "refunds": 8396,
      "reintegration": 8397,
      "orti": 8398,
      "orous": 8399,
      "enty": 8400,
      "oud": 8401,
      "proven": 8402,
      "illicit": 8403,
      "unemployed": 8404,
      "resistance": 8405,
      "lihood": 8406,
      "peal": 8407,
      "emit": 8408,
      "widen": 8409,
      "portion": 8410,
      "arer": 8411,
      "image": 8412,
      "excess": 8413,
      "cially": 8414,
      "nothing": 8415,
      "motive": 8416,
      "weather": 8417,
      "kel": 8418,
      "council": 8419,
      "worse": 8420,
      "authen": 8421,
      "prin": 8422,
      "Requ": 8423,
      "please": 8424,
      "pressive": 8425,
      "disman": 8426,
      "intergovernmental": 8427,
      "precondition": 8428,
      "safer": 8429,
      "operated": 8430,
      "wastes": 8431,
      "Concern": 8432,
      "Answer": 8433,
      "vals": 8434,
      "bott": 8435,
      "101": 8436,
      "108": 8437,
      "secured": 8438,
      "Prodi": 8439,
      "settle": 8440,
      "121": 8441,
      "151": 8442,
      "highlights": 8443,
      "politics": 8444,
      "readmission": 8445,
      "............": 8446,
      "accountable": 8447,
      "Activities": 8448,
      "Department": 8449,
      "surplus": 8450,
      "farms": 8451,
      "UNC": 8452,
      "crimination": 8453,
      "integrate": 8454,
      "chez": 8455,
      "osis": 8456,
      "communicated": 8457,
      "investor": 8458,
      "Finnish": 8459,
      "substantive": 8460,
      "limiting": 8461,
      "limitation": 8462,
      "attle": 8463,
      "containers": 8464,
      "migratory": 8465,
      "Monica": 8466,
      "helps": 8467,
      "fails": 8468,
      "enterprise": 8469,
      "speaking": 8470,
      "stood": 8471,
      "ERDF": 8472,
      "demanding": 8473,
      "conducting": 8474,
      "warming": 8475,
      "continuity": 8476,
      "continuously": 8477,
      "collecting": 8478,
      "Accordingly": 8479,
      "evolution": 8480,
      "solved": 8481,
      "locations": 8482,
      "exercised": 8483,
      "greatest": 8484,
      "repair": 8485,
      "REACH": 8486,
      "modify": 8487,
      "fourth": 8488,
      "characterised": 8489,
      "Discrimination": 8490,
      "separation": 8491,
      "incorporating": 8492,
      "dimin": 8493,
      "intelligent": 8494,
      "Berlin": 8495,
      "Industri": 8496,
      "concentrations": 8497,
      "installed": 8498,
      "explained": 8499,
      "fixing": 8500,
      "genuinely": 8501,
      "Have": 8502,
      "frequency": 8503,
      "tariffs": 8504,
      "ecosystem": 8505,
      "Person": 8506,
      "Terror": 8507,
      "Election": 8508,
      "stipulated": 8509,
      "audits": 8510,
      "Salv": 8511,
      "foresee": 8512,
      "severely": 8513,
      "mixed": 8514,
      "deposit": 8515,
      "federal": 8516,
      "hunting": 8517,
      "conventional": 8518,
      "LEGAL": 8519,
      "counterfeit": 8520,
      "servants": 8521,
      "Timor": 8522,
      "isolated": 8523,
      "Speak": 8524,
      "artificial": 8525,
      "feasibility": 8526,
      "Drugs": 8527,
      "vegetables": 8528,
      "Brok": 8529,
      "newspaper": 8530,
      "Elisabeth": 8531,
      "affordable": 8532,
      "Claude": 8533,
      "ministerial": 8534,
      "symbol": 8535,
      "revealed": 8536,
      "hearings": 8537,
      "Multi": 8538,
      "Darfur": 8539,
      "alarming": 8540,
      "imperative": 8541,
      "relatives": 8542,
      "rafts": 8543,
      "Alexander": 8544,
      "Quality": 8545,
      "Colombia": 8546,
      "picture": 8547,
      "harassment": 8548,
      "patterns": 8549,
      "dossi": 8550,
      "Prosecutor": 8551,
      "PROPOSAL": 8552,
      "Draws": 8553,
      "propag": 8554,
      "hygiene": 8555,
      "flavour": 8556,
      "synergies": 8557,
      "smart": 8558,
      "controversial": 8559,
      "Caucasus": 8560,
      "fashion": 8561,
      "('": 8562,
      "(*": 8563,
      "--": 8564,
      "Ano": 8565,
      "Bec": 8566,
      "Call": 8567,
      "Dub": 8568,
      "Emer": 8569,
      "Fle": 8570,
      "ION": 8571,
      "Imp": 8572,
      "Kal": 8573,
      "Nep": 8574,
      "Pas": 8575,
      "Pil": 8576,
      "Pass": 8577,
      "Pier": 8578,
      "Rac": 8579,
      "ST": 8580,
      "SW": 8581,
      "Simp": 8582,
      "Sán": 8583,
      "You": 8584,
      "apart": 8585,
      "evol": 8586,
      "lum": 8587,
      "rational": 8588,
      "smu": 8589,
      "onian": 8590,
      "thematic": 8591,
      "reper": 8592,
      "remit": 8593,
      "tious": 8594,
      "ero": 8595,
      "aris": 8596,
      "omer": 8597,
      "oulos": 8598,
      "prolong": 8599,
      "began": 8600,
      "deport": 8601,
      "deals": 8602,
      "heart": 8603,
      "concer": 8604,
      "unchanged": 8605,
      "unilateral": 8606,
      "Commer": 8607,
      "oplan": 8608,
      "tell": 8609,
      "aggreg": 8610,
      "bers": 8611,
      "whatever": 8612,
      "porno": 8613,
      "imprisonment": 8614,
      "vier": 8615,
      "comprise": 8616,
      "dus": 8617,
      "tru": 8618,
      "lope": 8619,
      "manif": 8620,
      "tum": 8621,
      "romag": 8622,
      "illness": 8623,
      "auc": 8624,
      "lavia": 8625,
      "008": 8626,
      "Unit": 8627,
      "dismis": 8628,
      "disclosed": 8629,
      "serving": 8630,
      "genocide": 8631,
      "pho": 8632,
      "prime": 8633,
      "prize": 8634,
      "trader": 8635,
      "thereafter": 8636,
      "Condemn": 8637,
      "approving": 8638,
      "elly": 8639,
      "lowest": 8640,
      "relates": 8641,
      "Three": 8642,
      "ITRE": 8643,
      "dramatic": 8644,
      "legality": 8645,
      "thanks": 8646,
      "socially": 8647,
      "166": 8648,
      "180": 8649,
      "appropriately": 8650,
      "twice": 8651,
      "coll": 8652,
      "colour": 8653,
      "sson": 8654,
      "holi": 8655,
      "something": 8656,
      "Amending": 8657,
      "regulating": 8658,
      "retur": 8659,
      "halt": 8660,
      "corrective": 8661,
      "consorti": 8662,
      "DEBA": 8663,
      "Enlargement": 8664,
      "Final": 8665,
      "openly": 8666,
      "openness": 8667,
      "limitations": 8668,
      "adds": 8669,
      "distingu": 8670,
      "alogues": 8671,
      "receives": 8672,
      "carefully": 8673,
      "offset": 8674,
      "strike": 8675,
      "investigating": 8676,
      "restricting": 8677,
      "IMCO": 8678,
      "facilitation": 8679,
      "hibi": 8680,
      "everything": 8681,
      "collect": 8682,
      "Competition": 8683,
      "Serbian": 8684,
      "Schul": 8685,
      "constructed": 8686,
      "observer": 8687,
      "cultivation": 8688,
      "standardisation": 8689,
      "REGI": 8690,
      "compensate": 8691,
      "clearer": 8692,
      "exploit": 8693,
      "returned": 8694,
      "separately": 8695,
      "adjusted": 8696,
      "interpret": 8697,
      "exported": 8698,
      "phasing": 8699,
      "brand": 8700,
      "evaluations": 8701,
      "evaluated": 8702,
      "concentrate": 8703,
      "prohibits": 8704,
      "ULT": 8705,
      "consolidating": 8706,
      "households": 8707,
      "replacement": 8708,
      "Universal": 8709,
      "jury": 8710,
      "weaknesses": 8711,
      "looking": 8712,
      "puts": 8713,
      "heavily": 8714,
      "River": 8715,
      "historic": 8716,
      "Abd": 8717,
      "usual": 8718,
      "detained": 8719,
      "punishment": 8720,
      "David": 8721,
      "sample": 8722,
      "Yugoslavia": 8723,
      "feasible": 8724,
      "nonetheless": 8725,
      "neutral": 8726,
      "Intelligent": 8727,
      "lodged": 8728,
      "journey": 8729,
      "Lastly": 8730,
      "Kenya": 8731,
      "Scheme": 8732,
      "murder": 8733,
      "felt": 8734,
      "Sky": 8735,
      "MEDIA": 8736,
      "Costa": 8737,
      "gratulates": 8738,
      "Galicia": 8739,
      "cosmetic": 8740,
      "atmosphere": 8741,
      "Infrastruc": 8742,
      "Confederation": 8743,
      "Against": 8744,
      "Gabri": 8745,
      "enormous": 8746,
      "authentic": 8747,
      "printed": 8748,
      "Dublin": 8749,
      "Nepal": 8750,
      "Condemns": 8751,
      "DEBATE": 8752,
      "\";": 8753,
      "';": 8754,
      "Ari": 8755,
      "Bay": 8756,
      "Broad": 8757,
      "CA": 8758,
      "CB": 8759,
      "CD": 8760,
      "Cs": 8761,
      "Date": 8762,
      "Dep": 8763,
      "Drafts": 8764,
      "Even": 8765,
      "GR": 8766,
      "Great": 8767,
      "GNI": 8768,
      "HU": 8769,
      "IE": 8770,
      "Id": 8771,
      "JU": 8772,
      "Jar": 8773,
      "Job": 8774,
      "James": 8775,
      "Kor": 8776,
      "Key": 8777,
      "LDC": 8778,
      "MI": 8779,
      "Sim": 8780,
      "Tem": 8781,
      "Vil": 8782,
      "VER": 8783,
      "WEEE": 8784,
      "backs": 8785,
      "breast": 8786,
      "cía": 8787,
      "faction": 8788,
      "hec": 8789,
      "spl": 8790,
      "sick": 8791,
      "twel": 8792,
      "uts": 8793,
      "went": 8794,
      "zi": 8795,
      "zing": 8796,
      "inated": 8797,
      "insul": 8798,
      "inks": 8799,
      "instances": 8800,
      "anger": 8801,
      "reb": 8802,
      "rez": 8803,
      "rely": 8804,
      "refin": 8805,
      "reception": 8806,
      "ester": 8807,
      "escal": 8808,
      "atori": 8809,
      "tom": 8810,
      "tou": 8811,
      "tough": 8812,
      "ara": 8813,
      "andem": 8814,
      "oub": 8815,
      "prote": 8816,
      "propri": 8817,
      "iled": 8818,
      "ilings": 8819,
      "bels": 8820,
      "deforestation": 8821,
      "conce": 8822,
      "confer": 8823,
      "convention": 8824,
      "concession": 8825,
      "unauthorised": 8826,
      "unprecedent": 8827,
      "ceilings": 8828,
      "urship": 8829,
      "cht": 8830,
      "importer": 8831,
      "makers": 8832,
      "recourse": 8833,
      "soli": 8834,
      "coach": 8835,
      "Inc": 8836,
      "Insurance": 8837,
      "formed": 8838,
      "istries": 8839,
      "upgra": 8840,
      "plements": 8841,
      "001": 8842,
      "trig": 8843,
      "ECH": 8844,
      "disclose": 8845,
      "disrup": 8846,
      "disarmament": 8847,
      "underpin": 8848,
      "prefer": 8849,
      "pher": 8850,
      "ower": 8851,
      "therein": 8852,
      "guard": 8853,
      "1980": 8854,
      "elab": 8855,
      "tende": 8856,
      "gration": 8857,
      "mony": 8858,
      "voice": 8859,
      "gross": 8860,
      "box": 8861,
      "107": 8862,
      "Provision": 8863,
      "COP": 8864,
      "Decree": 8865,
      "avour": 8866,
      "Chi": 8867,
      "mese": 8868,
      "readily": 8869,
      "generations": 8870,
      "twin": 8871,
      "Intergovernmental": 8872,
      "implies": 8873,
      "leads": 8874,
      "integrating": 8875,
      "retro": 8876,
      "corner": 8877,
      "confisc": 8878,
      "officer": 8879,
      "Force": 8880,
      "distur": 8881,
      "parliamentarians": 8882,
      "Algeria": 8883,
      "constituents": 8884,
      "engagement": 8885,
      "century": 8886,
      "headed": 8887,
      "headings": 8888,
      "believed": 8889,
      "LEX": 8890,
      "Several": 8891,
      "Gior": 8892,
      "Both": 8893,
      "contractors": 8894,
      "Guant": 8895,
      "NGO": 8896,
      "complying": 8897,
      "barome": 8898,
      "personality": 8899,
      "suspic": 8900,
      "chairmen": 8901,
      "camp": 8902,
      "sanction": 8903,
      "scrap": 8904,
      "satisfy": 8905,
      "satisfaction": 8906,
      "wishing": 8907,
      "Brian": 8908,
      "occurrence": 8909,
      "pients": 8910,
      "EEA": 8911,
      "architect": 8912,
      "travelling": 8913,
      "Vienna": 8914,
      "corresponds": 8915,
      "ambling": 8916,
      "relationships": 8917,
      "Burmese": 8918,
      "delivering": 8919,
      "looked": 8920,
      "Korean": 8921,
      "prosecution": 8922,
      "ROM": 8923,
      "ggle": 8924,
      "houses": 8925,
      "IFE": 8926,
      "ambigu": 8927,
      "classes": 8928,
      "attractive": 8929,
      "Basel": 8930,
      "García": 8931,
      "index": 8932,
      "conveni": 8933,
      "forecast": 8934,
      "fulfilling": 8935,
      "pesticide": 8936,
      "expensive": 8937,
      "speakers": 8938,
      "exactly": 8939,
      "warned": 8940,
      "reaffirmed": 8941,
      "cancell": 8942,
      "injuries": 8943,
      "decrease": 8944,
      "towns": 8945,
      "electromag": 8946,
      "survival": 8947,
      "branches": 8948,
      "Kurdish": 8949,
      "STATE": 8950,
      "honour": 8951,
      "diagnosis": 8952,
      "Guido": 8953,
      "kilomet": 8954,
      "narrow": 8955,
      "screening": 8956,
      "detrimental": 8957,
      "Docu": 8958,
      "Schools": 8959,
      "Ashton": 8960,
      "compounds": 8961,
      "Waste": 8962,
      "perpetrators": 8963,
      "surrounding": 8964,
      "Tampere": 8965,
      "Current": 8966,
      "Ioannis": 8967,
      "traceability": 8968,
      "Ethiopia": 8969,
      "Business": 8970,
      "tighten": 8971,
      "pectives": 8972,
      "Another": 8973,
      "Pierre": 8974,
      "Sánchez": 8975,
      "atorium": 8976,
      "unprecedented": 8977,
      "1G": 8978,
      "115": 8979,
      "Astri": 8980,
      "Brit": 8981,
      "Borders": 8982,
      "Cre": 8983,
      "Cath": 8984,
      "Catch": 8985,
      "DK": 8986,
      "Dal": 8987,
      "Dap": 8988,
      "Evaluation": 8989,
      "FY": 8990,
      "Fil": 8991,
      "GA": 8992,
      "Hau": 8993,
      "Hearing": 8994,
      "Lou": 8995,
      "LIFE": 8996,
      "MON": 8997,
      "MPs": 8998,
      "Pé": 8999,
      "Pit": 9000,
      "Preli": 9001,
      "PDB": 9002,
      "PECH": 9003,
      "Ram": 9004,
      "Sri": 9005,
      "SON": 9006,
      "SAP": 9007,
      "Tob": 9008,
      "Taking": 9009,
      "Tax": 9010,
      "Vide": 9011,
      "[…": 9012,
      "afore": 9013,
      "cofin": 9014,
      "flying": 9015,
      "gar": 9016,
      "gic": 9017,
      "gone": 9018,
      "games": 9019,
      "pain": 9020,
      "pages": 9021,
      "stic": 9022,
      "uli": 9023,
      "vist": 9024,
      "yield": 9025,
      "zel": 9026,
      "ço": 9027,
      "öm": 9028,
      "thir": 9029,
      "onso": 9030,
      "onwards": 9031,
      "inian": 9032,
      "intim": 9033,
      "ante": 9034,
      "revo": 9035,
      "resumption": 9036,
      "tige": 9037,
      "encomp": 9038,
      "ensions": 9039,
      "errors": 9040,
      "roll": 9041,
      "inger": 9042,
      "assign": 9043,
      "lean": 9044,
      "ils": 9045,
      "sumed": 9046,
      "dean": 9047,
      "devoted": 9048,
      "devast": 9049,
      "het": 9050,
      "consoli": 9051,
      "unlawful": 9052,
      "resc": 9053,
      "seal": 9054,
      "semin": 9055,
      "irk": 9056,
      "chaired": 9057,
      "berg": 9058,
      "bercul": 9059,
      "olic": 9060,
      "imer": 9061,
      "imposition": 9062,
      "park": 9063,
      "dues": 9064,
      "duci": 9065,
      "duplication": 9066,
      "mos": 9067,
      "recur": 9068,
      "therto": 9069,
      "answered": 9070,
      "iden": 9071,
      "gel": 9072,
      "gear": 9073,
      "ström": 9074,
      "rend": 9075,
      "outbreak": 9076,
      "Reports": 9077,
      "lah": 9078,
      "lame": 9079,
      "007": 9080,
      "0098": 9081,
      "ECSC": 9082,
      "intern": 9083,
      "interview": 9084,
      "underline": 9085,
      "prerequisite": 9086,
      "lles": 9087,
      "feature": 9088,
      "decade": 9089,
      "measured": 9090,
      "ESR": 9091,
      "Conf": 9092,
      "Congratulates": 9093,
      "Die": 9094,
      "overri": 9095,
      "fertil": 9096,
      "humanity": 9097,
      "102": 9098,
      "103": 9099,
      "secrecy": 9100,
      "Promo": 9101,
      "anning": 9102,
      "ifying": 9103,
      "restoring": 9104,
      "Among": 9105,
      "selt": 9106,
      "generic": 9107,
      "affects": 9108,
      "creates": 9109,
      "bute": 9110,
      "inds": 9111,
      "cussions": 9112,
      "twenty": 9113,
      "mostly": 9114,
      "periodic": 9115,
      "initially": 9116,
      "tese": 9117,
      "venture": 9118,
      "dependency": 9119,
      "competitors": 9120,
      "capture": 9121,
      "contrast": 9122,
      "UNSC": 9123,
      "participant": 9124,
      "consular": 9125,
      "reasonably": 9126,
      "Occup": 9127,
      "bonds": 9128,
      "290": 9129,
      "ORY": 9130,
      "Restric": 9131,
      "reviews": 9132,
      "reviewing": 9133,
      "draws": 9134,
      "likewise": 9135,
      "originally": 9136,
      "EMU": 9137,
      "mergers": 9138,
      "Post": 9139,
      "Programmes": 9140,
      "Socialist": 9141,
      "hitherto": 9142,
      "paediatric": 9143,
      "avoided": 9144,
      "Bangl": 9145,
      "Syl": 9146,
      "Syrian": 9147,
      "emergence": 9148,
      "solar": 9149,
      "Beij": 9150,
      "sessions": 9151,
      "comprehensible": 9152,
      "sixth": 9153,
      "exploited": 9154,
      "News": 9155,
      "validation": 9156,
      "Ukrainian": 9157,
      "conditioning": 9158,
      "subsidiary": 9159,
      "Observation": 9160,
      "Observ": 9161,
      "tunnel": 9162,
      "preserved": 9163,
      "calculating": 9164,
      "entirely": 9165,
      "DCI": 9166,
      "Karin": 9167,
      "Camp": 9168,
      "himself": 9169,
      "undermines": 9170,
      "moratorium": 9171,
      "schedule": 9172,
      "nearly": 9173,
      "allegedly": 9174,
      "broken": 9175,
      "oriented": 9176,
      "pillars": 9177,
      "Danu": 9178,
      "Fern": 9179,
      "prescribed": 9180,
      "redundancies": 9181,
[...]
