{
  "version": "1.0",
  "truncation": null,
  "padding": null,
  "added_tokens": [
    {
      "id": 0,
      "content": "[UNK]",
      "single_word": false,
      "lstrip": false,
      "rstrip": false,
      "normalized": false,
      "special": true
    },
    {
      "id": 1,
      "content": "[PAD]",
      "single_word": false,
      "lstrip": false,
      "rstrip": false,
      "normalized": false,
      "special": true
    },
    {
      "id": 2,
      "content": "[BOS]",
      "single_word": false,
      "lstrip": false,
      "rstrip": false,
      "normalized": false,
      "special": true
    },
    {
      "id": 3,
      "content": "[EOS]",
      "single_word": false,
      "lstrip": false,
      "rstrip": false,
      "normalized": false,
      "special": true
    }
  ],
  "normalizer": null,
  "pre_tokenizer": {
    "type": "Whitespace"
  },
  "post_processor": null,
  "decoder": null,
  "model": {
    "type": "BPE",
    "dropout": null,
    "unk_token": "[UNK]",
    "continuing_subword_prefix": null,
    "end_of_word_suffix": null,
    "fuse_unk": false,
    "byte_fallback": false,
    "ignore_merges": false,
    "vocab": {
      "[UNK]": 0,
      "[PAD]": 1,
      "[BOS]": 2,
      "[EOS]": 3,
      "!": 4,
      "\"": 5,
      "#": 6,
      "$": 7,
      "%": 8,
      "&": 9,
      "'": 10,
      "(": 11,
      ")": 12,
      "*": 13,
      "+": 14,
      ",": 15,
      "-": 16,
      ".": 17,
      "/": 18,
      "0": 19,
      "1": 20,
      "2": 21,
      "3": 22,
      "4": 23,
      "5": 24,
      "6": 25,
      "7": 26,
      "8": 27,
      "9": 28,
      ":": 29,
      ";": 30,
      "<": 31,
      "=": 32,
      ">": 33,
      "?": 34,
      "@": 35,
      "A": 36,
      "B": 37,
      "C": 38,
      "D": 39,
      "E": 40,
      "F": 41,
      "G": 42,
      "H": 43,
      "I": 44,
      "J": 45,
      "K": 46,
      "L": 47,
      "M": 48,
      "N": 49,
      "O": 50,
      "P": 51,
      "Q": 52,
      "R": 53,
      "S": 54,
      "T": 55,
      "U": 56,
      "V": 57,
      "W": 58,
      "X": 59,
      "Y": 60,
      "Z": 61,
      "[": 62,
      "]": 63,
      "_": 64,
      "a": 65,
      "b": 66,
      "c": 67,
      "d": 68,
      "e": 69,
      "f": 70,
      "g": 71,
      "h": 72,
      "i": 73,
      "j": 74,
      "k": 75,
      "l": 76,
      "m": 77,
      "n": 78,
      "o": 79,
      "p": 80,
      "q": 81,
      "r": 82,
      "s": 83,
      "t": 84,
      "u": 85,
      "v": 86,
      "w": 87,
      "x": 88,
      "y": 89,
      "z": 90,
      "{": 91,
      "}": 92,
      "§": 93,
      "©": 94,
      "«": 95,
      "­": 96,
      "°": 97,
      "±": 98,
      "²": 99,
      "³": 100,
      "´": 101,
      "µ": 102,
      "·": 103,
      "¸": 104,
      "º": 105,
      "»": 106,
      "¼": 107,
      "À": 108,
      "Á": 109,
      "Â": 110,
      "Ã": 111,
      "Ä": 112,
      "Å": 113,
      "Æ": 114,
      "Ç": 115,
      "È": 116,
      "É": 117,
      "Ê": 118,
      "Í": 119,
      "Î": 120,
      "Ï": 121,
      "Ñ": 122,
      "Ó": 123,
      "Ô": 124,
      "Ö": 125,
      "Ø": 126,
      "Ú": 127,
      "Û": 128,
      "Ü": 129,
      "ß": 130,
      "à": 131,
      "á": 132,
      "â": 133,
      "ã": 134,
      "ä": 135,
      "å": 136,
      "æ": 137,
      "ç": 138,
      "è": 139,
      "é": 140,
      "ê": 141,
      "ë": 142,
      "ì": 143,
      "í": 144,
      "î": 145,
      "ï": 146,
      "ñ": 147,
      "ò": 148,
      "ó": 149,
      "ô": 150,
      "ö": 151,
      "ø": 152,
      "ù": 153,
      "ú": 154,
      "û": 155,
      "ü": 156,
      "ý": 157,
      "ā": 158,
      "ă": 159,
      "ą": 160,
      "ć": 161,
      "č": 162,
      "Đ": 163,
      "Ė": 164,
      "ė": 165,
      "ę": 166,
      "ě": 167,
      "ğ": 168,
      "Ģ": 169,
      "ī": 170,
      "ı": 171,
      "ľ": 172,
      "Ł": 173,
      "ł": 174,
      "ń": 175,
      "Ň": 176,
      "ň": 177,
      "Ő": 178,
      "ő": 179,
      "Œ": 180,
      "œ": 181,
      "ř": 182,
      "Ś": 183,
      "ś": 184,
      "Ş": 185,
      "ş": 186,
      "Š": 187,
      "š": 188,
      "Ţ": 189,
      "ţ": 190,
      "ť": 191,
      "ū": 192,
      "ź": 193,
      "Ż": 194,
      "ż": 195,
      "Ž": 196,
      "ž": 197,
      "ǎ": 198,
      "ș": 199,
      "Α": 200,
      "Β": 201,
      "Θ": 202,
      "Σ": 203,
      "Τ": 204,
      "έ": 205,
      "ί": 206,
      "α": 207,
      "β": 208,
      "γ": 209,
      "δ": 210,
      "ε": 211,
      "η": 212,
      "ι": 213,
      "κ": 214,
      "λ": 215,
      "μ": 216,
      "ν": 217,
      "ξ": 218,
      "ο": 219,
      "π": 220,
      "ρ": 221,
      "ς": 222,
      "σ": 223,
      "τ": 224,
      "υ": 225,
      "ό": 226,
      "ύ": 227,
      "ώ": 228,
      "ả": 229,
      "ộ": 230,
      "​": 231,
      "‐": 232,
      "‑": 233,
      "–": 234,
      "—": 235,
      "‘": 236,
      "’": 237,
      "“": 238,
      "”": 239,
      "•": 240,
      "…": 241,
      "€": 242,
      "↓": 243,
      "−": 244,
      "∙": 245,
      "≤": 246,
      "║": 247,
      "▌": 248,
      "▐": 249,
      "□": 250,
      "▪": 251,
      "●": 252,
      "◙": 253,
      "": 254,
      "": 255,
      "es": 256,
      "on": 257,
      "en": 258,
      "ti": 259,
      "de": 260,
      "an": 261,
      "ur": 262,
      "le": 263,
      "la": 264,
      "ent": 265,
      "re": 266,
      "tion": 267,
      "is": 268,
      "qu": 269,
      "er": 270,
      "in": 271,
      "et": 272,
      "it": 273,
      "les": 274,
      "ar": 275,
      "pr": 276,
      "au": 277,
      "des": 278,
      "po": 279,
      "om": 280,
      "ment": 281,
      "si": 282,
      "ra": 283,
      "ne": 284,
      "con": 285,
      "que": 286,
      "du": 287,
      "te": 288,
      "ou": 289,
      "or": 290,
      "ation": 291,
      "li": 292,
      "ce": 293,
      "ant": 294,
      "dé": 295,
      "se": 296,
      "il": 297,
      "ta": 298,
      "par": 299,
      "omm": 300,
      "ré": 301,
      "res": 302,
      "ans": 303,
      "ve": 304,
      "un": 305,
      "pro": 306,
      "op": 307,
      "di": 308,
      "és": 309,
      "ci": 310,
      "ch": 311,
      "me": 312,
      "sion": 313,
      "té": 314,
      "tr": 315,
      "eur": 316,
      "ac": 317,
      "al": 318,
      "20": 319,
      "el": 320,
      "pour": 321,
      "dans": 322,
      "sur": 323,
      "ai": 324,
      "aux": 325,
      "ité": 326,
      "une": 327,
      "as": 328,
      "opé": 329,
      "tre": 330,
      "ces": 331,
      "ag": 332,
      "us": 333,
      "lement": 334,
      "ission": 335,
      "fi": 336,
      "ri": 337,
      "ts": 338,
      "vi": 339,
      "ter": 340,
      "200": 341,
      "né": 342,
      "ont": 343,
      "opéen": 344,
      "pe": 345,
      "ommission": 346,
      "européen": 347,
      "ni": 348,
      "pl": 349,
      "por": 350,
      "qui": 351,
      "ex": 352,
      "for": 353,
      "mb": 354,
      "tions": 355,
      "co": 356,
      "oi": 357,
      "tra": 358,
      "mes": 359,
      "ques": 360,
      "ap": 361,
      "est": 362,
      "com": 363,
      "Commission": 364,
      "su": 365,
      "comm": 366,
      "ma": 367,
      "so": 368,
      "urs": 369,
      "ro": 370,
      "ins": 371,
      "tu": 372,
      "ad": 373,
      "rap": 374,
      "gi": 375,
      "fin": 376,
      "ère": 377,
      "ten": 378,
      "mé": 379,
      "cu": 380,
      "mo": 381,
      "pré": 382,
      "ers": 383,
      "ations": 384,
      "lu": 385,
      "elle": 386,
      "man": 387,
      "cer": 388,
      "aut": 389,
      "pu": 390,
      "Éta": 391,
      "ab": 392,
      "at": 393,
      "port": 394,
      "Con": 395,
      "lé": 396,
      "memb": 397,
      "cti": 398,
      "im": 399,
      "sé": 400,
      "pé": 401,
      "ser": 402,
      "ff": 403,
      "av": 404,
      "ction": 405,
      "pas": 406,
      "ance": 407,
      "ob": 408,
      "aire": 409,
      "ure": 410,
      "ys": 411,
      "ite": 412,
      "tou": 413,
      "posi": 414,
      "sou": 415,
      "seil": 416,
      "pa": 417,
      "..": 418,
      "its": 419,
      "tic": 420,
      "européenne": 421,
      "ence": 422,
      "dis": 423,
      "membres": 424,
      "Conseil": 425,
      "ain": 426,
      "tes": 427,
      "parti": 428,
      "entre": 429,
      "États": 430,
      "our": 431,
      "prés": 432,
      "ée": 433,
      "ave": 434,
      "no": 435,
      "ale": 436,
      "min": 437,
      "vis": 438,
      "Par": 439,
      "acc": 440,
      "ver": 441,
      "Uni": 442,
      "jet": 443,
      "sont": 444,
      "ments": 445,
      "end": 446,
      "vu": 447,
      "ticle": 448,
      "ge": 449,
      "rè": 450,
      "ait": 451,
      "ise": 452,
      "ités": 453,
      "aires": 454,
      "plus": 455,
      "UE": 456,
      "être": 457,
      "ées": 458,
      "La": 459,
      "Union": 460,
      "tique": 461,
      "présent": 462,
      "dro": 463,
      "mar": 464,
      "ire": 465,
      "avec": 466,
      "ration": 467,
      "ures": 468,
      "cons": 469,
      "tri": 470,
      "lic": 471,
      "vel": 472,
      "ion": 473,
      "inter": 474,
      "nation": 475,
      "ves": 476,
      "ord": 477,
      "lis": 478,
      "ux": 479,
      "dire": 480,
      "éta": 481,
      "Parlement": 482,
      "ès": 483,
      "per": 484,
      "ct": 485,
      "été": 486,
      "mi": 487,
      "fon": 488,
      "form": 489,
      "déc": 490,
      "concer": 491,
      "consi": 492,
      "vo": 493,
      "uv": 494,
      "cet": 495,
      "nement": 496,
      "commun": 497,
      "ir": 498,
      "trans": 499,
      "fic": 500,
      "nes": 501,
      "poli": 502,
      "lo": 503,
      "bu": 504,
      "00": 505,
      "deman": 506,
      "ens": 507,
      "age": 508,
      "article": 509,
      "201": 510,
      "règ": 511,
      "Le": 512,
      "ven": 513,
      "em": 514,
      "pays": 515,
      "ants": 516,
      "titu": 517,
      "app": 518,
      "met": 519,
      "che": 520,
      "men": 521,
      "considé": 522,
      "position": 523,
      "soci": 524,
      "gu": 525,
      "teur": 526,
      "cé": 527,
      "gra": 528,
      "ons": 529,
      "comp": 530,
      "Les": 531,
      "do": 532,
      "nou": 533,
      "sa": 534,
      "lle": 535,
      "oir": 536,
      "raph": 537,
      "gé": 538,
      "tiques": 539,
      "ctive": 540,
      "teurs": 541,
      "lati": 542,
      "pri": 543,
      "ég": 544,
      "ales": 545,
      "pub": 546,
      "cess": 547,
      "rant": 548,
      "ille": 549,
      "CE": 550,
      "produ": 551,
      "va": 552,
      "iss": 553,
      "demande": 554,
      "),": 555,
      "ut": 556,
      "pris": 557,
      "inté": 558,
      "don": 559,
      "gr": 560,
      "agraph": 561,
      "paragraph": 562,
      "pos": 563,
      "lig": 564,
      "autor": 565,
      "lég": 566,
      "cur": 567,
      "tant": 568,
      "dev": 569,
      "velop": 570,
      "dent": 571,
      "pers": 572,
      "ér": 573,
      "ble": 574,
      "cette": 575,
      "paragraphe": 576,
      "ères": 577,
      "év": 578,
      "AA": 579,
      "dévelop": 580,
      "fs": 581,
      "je": 582,
      "ner": 583,
      "ors": 584,
      "leur": 585,
      "ie": 586,
      "son": 587,
      "elles": 588,
      "ouver": 589,
      "ème": 590,
      "mesures": 591,
      "droits": 592,
      "da": 593,
      "considérant": 594,
      "ron": 595,
      "ses": 596,
      "tru": 597,
      "règlement": 598,
      "nu": 599,
      "uti": 600,
      "....": 601,
      "rait": 602,
      "ine": 603,
      "régi": 604,
      "enti": 605,
      "veau": 606,
      "ainsi": 607,
      "mment": 608,
      "tés": 609,
      "march": 610,
      "cr": 611,
      "finan": 612,
      "lation": 613,
      "cad": 614,
      "ique": 615,
      "isation": 616,
      "rapport": 617,
      "conom": 618,
      "directive": 619,
      "mon": 620,
      "pement": 621,
      "ilité": 622,
      "économ": 623,
      "gram": 624,
      "adop": 625,
      "19": 626,
      "inform": 627,
      "nées": 628,
      "ois": 629,
      "nom": 630,
      "mp": 631,
      "na": 632,
      "anti": 633,
      "cadre": 634,
      "der": 635,
      "gan": 636,
      "quel": 637,
      "autres": 638,
      "ON": 639,
      "bi": 640,
      "ca": 641,
      "lon": 642,
      "TE": 643,
      "person": 644,
      "pon": 645,
      "ren": 646,
      "cré": 647,
      "contre": 648,
      "nant": 649,
      "ision": 650,
      "gie": 651,
      "program": 652,
      "mati": 653,
      "développement": 654,
      "accord": 655,
      "fa": 656,
      "nécess": 657,
      "relati": 658,
      "non": 659,
      "bre": 660,
      "to": 661,
      "politique": 662,
      "utilis": 663,
      "lution": 664,
      "vent": 665,
      "gar": 666,
      "rer": 667,
      "ju": 668,
      "curité": 669,
      "cas": 670,
      "décision": 671,
      "//": 672,
      "inci": 673,
      "Il": 674,
      "nel": 675,
      "ig": 676,
      "organ": 677,
      "procé": 678,
      "trava": 679,
      "TI": 680,
      "alité": 681,
      "commission": 682,
      "mise": 683,
      "financi": 684,
      "tis": 685,
      "sécurité": 686,
      "servi": 687,
      "sys": 688,
      "int": 689,
      "ali": 690,
      "ges": 691,
      "tamment": 692,
      "fait": 693,
      "uation": 694,
      "Eur": 695,
      "able": 696,
      "tent": 697,
      "comme": 698,
      "ôle": 699,
      "ient": 700,
      "ds": 701,
      "Ob": 702,
      "positions": 703,
      "eff": 704,
      "éle": 705,
      "bles": 706,
      "oy": 707,
      "rieur": 708,
      "eu": 709,
      "acti": 710,
      "ati": 711,
      "ef": 712,
      "pre": 713,
      "légis": 714,
      "syst": 715,
      "concernant": 716,
      "matière": 717,
      "import": 718,
      "particu": 719,
      "mis": 720,
      "peut": 721,
      "publi": 722,
      "obje": 723,
      "doit": 724,
      "alement": 725,
      "mettre": 726,
      "proposition": 727,
      "communau": 728,
      "Qu": 729,
      "mbre": 730,
      "Objet": 731,
      "sui": 732,
      "particuli": 733,
      "État": 734,
      "procéd": 735,
      "applic": 736,
      "afin": 737,
      "uvre": 738,
      "confor": 739,
      "ba": 740,
      "projet": 741,
      "10": 742,
      "En": 743,
      "oc": 744,
      "jus": 745,
      "notamment": 746,
      "objecti": 747,
      "pla": 748,
      "cher": 749,
      "sta": 750,
      "lors": 751,
      "étab": 752,
      "internation": 753,
      "sant": 754,
      "ist": 755,
      "cul": 756,
      "géné": 757,
      "marché": 758,
      "vé": 759,
      "princi": 760,
      "dg": 761,
      "sement": 762,
      "ences": 763,
      "sident": 764,
      "contr": 765,
      "œuvre": 766,
      "compé": 767,
      "TION": 768,
      "vers": 769,
      "budg": 770,
      "iti": 771,
      "viron": 772,
      "ils": 773,
      "respe": 774,
      "gouver": 775,
      "dom": 776,
      "communauta": 777,
      "ires": 778,
      "près": 779,
      "opération": 780,
      "droit": 781,
      "2010": 782,
      "ense": 783,
      "pres": 784,
      "cours": 785,
      "appro": 786,
      "lan": 787,
      "environ": 788,
      "homm": 789,
      "compte": 790,
      "sul": 791,
      "CO": 792,
      "prises": 793,
      "th": 794,
      "tection": 795,
      "conc": 796,
      "ctions": 797,
      "bilité": 798,
      "RI": 799,
      "vue": 800,
      "mément": 801,
      "point": 802,
      "pend": 803,
      "els": 804,
      "car": 805,
      "assur": 806,
      "leurs": 807,
      "éch": 808,
      "également": 809,
      "sec": 810,
      "deux": 811,
      "tel": 812,
      "esti": 813,
      "ul": 814,
      "ffi": 815,
      "faire": 816,
      "cla": 817,
      "services": 818,
      "tout": 819,
      "cation": 820,
      "ris": 821,
      "sit": 822,
      "protection": 823,
      "tribu": 824,
      "os": 825,
      "prend": 826,
      "tous": 827,
      "aff": 828,
      "spé": 829,
      "mais": 830,
      "répon": 831,
      "iter": 832,
      "médi": 833,
      "ard": 834,
      "alis": 835,
      "mê": 836,
      "DE": 837,
      "indi": 838,
      "2007": 839,
      "aine": 840,
      "conformément": 841,
      "environnement": 842,
      "PE": 843,
      "cri": 844,
      "garanti": 845,
      "certa": 846,
      "lib": 847,
      "ope": 848,
      "2006": 849,
      "programme": 850,
      "condi": 851,
      "QUE": 852,
      "amé": 853,
      "erci": 854,
      "niveau": 855,
      "eng": 856,
      "uni": 857,
      "Europe": 858,
      "spéci": 859,
      "mil": 860,
      "autorités": 861,
      "née": 862,
      "travail": 863,
      "ph": 864,
      "éner": 865,
      "membre": 866,
      "15": 867,
      "2008": 868,
      "tenu": 869,
      "possi": 870,
      "QUES": 871,
      "ents": 872,
      "avant": 873,
      "ari": 874,
      "tech": 875,
      "modi": 876,
      "public": 877,
      "12": 878,
      "iques": 879,
      "QUESTION": 880,
      "soit": 881,
      "traité": 882,
      "dement": 883,
      "Comm": 884,
      "oire": 885,
      "sub": 886,
      "nombre": 887,
      "ante": 888,
      "inv": 889,
      "enco": 890,
      "hu": 891,
      "nouvel": 892,
      "institu": 893,
      "produits": 894,
      "personnes": 895,
      "fication": 896,
      "AAAA": 897,
      "grou": 898,
      "toute": 899,
      "empl": 900,
      "informations": 901,
      "rê": 902,
      "and": 903,
      "région": 904,
      "four": 905,
      "cep": 906,
      "vention": 907,
      "organis": 908,
      "santé": 909,
      "pes": 910,
      "coopération": 911,
      "politiques": 912,
      "cap": 913,
      "Dans": 914,
      "oivent": 915,
      "péri": 916,
      "lè": 917,
      "posé": 918,
      "2011": 919,
      "activ": 920,
      "dispositions": 921,
      "généra": 922,
      "cha": 923,
      "traté": 924,
      ").": 925,
      "Ar": 926,
      "char": 927,
      "mani": 928,
      "réso": 929,
      "ple": 930,
      "présente": 931,
      "homme": 932,
      "ouv": 933,
      "ture": 934,
      "ange": 935,
      "aus": 936,
      "rais": 937,
      "action": 938,
      "nég": 939,
      "suiv": 940,
      "constitu": 941,
      "devrait": 942,
      "uri": 943,
      "plé": 944,
      "premi": 945,
      "lations": 946,
      "amen": 947,
      "application": 948,
      "diff": 949,
      "cit": 950,
      "fé": 951,
      "xe": 952,
      "........": 953,
      "doivent": 954,
      "éval": 955,
      "système": 956,
      "cent": 957,
      "ances": 958,
      "straté": 959,
      "même": 960,
      "défin": 961,
      "eurs": 962,
      "sig": 963,
      "tement": 964,
      "2009": 965,
      "base": 966,
      "contrôle": 967,
      "30": 968,
      "soulig": 969,
      "dur": 970,
      "II": 971,
      "bon": 972,
      "prom": 973,
      "199": 974,
      "2003": 975,
      "ol": 976,
      "rédu": 977,
      "ables": 978,
      "consomm": 979,
      "2005": 980,
      "sous": 981,
      "économique": 982,
      "mission": 983,
      "lar": 984,
      "conna": 985,
      "dont": 986,
      "renfor": 987,
      "ÉC": 988,
      "ets": 989,
      "nent": 990,
      "st": 991,
      "minis": 992,
      "sans": 993,
      "2002": 994,
      "actu": 995,
      "données": 996,
      "effic": 997,
      "dre": 998,
      "dépu": 999,
      "moins": 1000,
      "RITE": 1001,
      "ÉCRITE": 1002,
      "tenir": 1003,
      "fonction": 1004,
      "can": 1005,
      "procédure": 1006,
      "raient": 1007,
      "concerne": 1008,
      "nouveau": 1009,
      "2004": 1010,
      "logi": 1011,
      "avoir": 1012,
      "publique": 1013,
      "gestion": 1014,
      "part": 1015,
      "secteur": 1016,
      "pê": 1017,
      "tien": 1018,
      "tro": 1019,
      "communi": 1020,
      "ines": 1021,
      "oient": 1022,
      "11": 1023,
      "sup": 1024,
      "entreprises": 1025,
      "communautaire": 1026,
      "uvent": 1027,
      "liqu": 1028,
      "rég": 1029,
      "Article": 1030,
      "conditions": 1031,
      "terr": 1032,
      "Commun": 1033,
      "ang": 1034,
      "peuvent": 1035,
      "adopté": 1036,
      "décla": 1037,
      "améli": 1038,
      "nor": 1039,
      "citoy": 1040,
      "jour": 1041,
      "Ch": 1042,
      "TA": 1043,
      "recher": 1044,
      "particulier": 1045,
      "invite": 1046,
      "cra": 1047,
      "après": 1048,
      "inf": 1049,
      "16": 1050,
      "situation": 1051,
      "antes": 1052,
      "forme": 1053,
      "truct": 1054,
      "gouvernement": 1055,
      "In": 1056,
      "sour": 1057,
      "contra": 1058,
      "aide": 1059,
      "issance": 1060,
      "rappor": 1061,
      "fois": 1062,
      "oci": 1063,
      "LE": 1064,
      "moy": 1065,
      "prendre": 1066,
      "18": 1067,
      "domaine": 1068,
      "juri": 1069,
      "où": 1070,
      "question": 1071,
      "sor": 1072,
      "juridi": 1073,
      "dus": 1074,
      "utilisation": 1075,
      "eux": 1076,
      "pons": 1077,
      "rée": 1078,
      "résolution": 1079,
      "accès": 1080,
      "objectifs": 1081,
      "préc": 1082,
      "lui": 1083,
      "toutes": 1084,
      "sions": 1085,
      "cor": 1086,
      "place": 1087,
      "COM": 1088,
      "autre": 1089,
      "tte": 1090,
      "représent": 1091,
      "FR": 1092,
      "Pré": 1093,
      "fem": 1094,
      "fér": 1095,
      "puis": 1096,
      "vision": 1097,
      "17": 1098,
      "partici": 1099,
      "13": 1100,
      "ill": 1101,
      "avis": 1102,
      "députés": 1103,
      "soient": 1104,
      "tex": 1105,
      "réponse": 1106,
      "hé": 1107,
      "contribu": 1108,
      "ateurs": 1109,
      "amélio": 1110,
      "justi": 1111,
      "struct": 1112,
      "ellement": 1113,
      "prob": 1114,
      "prof": 1115,
      "aliment": 1116,
      "mble": 1117,
      "25": 1118,
      "auté": 1119,
      "respect": 1120,
      "estime": 1121,
      "initi": 1122,
      "jo": 1123,
      "mer": 1124,
      "tats": 1125,
      "fer": 1126,
      "manière": 1127,
      "démo": 1128,
      "règles": 1129,
      "derni": 1130,
      "ode": 1131,
      "2001": 1132,
      "illeurs": 1133,
      "pouv": 1134,
      "parten": 1135,
      "aient": 1136,
      "vie": 1137,
      "oblig": 1138,
      "établis": 1139,
      "recherche": 1140,
      "agri": 1141,
      "mesure": 1142,
      "gue": 1143,
      "aussi": 1144,
      "milli": 1145,
      "Communauté": 1146,
      "citoyens": 1147,
      "jou": 1148,
      "zon": 1149,
      "visant": 1150,
      "nexe": 1151,
      "sources": 1152,
      "convi": 1153,
      "commune": 1154,
      "exis": 1155,
      "direc": 1156,
      "respons": 1157,
      "permet": 1158,
      "effe": 1159,
      "étu": 1160,
      "différ": 1161,
      "groupe": 1162,
      "An": 1163,
      "tal": 1164,
      "nés": 1165,
      "plan": 1166,
      "enne": 1167,
      "séqu": 1168,
      "conclu": 1169,
      "pose": 1170,
      "lieu": 1171,
      "déf": 1172,
      "ran": 1173,
      "prise": 1174,
      "auc": 1175,
      "négoci": 1176,
      "Un": 1177,
      "lab": 1178,
      "14": 1179,
      "partie": 1180,
      "bé": 1181,
      "imp": 1182,
      "activités": 1183,
      "ancement": 1184,
      "nécessaire": 1185,
      "ais": 1186,
      "dépend": 1187,
      "souligne": 1188,
      "législation": 1189,
      "tention": 1190,
      "résul": 1191,
      "alisation": 1192,
      "pourrait": 1193,
      "information": 1194,
      "dit": 1195,
      "tation": 1196,
      "desti": 1197,
      "conséqu": 1198,
      "instru": 1199,
      "Ce": 1200,
      "démocra": 1201,
      "compétent": 1202,
      "écu": 1203,
      "relative": 1204,
      "gence": 1205,
      "ass": 1206,
      "emploi": 1207,
      "veaux": 1208,
      "actions": 1209,
      "crit": 1210,
      "femmes": 1211,
      "adminis": 1212,
      "intég": 1213,
      "assurer": 1214,
      "Ré": 1215,
      "évaluation": 1216,
      "lim": 1217,
      "sus": 1218,
      "selon": 1219,
      "administra": 1220,
      "président": 1221,
      "EP": 1222,
      "mondi": 1223,
      "Com": 1224,
      "ess": 1225,
      "modifi": 1226,
      "oris": 1227,
      "cessus": 1228,
      "03": 1229,
      "quelle": 1230,
      "processus": 1231,
      "énergie": 1232,
      "inves": 1233,
      "nat": 1234,
      "Pro": 1235,
      "rou": 1236,
      "annu": 1237,
      "intérê": 1238,
      "2000": 1239,
      "tiers": 1240,
      "équi": 1241,
      "intérieur": 1242,
      "ru": 1243,
      "abilité": 1244,
      "réglement": 1245,
      "ora": 1246,
      "commerci": 1247,
      "fonda": 1248,
      "garantir": 1249,
      "liber": 1250,
      "ctu": 1251,
      "spécifi": 1252,
      "ret": 1253,
      "hésion": 1254,
      "acité": 1255,
      "mps": 1256,
      "législati": 1257,
      "02": 1258,
      "texte": 1259,
      "bis": 1260,
      "fron": 1261,
      "ande": 1262,
      "exécu": 1263,
      "pai": 1264,
      "Au": 1265,
      "act": 1266,
      "bien": 1267,
      "initiati": 1268,
      "titre": 1269,
      "cro": 1270,
      "européennes": 1271,
      "européens": 1272,
      "exem": 1273,
      "fondament": 1274,
      "devraient": 1275,
      "rées": 1276,
      "main": 1277,
      "Mar": 1278,
      "SE": 1279,
      "relatives": 1280,
      "égard": 1281,
      "férence": 1282,
      "appliqu": 1283,
      "RE": 1284,
      "tée": 1285,
      "dustri": 1286,
      "Président": 1287,
      "bil": 1288,
      "hi": 1289,
      "projets": 1290,
      "stratégie": 1291,
      "béné": 1292,
      "pêche": 1293,
      "\",": 1294,
      "rique": 1295,
      "ace": 1296,
      "rations": 1297,
      "déb": 1298,
      "ga": 1299,
      "loc": 1300,
      "affaires": 1301,
      "traite": 1302,
      "05": 1303,
      "fici": 1304,
      "sera": 1305,
      "Pour": 1306,
      "vement": 1307,
      "plo": 1308,
      "compris": 1309,
      "budgéta": 1310,
      "pte": 1311,
      "industri": 1312,
      "production": 1313,
      "financière": 1314,
      "tég": 1315,
      "budget": 1316,
      "profes": 1317,
      "temps": 1318,
      "parlement": 1319,
      "fonds": 1320,
      "programmes": 1321,
      "plu": 1322,
      "ensemble": 1323,
      "pouvoir": 1324,
      "aines": 1325,
      "élé": 1326,
      "ler": 1327,
      "tur": 1328,
      "trois": 1329,
      "ager": 1330,
      "crite": 1331,
      "techni": 1332,
      "orité": 1333,
      "formation": 1334,
      "élec": 1335,
      "coû": 1336,
      "particip": 1337,
      "voi": 1338,
      "rés": 1339,
      "cole": 1340,
      "fix": 1341,
      "déce": 1342,
      "objectif": 1343,
      "dence": 1344,
      "qualité": 1345,
      "pra": 1346,
      "veill": 1347,
      "convient": 1348,
      "bes": 1349,
      "normes": 1350,
      "rôle": 1351,
      "financement": 1352,
      "èmes": 1353,
      "transport": 1354,
      "questions": 1355,
      "denti": 1356,
      "tionnel": 1357,
      "conti": 1358,
      "quelles": 1359,
      "22": 1360,
      "gment": 1361,
      "OC": 1362,
      "fac": 1363,
      "ième": 1364,
      "venir": 1365,
      "gueur": 1366,
      "ages": 1367,
      "enf": 1368,
      "décembre": 1369,
      "Cet": 1370,
      "reg": 1371,
      "raison": 1372,
      "écrite": 1373,
      "seu": 1374,
      "rése": 1375,
      "investis": 1376,
      "engage": 1377,
      "période": 1378,
      "chaque": 1379,
      "associ": 1380,
      "établi": 1381,
      "indiqu": 1382,
      "infra": 1383,
      "uses": 1384,
      "suite": 1385,
      "ML": 1386,
      "mont": 1387,
      "Ques": 1388,
      "nécessaires": 1389,
      "essenti": 1390,
      "certains": 1391,
      "possible": 1392,
      "04": 1393,
      "TEX": 1394,
      "territ": 1395,
      "ressources": 1396,
      "encore": 1397,
      "encour": 1398,
      "déla": 1399,
      "inc": 1400,
      "atte": 1401,
      "général": 1402,
      "consommateurs": 1403,
      "TEXT": 1404,
      "union": 1405,
      "lée": 1406,
      "charge": 1407,
      "-//": 1408,
      "V0": 1409,
      "XML": 1410,
      "consul": 1411,
      "ports": 1412,
      "économiques": 1413,
      "judi": 1414,
      "bonne": 1415,
      "AAAAAAAA": 1416,
      "communication": 1417,
      "Question": 1418,
      "28": 1419,
      "De": 1420,
      "ies": 1421,
      "lutte": 1422,
      "Amen": 1423,
      "sein": 1424,
      "sociale": 1425,
      "pens": 1426,
      "nationales": 1427,
      "heur": 1428,
      "crimin": 1429,
      "cli": 1430,
      "change": 1431,
      "profession": 1432,
      "ites": 1433,
      "réalis": 1434,
      "vigueur": 1435,
      "supplé": 1436,
      "ay": 1437,
      "année": 1438,
      "augment": 1439,
      "exig": 1440,
      "000": 1441,
      "rapporteur": 1442,
      "techno": 1443,
      "IN": 1444,
      "erce": 1445,
      "termin": 1446,
      "ente": 1447,
      "recomm": 1448,
      "ches": 1449,
      "effor": 1450,
      "appropri": 1451,
      "subst": 1452,
      "institutions": 1453,
      "rec": 1454,
      "curr": 1455,
      "Nations": 1456,
      "prévu": 1457,
      "systèmes": 1458,
      "fourni": 1459,
      "Rap": 1460,
      "cel": 1461,
      "tées": 1462,
      "Cour": 1463,
      "popu": 1464,
      "ctives": 1465,
      "procédures": 1466,
      "confi": 1467,
      "régions": 1468,
      "24": 1469,
      "Amendement": 1470,
      "pendant": 1471,
      "iné": 1472,
      "prog": 1473,
      "Fon": 1474,
      "unies": 1475,
      "indépend": 1476,
      "euros": 1477,
      "société": 1478,
      "docu": 1479,
      "tif": 1480,
      "vation": 1481,
      "vale": 1482,
      "explo": 1483,
      "06": 1484,
      "off": 1485,
      "voir": 1486,
      "ck": 1487,
      "poser": 1488,
      "èrement": 1489,
      "soutien": 1490,
      "occu": 1491,
      "coord": 1492,
      "effet": 1493,
      "çon": 1494,
      "mars": 1495,
      "nécessité": 1496,
      "fourn": 1497,
      "prix": 1498,
      "jà": 1499,
      "amin": 1500,
      "net": 1501,
      "importance": 1502,
      "déjà": 1503,
      "nements": 1504,
      "quels": 1505,
      "nouvelles": 1506,
      "beso": 1507,
      "exemple": 1508,
      "ty": 1509,
      "vre": 1510,
      "23": 1511,
      "pi": 1512,
      "sieurs": 1513,
      "cour": 1514,
      "juridique": 1515,
      "libre": 1516,
      "licite": 1517,
      "améliorer": 1518,
      "affi": 1519,
      "tali": 1520,
      "térieur": 1521,
      "aur": 1522,
      "dou": 1523,
      "commerce": 1524,
      "culture": 1525,
      "bénéfici": 1526,
      "PPE": 1527,
      "justice": 1528,
      "um": 1529,
      "annexe": 1530,
      "mai": 1531,
      "sie": 1532,
      "concurr": 1533,
      "missions": 1534,
      "09": 1535,
      "élab": 1536,
      "qua": 1537,
      "suff": 1538,
      "national": 1539,
      "marchés": 1540,
      "entes": 1541,
      "parties": 1542,
      "juin": 1543,
      "renforcer": 1544,
      "trodu": 1545,
      "rier": 1546,
      "exerci": 1547,
      "esp": 1548,
      "principe": 1549,
      "sements": 1550,
      "nouvelle": 1551,
      "nelle": 1552,
      "régu": 1553,
      "réunion": 1554,
      "très": 1555,
      "jan": 1556,
      "anim": 1557,
      "reconna": 1558,
      "introdu": 1559,
      "long": 1560,
      "tifs": 1561,
      "isme": 1562,
      "objet": 1563,
      "27": 1564,
      "étant": 1565,
      "mod": 1566,
      "création": 1567,
      "outre": 1568,
      "autoris": 1569,
      "fav": 1570,
      "san": 1571,
      "itaire": 1572,
      "international": 1573,
      "ariat": 1574,
      "DOC": 1575,
      "détermin": 1576,
      "examin": 1577,
      "fier": 1578,
      "issent": 1579,
      "plusieurs": 1580,
      "21": 1581,
      "terme": 1582,
      "façon": 1583,
      "RA": 1584,
      "fave": 1585,
      "conf": 1586,
      "dée": 1587,
      "trang": 1588,
      "porter": 1589,
      "................": 1590,
      "obser": 1591,
      "faveur": 1592,
      "29": 1593,
      "ing": 1594,
      "aé": 1595,
      "étrang": 1596,
      "nouveaux": 1597,
      "personnel": 1598,
      "exercice": 1599,
      "quê": 1600,
      "vembre": 1601,
      "ffici": 1602,
      "risque": 1603,
      "exécution": 1604,
      "Fonds": 1605,
      "internationale": 1606,
      "Su": 1607,
      "novembre": 1608,
      "IS": 1609,
      "Si": 1610,
      "\".": 1611,
      "alo": 1612,
      "issant": 1613,
      "envis": 1614,
      "ination": 1615,
      "civi": 1616,
      "porte": 1617,
      "jours": 1618,
      "condu": 1619,
      "vier": 1620,
      "mois": 1621,
      "Cette": 1622,
      "euro": 1623,
      "obre": 1624,
      "ctobre": 1625,
      "promouv": 1626,
      "donc": 1627,
      "précis": 1628,
      "République": 1629,
      "budgétaire": 1630,
      "CEE": 1631,
      "adoption": 1632,
      "principes": 1633,
      "ban": 1634,
      "communautaires": 1635,
      "26": 1636,
      "liberté": 1637,
      ");": 1638,
      "octobre": 1639,
      "nationaux": 1640,
      "efficace": 1641,
      "propositions": 1642,
      "première": 1643,
      "ani": 1644,
      "orig": 1645,
      "huma": 1646,
      "millions": 1647,
      "veillance": 1648,
      "voy": 1649,
      "négociations": 1650,
      "affir": 1651,
      "matique": 1652,
      "suffis": 1653,
      "rapp": 1654,
      "cal": 1655,
      "cir": 1656,
      "résultats": 1657,
      "accords": 1658,
      "financier": 1659,
      "enfants": 1660,
      "technologi": 1661,
      "adhésion": 1662,
      "har": 1663,
      "surveillance": 1664,
      "relations": 1665,
      "autorité": 1666,
      "Re": 1667,
      "critères": 1668,
      "débat": 1669,
      "ril": 1670,
      "ton": 1671,
      "depuis": 1672,
      "durable": 1673,
      "dits": 1674,
      "respec": 1675,
      "1999": 1676,
      "08": 1677,
      "unique": 1678,
      "Dé": 1679,
      "lob": 1680,
      "comb": 1681,
      "ticles": 1682,
      "voit": 1683,
      "fications": 1684,
      "vant": 1685,
      "istance": 1686,
      "exc": 1687,
      "attein": 1688,
      "promouvoir": 1689,
      "travailleurs": 1690,
      "premier": 1691,
      "effectu": 1692,
      "participation": 1693,
      "Une": 1694,
      "ceux": 1695,
      "égalité": 1696,
      "évo": 1697,
      "enquê": 1698,
      "articles": 1699,
      "proposé": 1700,
      "appr": 1701,
      "tive": 1702,
      "ouve": 1703,
      "illet": 1704,
      "pression": 1705,
      "han": 1706,
      "AC": 1707,
      "rie": 1708,
      "années": 1709,
      "accor": 1710,
      "compéten": 1711,
      "janvier": 1712,
      "arrê": 1713,
      "traitement": 1714,
      "concurrence": 1715,
      "continu": 1716,
      "agne": 1717,
      "certaines": 1718,
      "ptembre": 1719,
      "07": 1720,
      "septembre": 1721,
      "constru": 1722,
      "iller": 1723,
      "date": 1724,
      "acte": 1725,
      "tels": 1726,
      "ement": 1727,
      "lit": 1728,
      "ha": 1729,
      "val": 1730,
      "divers": 1731,
      "centra": 1732,
      "mu": 1733,
      "taux": 1734,
      "donné": 1735,
      "risques": 1736,
      "recommand": 1737,
      "tie": 1738,
      "évent": 1739,
      "Rapport": 1740,
      "laquelle": 1741,
      "ori": 1742,
      "intérêt": 1743,
      "ME": 1744,
      "remp": 1745,
      "vote": 1746,
      "navi": 1747,
      "lèmes": 1748,
      "aliné": 1749,
      "oires": 1750,
      "itation": 1751,
      "tenant": 1752,
      "anal": 1753,
      "rent": 1754,
      "iste": 1755,
      "pren": 1756,
      "efforts": 1757,
      "sci": 1758,
      "tives": 1759,
      "moyen": 1760,
      "problèmes": 1761,
      "Rés": 1762,
      "ue": 1763,
      "édu": 1764,
      "itaires": 1765,
      "entra": 1766,
      "chi": 1767,
      "alités": 1768,
      "transpar": 1769,
      "réduire": 1770,
      "fonctionnement": 1771,
      "ayant": 1772,
      "permettre": 1773,
      "efficacité": 1774,
      "celles": 1775,
      "isse": 1776,
      "telles": 1777,
      "organisations": 1778,
      "stratégi": 1779,
      "alinéa": 1780,
      "AR": 1781,
      "dès": 1782,
      "unes": 1783,
      "ric": 1784,
      "Ces": 1785,
      "telle": 1786,
      "service": 1787,
      "fu": 1788,
      "dialo": 1789,
      "déclaration": 1790,
      "gaz": 1791,
      "JO": 1792,
      "ateur": 1793,
      "juillet": 1794,
      "pass": 1795,
      "entreprise": 1796,
      "grande": 1797,
      "zone": 1798,
      "initiative": 1799,
      "territoire": 1800,
      "dat": 1801,
      "ître": 1802,
      "rès": 1803,
      "crise": 1804,
      "tin": 1805,
      "discrimin": 1806,
      "félicite": 1807,
      "pol": 1808,
      "orient": 1809,
      "celle": 1810,
      "jusqu": 1811,
      "émissions": 1812,
      "ition": 1813,
      "peu": 1814,
      "sujet": 1815,
      "pratiques": 1816,
      "Agence": 1817,
      "dio": 1818,
      "adap": 1819,
      "rapi": 1820,
      "mul": 1821,
      "ints": 1822,
      "celui": 1823,
      "vio": 1824,
      "soli": 1825,
      "important": 1826,
      "énergé": 1827,
      "fondamentaux": 1828,
      "délai": 1829,
      "OM": 1830,
      "coûts": 1831,
      "animaux": 1832,
      "extérieur": 1833,
      "était": 1834,
      "avril": 1835,
      "spécifiques": 1836,
      "élabo": 1837,
      "31": 1838,
      "ajou": 1839,
      "pec": 1840,
      "portant": 1841,
      "candi": 1842,
      "ront": 1843,
      "statu": 1844,
      "constitue": 1845,
      "Unis": 1846,
      "rend": 1847,
      "méth": 1848,
      "consta": 1849,
      "instruments": 1850,
      "mécan": 1851,
      "avait": 1852,
      "origine": 1853,
      "Tou": 1854,
      "maj": 1855,
      "abs": 1856,
      "glob": 1857,
      "consid": 1858,
      "appel": 1859,
      "dialogue": 1860,
      "ption": 1861,
      "examen": 1862,
      "lutions": 1863,
      "social": 1864,
      "intégration": 1865,
      "hicu": 1866,
      "tres": 1867,
      "sidence": 1868,
      "lique": 1869,
      "transports": 1870,
      "domaines": 1871,
      "moyens": 1872,
      "éventu": 1873,
      "économie": 1874,
      "exigences": 1875,
      "Pa": 1876,
      "laire": 1877,
      "quis": 1878,
      "publics": 1879,
      "Réso": 1880,
      "hér": 1881,
      "véhicu": 1882,
      "50": 1883,
      "inno": 1884,
      "formes": 1885,
      "compag": 1886,
      "financiers": 1887,
      "Résolution": 1888,
      "pati": 1889,
      "nationale": 1890,
      "relatif": 1891,
      "prim": 1892,
      "viol": 1893,
      "vertu": 1894,
      "état": 1895,
      "régime": 1896,
      "As": 1897,
      "produit": 1898,
      "éli": 1899,
      "mention": 1900,
      "éché": 1901,
      "industrie": 1902,
      "dant": 1903,
      "pen": 1904,
      "vaux": 1905,
      "vité": 1906,
      "orités": 1907,
      "coles": 1908,
      "comptes": 1909,
      "fais": 1910,
      "contexte": 1911,
      "ussie": 1912,
      "Etats": 1913,
      "clé": 1914,
      "den": 1915,
      "fut": 1916,
      "téri": 1917,
      "comité": 1918,
      "identi": 1919,
      "évrier": 1920,
      "réduction": 1921,
      "partenariat": 1922,
      "population": 1923,
      "février": 1924,
      "loi": 1925,
      "adopter": 1926,
      "PO": 1927,
      "contrô": 1928,
      "éléments": 1929,
      "am": 1930,
      "pau": 1931,
      "entifi": 1932,
      "crédits": 1933,
      "possibilité": 1934,
      "déci": 1935,
      "taire": 1936,
      "instal": 1937,
      "médica": 1938,
      "activité": 1939,
      "scientifi": 1940,
      "considère": 1941,
      "table": 1942,
      "seront": 1943,
      "but": 1944,
      "monde": 1945,
      "civile": 1946,
      "éducation": 1947,
      "use": 1948,
      "Quelles": 1949,
      "compétentes": 1950,
      "Li": 1951,
      "Or": 1952,
      "rele": 1953,
      "simp": 1954,
      "bio": 1955,
      "vés": 1956,
      "issement": 1957,
      "tock": 1958,
      "décisions": 1959,
      "financières": 1960,
      "deuxième": 1961,
      "facil": 1962,
      "cement": 1963,
      "préoccu": 1964,
      "croissance": 1965,
      "LA": 1966,
      "Lors": 1967,
      "ennes": 1968,
      "télé": 1969,
      "terroris": 1970,
      "UR": 1971,
      "cteurs": 1972,
      "let": 1973,
      "déch": 1974,
      "éviter": 1975,
      "différents": 1976,
      "professionnel": 1977,
      "Lis": 1978,
      "Po": 1979,
      "ici": 1980,
      "Convention": 1981,
      "ception": 1982,
      "fronti": 1983,
      "cau": 1984,
      "offici": 1985,
      "sen": 1986,
      "savoir": 1987,
      "tour": 1988,
      "serait": 1989,
      "effets": 1990,
      "avantage": 1991,
      "défense": 1992,
      "impact": 1993,
      "progrès": 1994,
      "Tur": 1995,
      "travaux": 1996,
      "rog": 1997,
      "alimentaire": 1998,
      "assistance": 1999,
      "réseau": 2000,
      "infrastruct": 2001,
      "analy": 2002,
      "quant": 2003,
      "mala": 2004,
      "cultur": 2005,
      "techniques": 2006,
      "judici": 2007,
      "substances": 2008,
      "sy": 2009,
      "alimentaires": 2010,
      "RES": 2011,
      "Russie": 2012,
      "dépens": 2013,
      "réser": 2014,
      "référence": 2015,
      "jeunes": 2016,
      "posée": 2017,
      "type": 2018,
      "01": 2019,
      "dés": 2020,
      "poni": 2021,
      "SI": 2022,
      "satis": 2023,
      "rance": 2024,
      "soumis": 2025,
      "disponi": 2026,
      "face": 2027,
      "pleine": 2028,
      "amendement": 2029,
      "promo": 2030,
      "établissement": 2031,
      "nature": 2032,
      "annuel": 2033,
      "déchets": 2034,
      "Br": 2035,
      "vée": 2036,
      "xi": 2037,
      "cture": 2038,
      "zones": 2039,
      "**": 2040,
      "Af": 2041,
      "somm": 2042,
      "élar": 2043,
      "sau": 2044,
      "points": 2045,
      "veiller": 2046,
      "accep": 2047,
      "tocole": 2048,
      "Se": 2049,
      "entend": 2050,
      "ventions": 2051,
      "dam": 2052,
      "groupes": 2053,
      "valeur": 2054,
      "meille": 2055,
      "aéri": 2056,
      "eau": 2057,
      "fins": 2058,
      "responsabilité": 2059,
      "tégor": 2060,
      "ls": 2061,
      "ref": 2062,
      "quie": 2063,
      "aucune": 2064,
      "montant": 2065,
      "fournir": 2066,
      "multi": 2067,
      "Lisbonne": 2068,
      "Jo": 2069,
      "cées": 2070,
      "ous": 2071,
      "cela": 2072,
      "déta": 2073,
      "approche": 2074,
      "Inter": 2075,
      "voie": 2076,
      "exclu": 2077,
      "liste": 2078,
      "actuellement": 2079,
      "Es": 2080,
      "entrée": 2081,
      "arité": 2082,
      "proch": 2083,
      "compl": 2084,
      "organisation": 2085,
      "engagement": 2086,
      "augmentation": 2087,
      "colle": 2088,
      "large": 2089,
      "conclusions": 2090,
      "cin": 2091,
      "elon": 2092,
      "victi": 2093,
      "complé": 2094,
      "lorsque": 2095,
      "mondiale": 2096,
      "natur": 2097,
      "emb": 2098,
      "sû": 2099,
      "ach": 2100,
      "protég": 2101,
      "fig": 2102,
      "culation": 2103,
      "33": 2104,
      "conseil": 2105,
      "internationales": 2106,
      "coordination": 2107,
      "présenter": 2108,
      "conséquent": 2109,
      "électr": 2110,
      "seulement": 2111,
      "peti": 2112,
      "exp": 2113,
      "dats": 2114,
      "élections": 2115,
      "évalu": 2116,
      "changement": 2117,
      "mor": 2118,
      "mentaires": 2119,
      "nous": 2120,
      "étude": 2121,
      "promotion": 2122,
      "lequel": 2123,
      "quali": 2124,
      "III": 2125,
      "contribuer": 2126,
      "tas": 2127,
      "particulièrement": 2128,
      "ôt": 2129,
      "liv": 2130,
      "alors": 2131,
      "dépenses": 2132,
      "be": 2133,
      "semb": 2134,
      "disposition": 2135,
      "ordre": 2136,
      "catégor": 2137,
      "suivi": 2138,
      "BE": 2139,
      "trop": 2140,
      "prévoit": 2141,
      "existe": 2142,
      "instrument": 2143,
      "C6": 2144,
      "cou": 2145,
      "quit": 2146,
      "lées": 2147,
      "perspe": 2148,
      "échange": 2149,
      "obligations": 2150,
      "indiquer": 2151,
      "échéant": 2152,
      "cue": 2153,
      "personne": 2154,
      "durée": 2155,
      "logique": 2156,
      "rappelle": 2157,
      "lin": 2158,
      "col": 2159,
      "accro": 2160,
      "stabilité": 2161,
      "organismes": 2162,
      "permettant": 2163,
      "intérêts": 2164,
      "cohér": 2165,
      "tenus": 2166,
      "actes": 2167,
      "aven": 2168,
      "affe": 2169,
      "capit": 2170,
      "électri": 2171,
      "heures": 2172,
      "cée": 2173,
      "hab": 2174,
      "naires": 2175,
      "tage": 2176,
      "visées": 2177,
      "suivre": 2178,
      "énergétique": 2179,
      "cident": 2180,
      "pén": 2181,
      "autorisation": 2182,
      "numé": 2183,
      "total": 2184,
      "compétente": 2185,
      "initiatives": 2186,
      "compétences": 2187,
      "ît": 2188,
      "quer": 2189,
      "documents": 2190,
      "réguli": 2191,
      "lème": 2192,
      "tient": 2193,
      "prépar": 2194,
      "soutenir": 2195,
      "princip": 2196,
      "aucun": 2197,
      "technique": 2198,
      "harmon": 2199,
      "istre": 2200,
      "opéra": 2201,
      "rir": 2202,
      "gouvernements": 2203,
      "problème": 2204,
      "statut": 2205,
      "avenir": 2206,
      "cations": 2207,
      "laté": 2208,
      "AAAAAAAAAAAAAAAA": 2209,
      "prévues": 2210,
      "besoins": 2211,
      "médicaments": 2212,
      "cité": 2213,
      "convention": 2214,
      "délég": 2215,
      "frontali": 2216,
      "établir": 2217,
      "rempla": 2218,
      "bas": 2219,
      "toujours": 2220,
      "réglementation": 2221,
      "technologies": 2222,
      "IM": 2223,
      "mal": 2224,
      "sens": 2225,
      "sociaux": 2226,
      "donner": 2227,
      "gran": 2228,
      "hommes": 2229,
      "cre": 2230,
      "font": 2231,
      "go": 2232,
      "stitu": 2233,
      "lecture": 2234,
      "compéti": 2235,
      "libé": 2236,
      "législative": 2237,
      "victimes": 2238,
      "intention": 2239,
      "trait": 2240,
      "tenti": 2241,
      "atoire": 2242,
      "Annexe": 2243,
      "conséquences": 2244,
      "démocratie": 2245,
      "encourager": 2246,
      "98": 2247,
      "stock": 2248,
      "recours": 2249,
      "erre": 2250,
      "claire": 2251,
      "Turquie": 2252,
      "odes": 2253,
      "enreg": 2254,
      "termes": 2255,
      "pace": 2256,
      "condition": 2257,
      "études": 2258,
      "ailleurs": 2259,
      "»,": 2260,
      "réalisation": 2261,
      "juridiques": 2262,
      "paix": 2263,
      "Des": 2264,
      "conform": 2265,
      "gues": 2266,
      "renforcement": 2267,
      "maladi": 2268,
      "révision": 2269,
      "exer": 2270,
      "expéri": 2271,
      "caract": 2272,
      "véhicules": 2273,
      "faut": 2274,
      "mom": 2275,
      "réforme": 2276,
      "prévention": 2277,
      "lus": 2278,
      "ène": 2279,
      "protocole": 2280,
      "précé": 2281,
      "lorsqu": 2282,
      "human": 2283,
      "générale": 2284,
      "obligation": 2285,
      "sensi": 2286,
      "fis": 2287,
      "xes": 2288,
      "quanti": 2289,
      "liés": 2290,
      "nie": 2291,
      "secteurs": 2292,
      "électron": 2293,
      "PSE": 2294,
      "graph": 2295,
      "all": 2296,
      "prévue": 2297,
      "volon": 2298,
      "consommation": 2299,
      "administration": 2300,
      "taur": 2301,
      "aides": 2302,
      "publiques": 2303,
      "spécifique": 2304,
      "AL": 2305,
      "Al": 2306,
      "davantage": 2307,
      "étés": 2308,
      "créer": 2309,
      "connaissance": 2310,
      "amélioration": 2311,
      "réseaux": 2312,
      "respecter": 2313,
      "male": 2314,
      "actuelle": 2315,
      "favoris": 2316,
      "caractère": 2317,
      "moment": 2318,
      "IT": 2319,
      "tification": 2320,
      "infor": 2321,
      "connu": 2322,
      "tat": 2323,
      "uxelles": 2324,
      "venu": 2325,
      "capacité": 2326,
      "appliquer": 2327,
      "pects": 2328,
      "Bruxelles": 2329,
      "fab": 2330,
      "quet": 2331,
      "nuclé": 2332,
      "véri": 2333,
      "phy": 2334,
      "dements": 2335,
      "suivantes": 2336,
      "investissement": 2337,
      "cc": 2338,
      "sais": 2339,
      "suivant": 2340,
      "suppléant": 2341,
      "AN": 2342,
      "PR": 2343,
      "gne": 2344,
      "laires": 2345,
      "cessi": 2346,
      "adoptée": 2347,
      "démocratique": 2348,
      "sanctions": 2349,
      "construction": 2350,
      "transparence": 2351,
      "candidats": 2352,
      "analyse": 2353,
      "Selon": 2354,
      "rur": 2355,
      "ards": 2356,
      "potenti": 2357,
      "propose": 2358,
      "partir": 2359,
      "structur": 2360,
      "partenaires": 2361,
      "cle": 2362,
      "cés": 2363,
      "ède": 2364,
      "respon": 2365,
      "propri": 2366,
      "attention": 2367,
      "pales": 2368,
      "raisons": 2369,
      "faciliter": 2370,
      "vil": 2371,
      "reli": 2372,
      "octr": 2373,
      "hy": 2374,
      "ov": 2375,
      "urgence": 2376,
      "qué": 2377,
      "toutefois": 2378,
      "représentants": 2379,
      "proven": 2380,
      "mariti": 2381,
      "mig": 2382,
      "formu": 2383,
      "posent": 2384,
      "correspon": 2385,
      "évolution": 2386,
      "frontières": 2387,
      "pleinement": 2388,
      "».": 2389,
      "enquête": 2390,
      "pauvre": 2391,
      "46": 2392,
      "Aut": 2393,
      "Sch": 2394,
      "auprès": 2395,
      "opérations": 2396,
      "autés": 2397,
      "sociales": 2398,
      "circulation": 2399,
      "A6": 2400,
      "asi": 2401,
      "dation": 2402,
      "éco": 2403,
      "condam": 2404,
      "enseig": 2405,
      "tenue": 2406,
      "modalités": 2407,
      "amb": 2408,
      "Euro": 2409,
      "lande": 2410,
      "sorte": 2411,
      "dernier": 2412,
      "EUR": 2413,
      "conta": 2414,
      "dicap": 2415,
      "assurance": 2416,
      "discrimination": 2417,
      "bur": 2418,
      "engag": 2419,
      "Comité": 2420,
      "document": 2421,
      "handicap": 2422,
      "Elle": 2423,
      "phé": 2424,
      "36": 2425,
      "88": 2426,
      "ats": 2427,
      "ressor": 2428,
      "aspects": 2429,
      "sol": 2430,
      "mieux": 2431,
      "grand": 2432,
      "pauvreté": 2433,
      "fai": 2434,
      "anges": 2435,
      "propor": 2436,
      "ché": 2437,
      "niveaux": 2438,
      "supé": 2439,
      "consultation": 2440,
      "entraî": 2441,
      "supérieur": 2442,
      "32": 2443,
      "Grè": 2444,
      "espace": 2445,
      "exper": 2446,
      "Grèce": 2447,
      "37": 2448,
      "40": 2449,
      "Hon": 2450,
      "prê": 2451,
      "désig": 2452,
      "ligne": 2453,
      "tribution": 2454,
      "association": 2455,
      "exploitation": 2456,
      "mises": 2457,
      "modifiant": 2458,
      "lesquelles": 2459,
      "dispose": 2460,
      "ative": 2461,
      "conclusion": 2462,
      "atteindre": 2463,
      "45": 2464,
      "hau": 2465,
      "mun": 2466,
      "vées": 2467,
      "aces": 2468,
      "agit": 2469,
      "nombreux": 2470,
      "Char": 2471,
      "35": 2472,
      "cy": 2473,
      "lent": 2474,
      "minim": 2475,
      "échanges": 2476,
      "Co": 2477,
      "adé": 2478,
      "ises": 2479,
      "ert": 2480,
      "fiée": 2481,
      "mandat": 2482,
      "fond": 2483,
      "2013": 2484,
      "répondre": 2485,
      "FE": 2486,
      "he": 2487,
      "liées": 2488,
      "cohésion": 2489,
      "transfrontali": 2490,
      "rapports": 2491,
      "libertés": 2492,
      "besoin": 2493,
      "Afrique": 2494,
      "Is": 2495,
      "ala": 2496,
      "mée": 2497,
      "ouverture": 2498,
      "approvision": 2499,
      "signi": 2500,
      "dernières": 2501,
      "investissements": 2502,
      "infrastructures": 2503,
      "lure": 2504,
      "tem": 2505,
      "parmi": 2506,
      "posés": 2507,
      "lignes": 2508,
      "devant": 2509,
      "développer": 2510,
      "applicables": 2511,
      "agriculture": 2512,
      "différentes": 2513,
      "climatique": 2514,
      "inqui": 2515,
      "soins": 2516,
      "recommandations": 2517,
      "protéger": 2518,
      "visée": 2519,
      "presse": 2520,
      "emplois": 2521,
      "agricoles": 2522,
      "parlementaire": 2523,
      "pratique": 2524,
      "absence": 2525,
      "PRES": 2526,
      "outi": 2527,
      "istan": 2528,
      "modifications": 2529,
      "définition": 2530,
      "Roy": 2531,
      "rit": 2532,
      "ressé": 2533,
      "appu": 2534,
      "médias": 2535,
      "modification": 2536,
      "contrôles": 2537,
      "anni": 2538,
      "six": 2539,
      "restri": 2540,
      "directives": 2541,
      "session": 2542,
      "manif": 2543,
      "étrangères": 2544,
      "OMC": 2545,
      "lés": 2546,
      "aume": 2547,
      "perman": 2548,
      "crédit": 2549,
      "diversité": 2550,
      "innovation": 2551,
      "cueil": 2552,
      "âce": 2553,
      "tini": 2554,
      "vice": 2555,
      "priorités": 2556,
      "utilisés": 2557,
      "élevé": 2558,
      "statis": 2559,
      "directement": 2560,
      "essentiel": 2561,
      "navires": 2562,
      "figur": 2563,
      "PRESS": 2564,
      "gré": 2565,
      "là": 2566,
      "export": 2567,
      "logie": 2568,
      "sociétés": 2569,
      "denrées": 2570,
      "délégation": 2571,
      "Itali": 2572,
      "avi": 2573,
      "dû": 2574,
      "andis": 2575,
      "reç": 2576,
      "dées": 2577,
      "manie": 2578,
      "atten": 2579,
      "situ": 2580,
      "cepti": 2581,
      "examiner": 2582,
      "cus": 2583,
      "nance": 2584,
      "propres": 2585,
      "pourraient": 2586,
      "commiss": 2587,
      "minist": 2588,
      "vois": 2589,
      "internationaux": 2590,
      "régional": 2591,
      "suscepti": 2592,
      "orable": 2593,
      "paiement": 2594,
      "bilisation": 2595,
      "confir": 2596,
      "espè": 2597,
      "centrale": 2598,
      "proportion": 2599,
      "Bar": 2600,
      "ssi": 2601,
      "alle": 2602,
      "instamment": 2603,
      "lut": 2604,
      "visés": 2605,
      "preu": 2606,
      "amendements": 2607,
      "gent": 2608,
      "quoi": 2609,
      "itant": 2610,
      "sex": 2611,
      "récent": 2612,
      "agers": 2613,
      "occa": 2614,
      "hui": 2615,
      "existant": 2616,
      "tard": 2617,
      "ze": 2618,
      "illég": 2619,
      "acquis": 2620,
      "agno": 2621,
      "fie": 2622,
      "fié": 2623,
      "faisant": 2624,
      "préoccup": 2625,
      "couv": 2626,
      "ote": 2627,
      "sent": 2628,
      "tivité": 2629,
      "rejet": 2630,
      "relè": 2631,
      "2012": 2632,
      "producteurs": 2633,
      "grâce": 2634,
      "mêmes": 2635,
      "bilités": 2636,
      "fournit": 2637,
      "Royaume": 2638,
      "39": 2639,
      "Je": 2640,
      "annon": 2641,
      "inte": 2642,
      "intes": 2643,
      "conser": 2644,
      "ourg": 2645,
      "trices": 2646,
      "fficul": 2647,
      "législatives": 2648,
      "reconnaissance": 2649,
      "terrorisme": 2650,
      "fr": 2651,
      "tâ": 2652,
      "ète": 2653,
      "dép": 2654,
      "asse": 2655,
      "concernées": 2656,
      "cô": 2657,
      "ki": 2658,
      "encontre": 2659,
      "difficul": 2660,
      "solution": 2661,
      "concernés": 2662,
      "transfer": 2663,
      "adoptés": 2664,
      "dernière": 2665,
      "mondial": 2666,
      "précédent": 2667,
      "approvisionnement": 2668,
      "EN": 2669,
      "anci": 2670,
      "lesquels": 2671,
      "diction": 2672,
      "instaur": 2673,
      "immédi": 2674,
      "communes": 2675,
      "tota": 2676,
      "institution": 2677,
      "Chine": 2678,
      "valeurs": 2679,
      "sûre": 2680,
      "semblée": 2681,
      "38": 2682,
      "hait": 2683,
      "éten": 2684,
      "armes": 2685,
      "tab": 2686,
      "modè": 2687,
      "iser": 2688,
      "expri": 2689,
      "matiques": 2690,
      "matéri": 2691,
      "souhait": 2692,
      "communications": 2693,
      "Toute": 2694,
      "cinq": 2695,
      "conformité": 2696,
      "34": 2697,
      "effective": 2698,
      "destinés": 2699,
      "majorité": 2700,
      "occasion": 2701,
      "quo": 2702,
      "dition": 2703,
      "apporter": 2704,
      "atta": 2705,
      "présentée": 2706,
      "renouve": 2707,
      "relatifs": 2708,
      "adoptées": 2709,
      "Comment": 2710,
      "pouvoirs": 2711,
      "appropriées": 2712,
      "latéra": 2713,
      "fran": 2714,
      "intitu": 2715,
      "contenu": 2716,
      "section": 2717,
      "coût": 2718,
      "envisage": 2719,
      "relevant": 2720,
      "fisc": 2721,
      "physi": 2722,
      "Italie": 2723,
      "ORA": 2724,
      "Ver": 2725,
      "ples": 2726,
      "tor": 2727,
      "taires": 2728,
      "accompag": 2729,
      "usage": 2730,
      "prév": 2731,
      "préser": 2732,
      "tionnelles": 2733,
      "60": 2734,
      "souvent": 2735,
      "permis": 2736,
      "biens": 2737,
      "agricole": 2738,
      "locales": 2739,
      "rendre": 2740,
      "élarg": 2741,
      "migration": 2742,
      "C5": 2743,
      "ITE": 2744,
      "PME": 2745,
      "VI": 2746,
      "af": 2747,
      "raux": 2748,
      "lier": 2749,
      "acteurs": 2750,
      "vise": 2751,
      "transmettre": 2752,
      "représentant": 2753,
      "contribution": 2754,
      "délais": 2755,
      "disponibles": 2756,
      "compétitivité": 2757,
      "grec": 2758,
      "conjo": 2759,
      "rési": 2760,
      "réfu": 2761,
      "présenté": 2762,
      "utiliser": 2763,
      "AS": 2764,
      "diter": 2765,
      "haut": 2766,
      "éti": 2767,
      "due": 2768,
      "final": 2769,
      "légi": 2770,
      "atives": 2771,
      "garantie": 2772,
      "cause": 2773,
      "))": 2774,
      "47": 2775,
      "Est": 2776,
      "demander": 2777,
      "juge": 2778,
      "organes": 2779,
      "ORALE": 2780,
      "site": 2781,
      "itali": 2782,
      "acté": 2783,
      "demandes": 2784,
      "engagements": 2785,
      "offre": 2786,
      "clairement": 2787,
      "enseignement": 2788,
      "diterran": 2789,
      "AP": 2790,
      "eaux": 2791,
      "indis": 2792,
      "rables": 2793,
      "para": 2794,
      "nière": 2795,
      "puissent": 2796,
      "mini": 2797,
      "régionale": 2798,
      "étudi": 2799,
      "favoriser": 2800,
      "asile": 2801,
      "48": 2802,
      "cte": 2803,
      "fle": 2804,
      "gées": 2805,
      "mentaire": 2806,
      "lir": 2807,
      "venus": 2808,
      "encourage": 2809,
      "progres": 2810,
      "humaine": 2811,
      "violence": 2812,
      "réfugi": 2813,
      "AD": 2814,
      "ger": 2815,
      "oma": 2816,
      "accident": 2817,
      "pétro": 2818,
      "étaient": 2819,
      "Ils": 2820,
      "aliments": 2821,
      "caracté": 2822,
      "refus": 2823,
      "détail": 2824,
      "experts": 2825,
      "itre": 2826,
      "dérog": 2827,
      "seul": 2828,
      "semble": 2829,
      "traités": 2830,
      "trafic": 2831,
      "concrè": 2832,
      "voix": 2833,
      "INI": 2834,
      "élimin": 2835,
      "simpli": 2836,
      "Autorité": 2837,
      "P5": 2838,
      "Rou": 2839,
      "naire": 2840,
      "trou": 2841,
      "rovi": 2842,
      "obtenir": 2843,
      "garde": 2844,
      "gouvernance": 2845,
      "possibilités": 2846,
      "méthodes": 2847,
      "ES": 2848,
      "Mi": 2849,
      "az": 2850,
      "ements": 2851,
      "nal": 2852,
      "usion": 2853,
      "étro": 2854,
      "anne": 2855,
      "dimen": 2856,
      "camp": 2857,
      "landa": 2858,
      "nombreuses": 2859,
      "réunions": 2860,
      "49": 2861,
      "PI": 2862,
      "ane": 2863,
      "mobilité": 2864,
      "préjudi": 2865,
      "présidence": 2866,
      "manque": 2867,
      "demandé": 2868,
      "COD": 2869,
      "ferrovi": 2870,
      "heure": 2871,
      "................................": 2872,
      "solid": 2873,
      "scientifiques": 2874,
      "accroître": 2875,
      "reconnu": 2876,
      "ras": 2877,
      "déliv": 2878,
      "mement": 2879,
      "procéder": 2880,
      "applicable": 2881,
      "certain": 2882,
      "Proposition": 2883,
      "budgétaires": 2884,
      "parlements": 2885,
      "professionnelle": 2886,
      "xim": 2887,
      "itée": 2888,
      "compar": 2889,
      "indivi": 2890,
      "définir": 2891,
      "administratives": 2892,
      "mécanisme": 2893,
      "Ban": 2894,
      "Vi": 2895,
      "ber": 2896,
      "nomm": 2897,
      "siè": 2898,
      "males": 2899,
      "compter": 2900,
      "priorité": 2901,
      "suivants": 2902,
      "conduite": 2903,
      "recommandation": 2904,
      "statistiques": 2905,
      "80": 2906,
      "Car": 2907,
      "EC": 2908,
      "frais": 2909,
      "cemment": 2910,
      "dépl": 2911,
      "sep": 2912,
      "obsta": 2913,
      "applique": 2914,
      "monéta": 2915,
      "employ": 2916,
      "déclaré": 2917,
      "élaboration": 2918,
      "Mé": 2919,
      "gen": 2920,
      "lits": 2921,
      "deme": 2922,
      "ismes": 2923,
      "sive": 2924,
      "décharge": 2925,
      "propre": 2926,
      "plans": 2927,
      "exist": 2928,
      "consac": 2929,
      "organisme": 2930,
      "champ": 2931,
      "plénière": 2932,
      "ministre": 2933,
      "contrats": 2934,
      "coordon": 2935,
      "gée": 2936,
      "oix": 2937,
      "tence": 2938,
      "empê": 2939,
      "violation": 2940,
      "Assemblée": 2941,
      "meilleure": 2942,
      "Esp": 2943,
      "maritime": 2944,
      "44": 2945,
      "ALE": 2946,
      "NS": 2947,
      "Tex": 2948,
      "dange": 2949,
      "hors": 2950,
      "représente": 2951,
      "autant": 2952,
      "actuel": 2953,
      "bénéficier": 2954,
      "Sud": 2955,
      "installations": 2956,
      "Organ": 2957,
      "principaux": 2958,
      "indispens": 2959,
      "préjudice": 2960,
      "rev": 2961,
      "conci": 2962,
      "pements": 2963,
      "échelle": 2964,
      "supplémentaires": 2965,
      "rapide": 2966,
      "réserve": 2967,
      "Internet": 2968,
      "sexu": 2969,
      "renouvela": 2970,
      "dangere": 2971,
      "Dro": 2972,
      "Mon": 2973,
      "ka": 2974,
      "équit": 2975,
      "compati": 2976,
      "souha": 2977,
      "graves": 2978,
      "établissements": 2979,
      "habit": 2980,
      "76": 2981,
      "Amé": 2982,
      "France": 2983,
      "tations": 2984,
      "radio": 2985,
      "récemment": 2986,
      "portée": 2987,
      "présence": 2988,
      "minu": 2989,
      "milliards": 2990,
      "existence": 2991,
      "aurait": 2992,
      "quatre": 2993,
      "mutu": 2994,
      "rapidement": 2995,
      "mécanismes": 2996,
      "élargissement": 2997,
      "Afin": 2998,
      "arri": 2999,
      "agences": 3000,
      "mobi": 3001,
      "prison": 3002,
      "destinées": 3003,
      "espagno": 3004,
      "judiciaire": 3005,
      "nucléaire": 3006,
      "lutter": 3007,
      "caractéris": 3008,
      "Rom": 3009,
      "âti": 3010,
      "tug": 3011,
      "prévoir": 3012,
      "conflit": 3013,
      "stitution": 3014,
      "Charte": 3015,
      "Espagne": 3016,
      "Cor": 3017,
      "blement": 3018,
      "couver": 3019,
      "vér": 3020,
      "ana": 3021,
      "tran": 3022,
      "TIC": 3023,
      "améric": 3024,
      "ACP": 3025,
      "sommet": 3026,
      "difficultés": 3027,
      "sti": 3028,
      "estations": 3029,
      "Conférence": 3030,
      "décou": 3031,
      "participer": 3032,
      "aison": 3033,
      "inclu": 3034,
      "humanitaire": 3035,
      "ITEM": 3036,
      "tradu": 3037,
      "particulière": 3038,
      "chiff": 3039,
      "ressortis": 3040,
      "55": 3041,
      "96": 3042,
      "Bul": 3043,
      "ET": 3044,
      "Mme": 3045,
      "amment": 3046,
      "domm": 3047,
      "aider": 3048,
      "interdiction": 3049,
      "concerné": 3050,
      "jourd": 3051,
      "négociation": 3052,
      "troisième": 3053,
      "réalisés": 3054,
      "prennent": 3055,
      "expérience": 3056,
      "commissaire": 3057,
      "solidarité": 3058,
      "Ber": 3059,
      "Gi": 3060,
      "Ser": 3061,
      "cles": 3062,
      "tirer": 3063,
      "anmoins": 3064,
      "proposer": 3065,
      "extra": 3066,
      "légu": 3067,
      "ctif": 3068,
      "distin": 3069,
      "vul": 3070,
      "fondée": 3071,
      "cru": 3072,
      "thé": 3073,
      "responsable": 3074,
      "modifier": 3075,
      "élaborer": 3076,
      "évaluer": 3077,
      "réfugiés": 3078,
      "75": 3079,
      "Be": 3080,
      "fil": 3081,
      "tari": 3082,
      "dix": 3083,
      "agir": 3084,
      "mière": 3085,
      "systé": 3086,
      "stratégique": 3087,
      "dimension": 3088,
      "43": 3089,
      "Dire": 3090,
      "Ex": 3091,
      "reste": 3092,
      "acités": 3093,
      "verse": 3094,
      "atif": 3095,
      "publication": 3096,
      "humains": 3097,
      "pollution": 3098,
      "frau": 3099,
      "AV": 3100,
      "proc": 3101,
      "abil": 3102,
      "visé": 3103,
      "paragraphes": 3104,
      "principa": 3105,
      "indica": 3106,
      "logiques": 3107,
      "déclarations": 3108,
      "constate": 3109,
      "scientifique": 3110,
      "palestini": 3111,
      "sûreté": 3112,
      "Roumanie": 3113,
      "Ne": 3114,
      "ww": 3115,
      "oup": 3116,
      "usti": 3117,
      "note": 3118,
      "interpré": 3119,
      "matières": 3120,
      "constituent": 3121,
      "responsables": 3122,
      "indépendance": 3123,
      "extérieures": 3124,
      "tâches": 3125,
      "AI": 3126,
      "CH": 3127,
      "tances": 3128,
      "énon": 3129,
      "liation": 3130,
      "importe": 3131,
      "péti": 3132,
      "mique": 3133,
      "garantis": 3134,
      "capacités": 3135,
      "orientations": 3136,
      "perspectives": 3137,
      "maladies": 3138,
      "gation": 3139,
      "chac": 3140,
      "apitre": 3141,
      "importantes": 3142,
      "résolutions": 3143,
      "envisag": 3144,
      "continuer": 3145,
      "mort": 3146,
      "transfert": 3147,
      "immédia": 3148,
      "Toutefois": 3149,
      "ak": 3150,
      "lant": 3151,
      "mation": 3152,
      "inten": 3153,
      "eth": 3154,
      "pora": 3155,
      "dépas": 3156,
      "trouver": 3157,
      "avantages": 3158,
      "maintenir": 3159,
      "conflits": 3160,
      "aéro": 3161,
      "preuve": 3162,
      "étroite": 3163,
      "Droits": 3164,
      "90": 3165,
      "CI": 3166,
      "Gu": 3167,
      "NO": 3168,
      "dite": 3169,
      "kra": 3170,
      "unité": 3171,
      "porta": 3172,
      "atoires": 3173,
      "institutionnel": 3174,
      "directeur": 3175,
      "introduction": 3176,
      "passagers": 3177,
      "tastrop": 3178,
      "credi": 3179,
      "propriété": 3180,
      "Organisation": 3181,
      "1er": 3182,
      "Mari": 3183,
      "Sur": 3184,
      "hon": 3185,
      "lais": 3186,
      "choix": 3187,
      "jeu": 3188,
      "fournisse": 3189,
      "tourisme": 3190,
      "petites": 3191,
      "77": 3192,
      "Por": 3193,
      "flu": 3194,
      "ath": 3195,
      "immigration": 3196,
      "appelle": 3197,
      "garie": 3198,
      "affaire": 3199,
      "diffusion": 3200,
      "puisse": 3201,
      "paiements": 3202,
      "infraction": 3203,
      "appropriée": 3204,
      "espèces": 3205,
      "Bulgarie": 3206,
      "89": 3207,
      "Ri": 3208,
      "anie": 3209,
      "rati": 3210,
      "poursuivre": 3211,
      "solutions": 3212,
      "séance": 3213,
      "fonctions": 3214,
      "Communautés": 3215,
      "route": 3216,
      "violations": 3217,
      "***": 3218,
      "92": 3219,
      "Stra": 3220,
      "bâti": 3221,
      "rus": 3222,
      "ël": 3223,
      "lage": 3224,
      "sema": 3225,
      "2020": 3226,
      "vient": 3227,
      "forces": 3228,
      "accru": 3229,
      "communauté": 3230,
      "conforme": 3231,
      "conséquence": 3232,
      "commerciales": 3233,
      "globale": 3234,
      "naturelles": 3235,
      "PC": 3236,
      "bourg": 3237,
      "ja": 3238,
      "mille": 3239,
      "terra": 3240,
      "séle": 3241,
      "intervention": 3242,
      "nationalité": 3243,
      "vali": 3244,
      "catastrop": 3245,
      "structure": 3246,
      "établissant": 3247,
      "aucoup": 3248,
      "retour": 3249,
      "octroi": 3250,
      "provenant": 3251,
      "handicapées": 3252,
      "Isra": 3253,
      "individu": 3254,
      "vérit": 3255,
      "we": 3256,
      "pron": 3257,
      "gies": 3258,
      "...": 3259,
      "disposi": 3260,
      "importante": 3261,
      "cription": 3262,
      "consommateur": 3263,
      "commerciale": 3264,
      "catégorie": 3265,
      "électricité": 3266,
      "correspond": 3267,
      "tempora": 3268,
      "Acc": 3269,
      "Tra": 3270,
      "bo": 3271,
      "bun": 3272,
      "feu": 3273,
      "h00": 3274,
      "ènes": 3275,
      "rel": 3276,
      "etc": 3277,
      "chim": 3278,
      "lumière": 3279,
      "série": 3280,
      "seraient": 3281,
      "consci": 3282,
      "géo": 3283,
      "active": 3284,
      "95": 3285,
      "Bi": 3286,
      "nalis": 3287,
      "èrent": 3288,
      "ano": 3289,
      "accueil": 3290,
      "attent": 3291,
      "internet": 3292,
      "logne": 3293,
      "crétaire": 3294,
      "univers": 3295,
      "Cela": 3296,
      "maintien": 3297,
      "enregistre": 3298,
      "souhaite": 3299,
      "Stras": 3300,
      "85": 3301,
      "93": 3302,
      "BRI": 3303,
      "Lu": 3304,
      "ht": 3305,
      "mn": 3306,
      "sants": 3307,
      "inaire": 3308,
      "diri": 3309,
      "fiés": 3310,
      "forman": 3311,
      "super": 3312,
      "insiste": 3313,
      "nos": 3314,
      "noti": 3315,
      "législatif": 3316,
      "fondamentales": 3317,
      "parlementaires": 3318,
      "décidé": 3319,
      "préparation": 3320,
      "fabri": 3321,
      "Mal": 3322,
      "bation": 3323,
      "ry": 3324,
      "aujourd": 3325,
      "ouvé": 3326,
      "agence": 3327,
      "expression": 3328,
      "régimes": 3329,
      "garanties": 3330,
      "spécial": 3331,
      "constituer": 3332,
      "contraire": 3333,
      "limites": 3334,
      "équipements": 3335,
      "seule": 3336,
      "déterminer": 3337,
      "catégories": 3338,
      "Strasbourg": 3339,
      "P6": 3340,
      "VA": 3341,
      "_TA": 3342,
      "sivement": 3343,
      "conférence": 3344,
      "secon": 3345,
      "code": 3346,
      "travers": 3347,
      "comprom": 3348,
      "préala": 3349,
      "culteurs": 3350,
      "budgets": 3351,
      "premières": 3352,
      "directrices": 3353,
      "Compte": 3354,
      "ruption": 3355,
      "élément": 3356,
      "préciser": 3357,
      "uniquement": 3358,
      "affect": 3359,
      "AAAAAAAAAAAAAAAAAAAAAAAAAAAAAAAA": 3360,
      "grandes": 3361,
      "faible": 3362,
      "alleman": 3363,
      "Verts": 3364,
      "Banque": 3365,
      "pronon": 3366,
      "42": 3367,
      "CNS": 3368,
      "Ni": 3369,
      "accessi": 3370,
      "comment": 3371,
      "mat": 3372,
      "ctifs": 3373,
      "performan": 3374,
      "mili": 3375,
      "transit": 3376,
      "mener": 3377,
      "considération": 3378,
      "donne": 3379,
      "mative": 3380,
      "utilisées": 3381,
      "changements": 3382,
      "aura": 3383,
      "Israël": 3384,
      "100": 3385,
      "Ir": 3386,
      "NG": 3387,
      "mas": 3388,
      "stri": 3389,
      "vou": 3390,
      "tinent": 3391,
      "inde": 3392,
      "contenant": 3393,
      "parvenir": 3394,
      "maxim": 3395,
      "ureau": 3396,
      "lisation": 3397,
      "pertinent": 3398,
      "titude": 3399,
      "dossi": 3400,
      "marchandis": 3401,
      "commissions": 3402,
      "importants": 3403,
      "définiti": 3404,
      "affirme": 3405,
      "perspective": 3406,
      "PRO": 3407,
      "franç": 3408,
      "renouvelables": 3409,
      "70": 3410,
      "hist": 3411,
      "informe": 3412,
      "porteur": 3413,
      "sée": 3414,
      "séjour": 3415,
      "dispar": 3416,
      "cettes": 3417,
      "utile": 3418,
      "incidence": 3419,
      "fonctionnaires": 3420,
      "contrat": 3421,
      "impliqu": 3422,
      "commerciaux": 3423,
      "beaucoup": 3424,
      "étiquet": 3425,
      "oration": 3426,
      "enci": 3427,
      "riques": 3428,
      "exi": 3429,
      "touch": 3430,
      "concent": 3431,
      "constitution": 3432,
      "intérieures": 3433,
      "réaliser": 3434,
      "rappel": 3435,
      "enquêtes": 3436,
      "compétence": 3437,
      "stratégies": 3438,
      "cohérence": 3439,
      "rural": 3440,
      "ferroviaire": 3441,
      "empêcher": 3442,
      "ressortissants": 3443,
      "65": 3444,
      "99": 3445,
      "Bas": 3446,
      "nage": 3447,
      "pan": 3448,
      "rece": 3449,
      "conver": 3450,
      "dues": 3451,
      "réformes": 3452,
      "provo": 3453,
      "propos": 3454,
      "forte": 3455,
      "informer": 3456,
      "faite": 3457,
      "contraig": 3458,
      "démocratiques": 3459,
      "annuels": 3460,
      "équival": 3461,
      "plupart": 3462,
      "indiqué": 3463,
      "accorder": 3464,
      "prenant": 3465,
      "méthode": 3466,
      "global": 3467,
      "primer": 3468,
      "électroniques": 3469,
      "burants": 3470,
      "modèle": 3471,
      "prévus": 3472,
      "67": 3473,
      "Mo": 3474,
      "ii": 3475,
      "ennent": 3476,
      "diffici": 3477,
      "air": 3478,
      "estation": 3479,
      "brev": 3480,
      "approbation": 3481,
      "clas": 3482,
      "tiennent": 3483,
      "responsabil": 3484,
      "défis": 3485,
      "électronique": 3486,
      "cycle": 3487,
      "restrictions": 3488,
      "cussions": 3489,
      "susceptibles": 3490,
      "légiti": 3491,
      "ao": 3492,
      "tures": 3493,
      "vin": 3494,
      "ément": 3495,
      "requis": 3496,
      "agré": 3497,
      "fique": 3498,
      "avan": 3499,
      "régionales": 3500,
      "influ": 3501,
      "appliquent": 3502,
      "affirmative": 3503,
      "ARTIC": 3504,
      "Lorsque": 3505,
      "collab": 3506,
      "opérateurs": 3507,
      "libéra": 3508,
      "volonté": 3509,
      "dûment": 3510,
      "conciliation": 3511,
      "Iran": 3512,
      "brit": 3513,
      "cteur": 3514,
      "fau": 3515,
      "mac": 3516,
      "uel": 3517,
      "yer": 3518,
      "çant": 3519,
      "tir": 3520,
      "neu": 3521,
      "lie": 3522,
      "réparti": 3523,
      "diver": 3524,
      "chapitre": 3525,
      "suit": 3526,
      "obtenu": 3527,
      "visi": 3528,
      "accent": 3529,
      "direct": 3530,
      "correc": 3531,
      "types": 3532,
      "religie": 3533,
      "marchandises": 3534,
      "ARTICLE": 3535,
      "britanni": 3536,
      "Ko": 3537,
      "Ori": 3538,
      "hen": 3539,
      "haus": 3540,
      "certi": 3541,
      "compens": 3542,
      "intégr": 3543,
      "ONU": 3544,
      "famille": 3545,
      "Quelle": 3546,
      "the": 3547,
      "chaî": 3548,
      "1998": 3549,
      "anger": 3550,
      "veillent": 3551,
      "reconnaît": 3552,
      "stockage": 3553,
      "structurels": 3554,
      "fraude": 3555,
      "Bal": 3556,
      "OS": 3557,
      "RU": 3558,
      "gés": 3559,
      "ko": 3560,
      "muni": 3561,
      "opin": 3562,
      "opport": 3563,
      "cho": 3564,
      "trê": 3565,
      "fiées": 3566,
      "nies": 3567,
      "avaient": 3568,
      "vues": 3569,
      "police": 3570,
      "grave": 3571,
      "estimé": 3572,
      "posées": 3573,
      "chargé": 3574,
      "efficaces": 3575,
      "présidente": 3576,
      "graphique": 3577,
      "existants": 3578,
      "équitable": 3579,
      "71": 3580,
      "AT": 3581,
      "El": 3582,
      "Ou": 3583,
      "ira": 3584,
      "vari": 3585,
      "pare": 3586,
      "endre": 3587,
      "guerre": 3588,
      "faits": 3589,
      "actifs": 3590,
      "langue": 3591,
      "sites": 3592,
      "engager": 3593,
      "observer": 3594,
      "sélection": 3595,
      "Orient": 3596,
      "Di": 3597,
      "Fin": 3598,
      "ase": 3599,
      "hom": 3600,
      "sidé": 3601,
      "simi": 3602,
      "consoli": 3603,
      "illes": 3604,
      "agissant": 3605,
      "adres": 3606,
      "finance": 3607,
      "fondé": 3608,
      "mettent": 3609,
      "vente": 3610,
      "Enfin": 3611,
      "jouer": 3612,
      "substance": 3613,
      "continue": 3614,
      "potentiel": 3615,
      "minimum": 3616,
      "Amérique": 3617,
      "Portug": 3618,
      "68": 3619,
      "78": 3620,
      "Bel": 3621,
      "Ro": 3622,
      "fré": 3623,
      "pil": 3624,
      "remb": 3625,
      "recettes": 3626,
      "insuffis": 3627,
      "auquel": 3628,
      "radi": 3629,
      "notre": 3630,
      "interne": 3631,
      "issances": 3632,
      "devra": 3633,
      "obligatoire": 3634,
      "rub": 3635,
      "Pays": 3636,
      "pension": 3637,
      "sauve": 3638,
      "harmonisation": 3639,
      "signific": 3640,
      "exportation": 3641,
      "diterrané": 3642,
      "Irlande": 3643,
      "opinion": 3644,
      "A5": 3645,
      "Alle": 3646,
      "dences": 3647,
      "fra": 3648,
      "xion": 3649,
      "conne": 3650,
      "cependant": 3651,
      "agents": 3652,
      "pluri": 3653,
      "inspe": 3654,
      "atifs": 3655,
      "régionaux": 3656,
      "bonnes": 3657,
      "Inde": 3658,
      "agriculteurs": 3659,
      "installation": 3660,
      "adéqua": 3661,
      "reçu": 3662,
      "obstacles": 3663,
      "indispensable": 3664,
      "B6": 3665,
      "lait": 3666,
      "ral": 3667,
      "chô": 3668,
      "extrê": 3669,
      "volu": 3670,
      "ONG": 3671,
      "instituant": 3672,
      "souligné": 3673,
      "femme": 3674,
      "fixées": 3675,
      "affec": 3676,
      "muné": 3677,
      "Ma": 3678,
      "Man": 3679,
      "Nous": 3680,
      "of": 3681,
      "pés": 3682,
      "pense": 3683,
      "rom": 3684,
      "ût": 3685,
      "delà": 3686,
      "ister": 3687,
      "liers": 3688,
      "peine": 3689,
      "ablement": 3690,
      "ctora": 3691,
      "considéra": 3692,
      "militaires": 3693,
      "durant": 3694,
      "Cha": 3695,
      "moyenne": 3696,
      "augmenter": 3697,
      "élabor": 3698,
      "approuvé": 3699,
      "grands": 3700,
      "totale": 3701,
      "intitulée": 3702,
      "concrètes": 3703,
      "Portugal": 3704,
      "ER": 3705,
      "Etat": 3706,
      "GUE": 3707,
      "Nord": 3708,
      "tar": 3709,
      "issu": 3710,
      "istes": 3711,
      "audit": 3712,
      "sition": 3713,
      "rémuné": 3714,
      "ros": 3715,
      "gique": 3716,
      "serre": 3717,
      "distribution": 3718,
      "intermédi": 3719,
      "chez": 3720,
      "menace": 3721,
      "importations": 3722,
      "opérationnel": 3723,
      "intégrée": 3724,
      "limiter": 3725,
      "réglementaires": 3726,
      "essentiels": 3727,
      "confidenti": 3728,
      "calend": 3729,
      "lettre": 3730,
      "professionnels": 3731,
      "régulièrement": 3732,
      "exercer": 3733,
      "mant": 3734,
      "oto": 3735,
      "tance": 3736,
      "auxquels": 3737,
      "exception": 3738,
      "chement": 3739,
      "intéressé": 3740,
      "utilisateurs": 3741,
      "approfon": 3742,
      "présidents": 3743,
      "territori": 3744,
      "adaptation": 3745,
      "ajoutée": 3746,
      "physique": 3747,
      "Textes": 3748,
      "préalable": 3749,
      "AE": 3750,
      "Do": 3751,
      "moi": 3752,
      "vations": 3753,
      "début": 3754,
      "excep": 3755,
      "gion": 3756,
      "tend": 3757,
      "soutient": 3758,
      "Quel": 3759,
      "destiné": 3760,
      "confiance": 3761,
      "circons": 3762,
      "harmonis": 3763,
      "enregist": 3764,
      "fourniture": 3765,
      "flexi": 3766,
      "monétaire": 3767,
      "91": 3768,
      "Ukra": 3769,
      "dra": 3770,
      "dité": 3771,
      "magne": 3772,
      "oe": 3773,
      "âge": 3774,
      "infé": 3775,
      "dég": 3776,
      "parce": 3777,
      "diminu": 3778,
      "cheurs": 3779,
      "porté": 3780,
      "férer": 3781,
      "source": 3782,
      "corruption": 3783,
      "alimentation": 3784,
      "Cependant": 3785,
      "registre": 3786,
      "montants": 3787,
      "populations": 3788,
      "caractéristiques": 3789,
      "immédiatement": 3790,
      "Ukraine": 3791,
      "010": 3792,
      "83": 3793,
      "97": 3794,
      "EL": 3795,
      "IV": 3796,
      "ST": 3797,
      "kistan": 3798,
      "oo": 3799,
      "voire": 3800,
      "lari": 3801,
      "allè": 3802,
      "forê": 3803,
      "disposer": 3804,
      "entrer": 3805,
      "minorités": 3806,
      "vol": 3807,
      "menées": 3808,
      "quelque": 3809,
      "clause": 3810,
      "indique": 3811,
      "défini": 3812,
      "journalis": 3813,
      "derniers": 3814,
      "résultat": 3815,
      "approprié": 3816,
      "accordée": 3817,
      "prochaine": 3818,
      "maladie": 3819,
      "Accord": 3820,
      "inférieur": 3821,
      "62": 3822,
      "ajus": 3823,
      "élè": 3824,
      "qués": 3825,
      "inaires": 3826,
      "accompl": 3827,
      "méditerrané": 3828,
      "tiquement": 3829,
      "ordon": 3830,
      "communs": 3831,
      "comple": 3832,
      "subsi": 3833,
      "subventions": 3834,
      "définis": 3835,
      "connaissances": 3836,
      "commercialisation": 3837,
      "indépendants": 3838,
      "exclusion": 3839,
      "fabric": 3840,
      "quotas": 3841,
      "responsabilités": 3842,
      "sal": 3843,
      "vils": 3844,
      "onom": 3845,
      "lien": 3846,
      "seur": 3847,
      "oph": 3848,
      "cip": 3849,
      "civils": 3850,
      "alter": 3851,
      "compos": 3852,
      "sug": 3853,
      "sées": 3854,
      "direction": 3855,
      "montre": 3856,
      "établit": 3857,
      "signé": 3858,
      "routi": 3859,
      "raisonn": 3860,
      "arrêt": 3861,
      "BEI": 3862,
      "ministres": 3863,
      "NGL": 3864,
      "indemn": 3865,
      "financements": 3866,
      "Allemagne": 3867,
      "Fran": 3868,
      "ghan": 3869,
      "indre": 3870,
      "incomb": 3871,
      "pru": 3872,
      "prit": 3873,
      "délégu": 3874,
      "rédi": 3875,
      "viennent": 3876,
      "succ": 3877,
      "mées": 3878,
      "attribu": 3879,
      "accélé": 3880,
      "enda": 3881,
      "évé": 3882,
      "utilisé": 3883,
      "phase": 3884,
      "mercredi": 3885,
      "modifiée": 3886,
      "inclure": 3887,
      "préoccupé": 3888,
      "haute": 3889,
      "existantes": 3890,
      "relève": 3891,
      "nommé": 3892,
      "revê": 3893,
      "dommages": 3894,
      "véritable": 3895,
      "subsidi": 3896,
      "87": 3897,
      "Tr": 3898,
      "évi": 3899,
      "envoy": 3900,
      "quent": 3901,
      "dération": 3902,
      "pourquoi": 3903,
      "force": 3904,
      "tension": 3905,
      "souff": 3906,
      "geant": 3907,
      "financer": 3908,
      "ocar": 3909,
      "engen": 3910,
      "milles": 3911,
      "INT": 3912,
      "banques": 3913,
      "combat": 3914,
      "professionnelles": 3915,
      "Schengen": 3916,
      "DU": 3917,
      "Jour": 3918,
      "Kar": 3919,
      "PV": 3920,
      "amp": 3921,
      "bou": 3922,
      "mage": 3923,
      "vain": 3924,
      "Étant": 3925,
      "èg": 3926,
      "éth": 3927,
      "esprit": 3928,
      "itent": 3929,
      "tables": 3930,
      "partage": 3931,
      "présentation": 3932,
      "lois": 3933,
      "prior": 3934,
      "privé": 3935,
      "grants": 3936,
      "larus": 3937,
      "supplémentaire": 3938,
      "douani": 3939,
      "autorisés": 3940,
      "civiles": 3941,
      "diverses": 3942,
      "pollu": 3943,
      "candidat": 3944,
      "judiciaires": 3945,
      "syn": 3946,
      "capital": 3947,
      "principal": 3948,
      "Hong": 3949,
      "82": 3950,
      "Her": 3951,
      "vit": 3952,
      "ond": 3953,
      "désor": 3954,
      "exposition": 3955,
      "tradi": 3956,
      "motifs": 3957,
      "prévenir": 3958,
      "endra": 3959,
      "tribun": 3960,
      "économies": 3961,
      "publié": 3962,
      "ultérieur": 3963,
      "clair": 3964,
      "centres": 3965,
      "mondialisation": 3966,
      "local": 3967,
      "infractions": 3968,
      "envisager": 3969,
      "expliqu": 3970,
      "stocks": 3971,
      "ALDE": 3972,
      "calendrier": 3973,
      "CA": 3974,
      "Pe": 3975,
      "UN": 3976,
      "revenus": 3977,
      "comporte": 3978,
      "autom": 3979,
      "atom": 3980,
      "Constitution": 3981,
      "interinstitutionnel": 3982,
      "médic": 3983,
      "député": 3984,
      "férences": 3985,
      "banc": 3986,
      "navire": 3987,
      "Pologne": 3988,
      "phénom": 3989,
      "vulné": 3990,
      "temporaire": 3991,
      "désormais": 3992,
      "B7": 3993,
      "SC": 3994,
      "ia": 3995,
      "nalité": 3996,
      "sage": 3997,
      "rette": 3998,
      "dipl": 3999,
      "plut": 4000,
      "partis": 4001,
      "présentant": 4002,
      "migrants": 4003,
      "demandeur": 4004,
      "devront": 4005,
      "presta": 4006,
      "environnementales": 4007,
      "citoyen": 4008,
      "réglementaire": 4009,
      "technologie": 4010,
      "favorable": 4011,
      "majeur": 4012,
      "voisins": 4013,
      "annoncé": 4014,
      "56": 4015,
      "DG": 4016,
      "DI": 4017,
      "TVA": 4018,
      "isent": 4019,
      "quand": 4020,
      "rac": 4021,
      "anté": 4022,
      "détention": 4023,
      "allég": 4024,
      "néanmoins": 4025,
      "addi": 4026,
      "séri": 4027,
      "gement": 4028,
      "entis": 4029,
      "langues": 4030,
      "environnementale": 4031,
      "universe": 4032,
      "spécialis": 4033,
      "précise": 4034,
      "Présidence": 4035,
      "limite": 4036,
      "locaux": 4037,
      "adapter": 4038,
      "complète": 4039,
      "préoccupations": 4040,
      "conservation": 4041,
      "répartition": 4042,
      "rubrique": 4043,
      "plutôt": 4044,
      "41": 4045,
      "58": 4046,
      "SO": 4047,
      "mau": 4048,
      "mou": 4049,
      "écar": 4050,
      "regar": 4051,
      "itu": 4052,
      "audio": 4053,
      "pou": 4054,
      "déplo": 4055,
      "undi": 4056,
      "préci": 4057,
      "autonom": 4058,
      "patri": 4059,
      "votre": 4060,
      "salari": 4061,
      "quelques": 4062,
      "longue": 4063,
      "incidences": 4064,
      "électora": 4065,
      "annuelle": 4066,
      "Rapporteur": 4067,
      "technologique": 4068,
      "extérieure": 4069,
      "futur": 4070,
      "sauf": 4071,
      "aérien": 4072,
      "allou": 4073,
      "campagne": 4074,
      "chacun": 4075,
      "difficile": 4076,
      "mauva": 4077,
      "94": 4078,
      "Centre": 4079,
      "On": 4080,
      "bar": 4081,
      "sait": 4082,
      "tp": 4083,
      "vas": 4084,
      "endu": 4085,
      "istique": 4086,
      "istant": 4087,
      "sect": 4088,
      "opposition": 4089,
      "terres": 4090,
      "exter": 4091,
      "Parlementaire": 4092,
      "familles": 4093,
      "phon": 4094,
      "phar": 4095,
      "Chy": 4096,
      "fixé": 4097,
      "introduire": 4098,
      "humaines": 4099,
      "calcul": 4100,
      "quantité": 4101,
      "contact": 4102,
      "récente": 4103,
      "procès": 4104,
      "principalement": 4105,
      "semaine": 4106,
      "enregistrement": 4107,
      "étiquetage": 4108,
      "subsidiarité": 4109,
      "déplore": 4110,
      "://": 4111,
      "PA": 4112,
      "PH": 4113,
      "Sa": 4114,
      "blan": 4115,
      "centre": 4116,
      "nité": 4117,
      "él": 4118,
      "dérou": 4119,
      "cifique": 4120,
      "chances": 4121,
      "surtout": 4122,
      "abor": 4123,
      "attribution": 4124,
      "passe": 4125,
      "mark": 4126,
      "pertes": 4127,
      "transmission": 4128,
      "règlements": 4129,
      "pouvant": 4130,
      "directe": 4131,
      "administrative": 4132,
      "atteinte": 4133,
      "patients": 4134,
      "POINT": 4135,
      "Honorable": 4136,
      "dérogation": 4137,
      "élimination": 4138,
      "siège": 4139,
      "bâtiments": 4140,
      "http": 4141,
      "73": 4142,
      "74": 4143,
      "C7": 4144,
      "LU": 4145,
      "oli": 4146,
      "urb": 4147,
      "rem": 4148,
      "incit": 4149,
      "paration": 4150,
      "chois": 4151,
      "opérer": 4152,
      "appara": 4153,
      "portent": 4154,
      "parer": 4155,
      "présents": 4156,
      "transformation": 4157,
      "posant": 4158,
      "nomination": 4159,
      "Européen": 4160,
      "énergies": 4161,
      "limité": 4162,
      "atteint": 4163,
      "indépendant": 4164,
      "tableau": 4165,
      "officiel": 4166,
      "infrastructure": 4167,
      "collecte": 4168,
      "lingu": 4169,
      "figurant": 4170,
      "Jean": 4171,
      "préserver": 4172,
      "AVIS": 4173,
      "chômage": 4174,
      ".\"": 4175,
      "63": 4176,
      "Aff": 4177,
      "P7": 4178,
      "Pre": 4179,
      "RÉ": 4180,
      "Sou": 4181,
      "hes": 4182,
      "lour": 4183,
      "Ég": 4184,
      "inage": 4185,
      "réper": 4186,
      "communautés": 4187,
      "mettant": 4188,
      "DES": 4189,
      "militaire": 4190,
      "équilibre": 4191,
      "retard": 4192,
      "montré": 4193,
      "essentiellement": 4194,
      "compagnies": 4195,
      "télévision": 4196,
      "culturel": 4197,
      "pénale": 4198,
      "provenance": 4199,
      "landais": 4200,
      "NOT": 4201,
      "fournisseurs": 4202,
      "pertinentes": 4203,
      "approfondi": 4204,
      "Ad": 4205,
      "Bu": 4206,
      "Ky": 4207,
      "ate": 4208,
      "dy": 4209,
      "ptions": 4210,
      "âgées": 4211,
      "remédi": 4212,
      "conventions": 4213,
      "abus": 4214,
      "passé": 4215,
      "viser": 4216,
      "accus": 4217,
      "los": 4218,
      "postes": 4219,
      "missi": 4220,
      "définies": 4221,
      "susmention": 4222,
      "ctuelle": 4223,
      "associations": 4224,
      "étrangère": 4225,
      "Décla": 4226,
      "approuv": 4227,
      "stratégiques": 4228,
      "orientation": 4229,
      "éventuelle": 4230,
      "identité": 4231,
      "multilatéra": 4232,
      "numérique": 4233,
      "accidents": 4234,
      "pétrole": 4235,
      "ethni": 4236,
      "chaîne": 4237,
      "regard": 4238,
      "\":": 4239,
      "):": 4240,
      "Sy": 4241,
      "Vo": 4242,
      "ax": 4243,
      "bie": 4244,
      "fe": 4245,
      "lité": 4246,
      "tch": 4247,
      "quée": 4248,
      "insi": 4249,
      "poiss": 4250,
      "unis": 4251,
      "maxi": 4252,
      "notification": 4253,
      "mardi": 4254,
      "donnée": 4255,
      "législations": 4256,
      "conformes": 4257,
      "ffice": 4258,
      "environnementaux": 4259,
      "contrôler": 4260,
      "représentent": 4261,
      "structures": 4262,
      "substanti": 4263,
      "proposées": 4264,
      "téléphon": 4265,
      "octroy": 4266,
      "jeudi": 4267,
      "dossier": 4268,
      "certific": 4269,
      "Asie": 4270,
      "Can": 4271,
      "CON": 4272,
      "No": 4273,
      "Règ": 4274,
      "Slo": 4275,
      "aise": 4276,
      "bord": 4277,
      "ms": 4278,
      "vous": 4279,
      "xy": 4280,
      "ensuite": 4281,
      "eter": 4282,
      "arti": 4283,
      "ouvel": 4284,
      "org": 4285,
      "rétab": 4286,
      "opti": 4287,
      "poursuite": 4288,
      "inscrit": 4289,
      "endrait": 4290,
      "concernée": 4291,
      "gramme": 4292,
      "généraux": 4293,
      "générales": 4294,
      "amélior": 4295,
      "équilib": 4296,
      "bénéfi": 4297,
      "regrette": 4298,
      "bénéficiaires": 4299,
      "examiné": 4300,
      "Livre": 4301,
      "minimales": 4302,
      "mutuelle": 4303,
      "sauvegarde": 4304,
      "forêts": 4305,
      "alterna": 4306,
      "toire": 4307,
      "émission": 4308,
      "itants": 4309,
      "convain": 4310,
      "déri": 4311,
      "seurs": 4312,
      "parl": 4313,
      "provis": 4314,
      "excessi": 4315,
      "comprend": 4316,
      "commen": 4317,
      "visas": 4318,
      "vert": 4319,
      "fonde": 4320,
      "menac": 4321,
      "truction": 4322,
      "entités": 4323,
      "crimes": 4324,
      "contribue": 4325,
      "plani": 4326,
      "résultant": 4327,
      "commercial": 4328,
      "facteurs": 4329,
      "autoriser": 4330,
      "animale": 4331,
      "combusti": 4332,
      "centrales": 4333,
      "peuple": 4334,
      "prochaines": 4335,
      "informé": 4336,
      "vérifier": 4337,
      "déploy": 4338,
      "demeur": 4339,
      "Directive": 4340,
      "interprétation": 4341,
      "août": 4342,
      "sectori": 4343,
      "300": 4344,
      "59": 4345,
      "79": 4346,
      "86": 4347,
      "EE": 4348,
      "He": 4349,
      "NT": 4350,
      "SA": 4351,
      "Sta": 4352,
      "Somm": 4353,
      "pp": 4354,
      "tan": 4355,
      "dette": 4356,
      "relation": 4357,
      "quées": 4358,
      "résou": 4359,
      "moine": 4360,
      "prévoy": 4361,
      "soumettre": 4362,
      "lissement": 4363,
      "carbon": 4364,
      "subvention": 4365,
      "COMM": 4366,
      "intégrer": 4367,
      "fixer": 4368,
      "consulté": 4369,
      "effectuer": 4370,
      "future": 4371,
      "Secrétaire": 4372,
      "remplacé": 4373,
      "volontaire": 4374,
      "permanent": 4375,
      "systématique": 4376,
      "pétitions": 4377,
      "Trans": 4378,
      "audiovis": 4379,
      ".)": 4380,
      "mus": 4381,
      "ws": 4382,
      "écrit": 4383,
      "essais": 4384,
      "cides": 4385,
      "chau": 4386,
      "viande": 4387,
      "insé": 4388,
      "préhen": 4389,
      "abat": 4390,
      "clari": 4391,
      "profit": 4392,
      "permettra": 4393,
      "établies": 4394,
      "climat": 4395,
      "effectués": 4396,
      "énergétiques": 4397,
      "aériens": 4398,
      "cohérente": 4399,
      "effectivement": 4400,
      "oeuvre": 4401,
      "Chypre": 4402,
      "Cer": 4403,
      "Ira": 4404,
      "LI": 4405,
      "Pri": 4406,
      "aï": 4407,
      "fre": 4408,
      "olo": 4409,
      "ps": 4410,
      "èque": 4411,
      "uration": 4412,
      "concep": 4413,
      "défic": 4414,
      "réception": 4415,
      "trouve": 4416,
      "apparten": 4417,
      "prési": 4418,
      "péra": 4419,
      "visa": 4420,
      "ouvert": 4421,
      "organe": 4422,
      "travaille": 4423,
      "Que": 4424,
      "charges": 4425,
      "fixés": 4426,
      "criminalité": 4427,
      "suffisamment": 4428,
      "passage": 4429,
      "véhicule": 4430,
      "Lorsqu": 4431,
      "complémentaires": 4432,
      "appui": 4433,
      "situations": 4434,
      "étendre": 4435,
      "chimiques": 4436,
      "stric": 4437,
      "macro": 4438,
      "patrimoine": 4439,
      "Ag": 4440,
      "Dis": 4441,
      "Fi": 4442,
      "For": 4443,
      "Ge": 4444,
      "Mer": 4445,
      "cs": 4446,
      "flo": 4447,
      "tiret": 4448,
      "redev": 4449,
      "isant": 4450,
      "parta": 4451,
      "réaction": 4452,
      "cession": 4453,
      "pect": 4454,
      "portu": 4455,
      "formément": 4456,
      "composition": 4457,
      "atti": 4458,
      "pay": 4459,
      "paquet": 4460,
      "micro": 4461,
      "loy": 4462,
      "ouverte": 4463,
      "régissant": 4464,
      "tionnels": 4465,
      "contient": 4466,
      "enfant": 4467,
      "courant": 4468,
      "simple": 4469,
      "quantités": 4470,
      "nucléaires": 4471,
      "second": 4472,
      "français": 4473,
      "circonstances": 4474,
      "remédier": 4475,
      "Bo": 4476,
      "Hu": 4477,
      "clés": 4478,
      "dan": 4479,
      "édo": 4480,
      "rement": 4481,
      "quat": 4482,
      "cib": 4483,
      "chant": 4484,
      "niers": 4485,
      "portées": 4486,
      "codécision": 4487,
      "moder": 4488,
      "souver": 4489,
      "migra": 4490,
      "biais": 4491,
      "utilisée": 4492,
      "élevés": 4493,
      "importation": 4494,
      "LES": 4495,
      "double": 4496,
      "culturelle": 4497,
      "José": 4498,
      "qualifications": 4499,
      "malgré": 4500,
      "transfrontaliers": 4501,
      "afric": 4502,
      "couverts": 4503,
      "accrue": 4504,
      "exige": 4505,
      "collaboration": 4506,
      "rembour": 4507,
      "volume": 4508,
      "succès": 4509,
      "résoudre": 4510,
      "025": 4511,
      "DC": 4512,
      "Gar": 4513,
      "Gaz": 4514,
      "NE": 4515,
      "OG": 4516,
      "UK": 4517,
      "bat": 4518,
      "bru": 4519,
      "len": 4520,
      "page": 4521,
      "sport": 4522,
      "vres": 4523,
      "v01": 4524,
      "devenir": 4525,
      "ladite": 4526,
      "quise": 4527,
      "intelle": 4528,
      "art": 4529,
      "argent": 4530,
      "poi": 4531,
      "démar": 4532,
      "opa": 4533,
      "cipl": 4534,
      "pourront": 4535,
      "assor": 4536,
      "via": 4537,
      "modes": 4538,
      "abouti": 4539,
      "Considé": 4540,
      "Conformément": 4541,
      "discipl": 4542,
      "visite": 4543,
      "version": 4544,
      "présentent": 4545,
      "internes": 4546,
      "venue": 4547,
      "programmation": 4548,
      "actives": 4549,
      "particulières": 4550,
      "fermet": 4551,
      "SEC": 4552,
      "consulta": 4553,
      "Depuis": 4554,
      "recy": 4555,
      "cellu": 4556,
      "court": 4557,
      "europarl": 4558,
      "efficacement": 4559,
      "tonnes": 4560,
      "terroristes": 4561,
      "manifes": 4562,
      "étudier": 4563,
      "issue": 4564,
      "61": 4565,
      "Après": 4566,
      "BCE": 4567,
      "Col": 4568,
      "Me": 4569,
      "PAC": 4570,
      "Sé": 4571,
      "Vote": 4572,
      "sés": 4573,
      "ètres": 4574,
      "auteur": 4575,
      "dégra": 4576,
      "dig": 4577,
      "terre": 4578,
      "prévision": 4579,
      "abord": 4580,
      "intervenir": 4581,
      "privés": 4582,
      "privée": 4583,
      "rencontre": 4584,
      "conduire": 4585,
      "proposée": 4586,
      "identification": 4587,
      "décider": 4588,
      "largement": 4589,
      "dangereux": 4590,
      "intensi": 4591,
      "flux": 4592,
      "fabrication": 4593,
      "Belgique": 4594,
      "Affaires": 4595,
      "Considérant": 4596,
      "Cro": 4597,
      "Du": 4598,
      "Non": 4599,
      "ke": 4600,
      "oise": 4601,
      "endi": 4602,
      "intel": 4603,
      "conception": 4604,
      "liqui": 4605,
      "liée": 4606,
      "seig": 4607,
      "apon": 4608,
      "rappro": 4609,
      "moteur": 4610,
      "immun": 4611,
      "obi": 4612,
      "positive": 4613,
      "interdire": 4614,
      "menée": 4615,
      "considéré": 4616,
      "considérée": 4617,
      "occident": 4618,
      "stade": 4619,
      "plein": 4620,
      "norme": 4621,
      "permettent": 4622,
      "implique": 4623,
      "détermination": 4624,
      "prochain": 4625,
      "entraîner": 4626,
      "couvrir": 4627,
      "Médi": 4628,
      "catastrophes": 4629,
      "requises": 4630,
      "britannique": 4631,
      "012": 4632,
      "69": 4633,
      "A7": 4634,
      "Mil": 4635,
      "Né": 4636,
      "Office": 4637,
      "bel": 4638,
      "cl": 4639,
      "drait": 4640,
      "fru": 4641,
      "ide": 4642,
      "soi": 4643,
      "vage": 4644,
      "ving": 4645,
      "zi": 4646,
      "las": 4647,
      "lau": 4648,
      "liens": 4649,
      "déposée": 4650,
      "parallè": 4651,
      "récla": 4652,
      "pourcent": 4653,
      "sud": 4654,
      "mora": 4655,
      "lication": 4656,
      "lications": 4657,
      "formations": 4658,
      "intéres": 4659,
      "tisation": 4660,
      "Euratom": 4661,
      "eusement": 4662,
      "bats": 4663,
      "publicité": 4664,
      "Comme": 4665,
      "humain": 4666,
      "supprimer": 4667,
      "corre": 4668,
      "représentation": 4669,
      "observations": 4670,
      "Suède": 4671,
      "éventuelles": 4672,
      "frontière": 4673,
      "Afghan": 4674,
      "hydro": 4675,
      "confirmer": 4676,
      "instaurer": 4677,
      "indicateurs": 4678,
      "dispositifs": 4679,
      "compromis": 4680,
      "hausse": 4681,
      "opportun": 4682,
      "fréqu": 4683,
      "adéquate": 4684,
      "Règlement": 4685,
      "carbone": 4686,
      "poids": 4687,
      "Afghanistan": 4688,
      "57": 4689,
      "Nor": 4690,
      "OR": 4691,
      "idée": 4692,
      "jur": 4693,
      "vété": 4694,
      "ville": 4695,
      "degré": 4696,
      "recti": 4697,
      "ina": 4698,
      "ini": 4699,
      "itra": 4700,
      "itations": 4701,
      "prestations": 4702,
      "omé": 4703,
      "lié": 4704,
      "veille": 4705,
      "auxquelles": 4706,
      "pul": 4707,
      "triche": 4708,
      "interdit": 4709,
      "crits": 4710,
      "biocar": 4711,
      "famili": 4712,
      "affér": 4713,
      "aliser": 4714,
      "actuels": 4715,
      "Autriche": 4716,
      "recommande": 4717,
      "pauvres": 4718,
      "sûr": 4719,
      "capitaux": 4720,
      "latéraux": 4721,
      "rurales": 4722,
      "prêts": 4723,
      "susceptible": 4724,
      "illégale": 4725,
      "demeure": 4726,
      "libéralisation": 4727,
      "événements": 4728,
      "vétér": 4729,
      "Ainsi": 4730,
      "IPR": 4731,
      "ah": 4732,
      "més": 4733,
      "nus": 4734,
      "pie": 4735,
      "vités": 4736,
      "êtres": 4737,
      "dehors": 4738,
      "dénon": 4739,
      "chin": 4740,
      "aller": 4741,
      "tentions": 4742,
      "automa": 4743,
      "privil": 4744,
      "euse": 4745,
      "ouvrir": 4746,
      "déclare": 4747,
      "directs": 4748,
      "fondamental": 4749,
      "appliquées": 4750,
      "bilan": 4751,
      "biliser": 4752,
      "exiger": 4753,
      "ajouté": 4754,
      "biodiversité": 4755,
      "électrique": 4756,
      "intellig": 4757,
      "66": 4758,
      "DA": 4759,
      "EM": 4760,
      "Gen": 4761,
      "OP": 4762,
      "by": 4763,
      "hor": 4764,
      "h30": 4765,
      "vè": 4766,
      "œuv": 4767,
      "arb": 4768,
      "conç": 4769,
      "ores": 4770,
      "réaffirme": 4771,
      "coopérer": 4772,
      "abe": 4773,
      "demandent": 4774,
      "chef": 4775,
      "vateurs": 4776,
      "renseig": 4777,
      "atie": 4778,
      "lancer": 4779,
      "périodes": 4780,
      "périphé": 4781,
      "Institu": 4782,
      "juridiction": 4783,
      "assin": 4784,
      "climatiques": 4785,
      "occup": 4786,
      "auraient": 4787,
      "reconnaître": 4788,
      "favora": 4789,
      "biologique": 4790,
      "SION": 4791,
      "figure": 4792,
      "religion": 4793,
      "exportations": 4794,
      "tabac": 4795,
      "transition": 4796,
      "chiffres": 4797,
      "Belarus": 4798,
      "jamais": 4799,
      "extrêmement": 4800,
      "Chaque": 4801,
      "flexibilité": 4802,
      "chauff": 4803,
      "intellectuelle": 4804,
      "EU": 4805,
      "Mais": 4806,
      "Ra": 4807,
      "cts": 4808,
      "isra": 4809,
      "cont": 4810,
      "oro": 4811,
      "rester": 4812,
      "accomp": 4813,
      "agenda": 4814,
      "inscri": 4815,
      "certification": 4816,
      "ctivités": 4817,
      "impose": 4818,
      "consiste": 4819,
      "perte": 4820,
      "pertin": 4821,
      "éron": 4822,
      "finances": 4823,
      "renvoy": 4824,
      "suppression": 4825,
      "gouvernementales": 4826,
      "encourag": 4827,
      "clients": 4828,
      "offrir": 4829,
      "étranger": 4830,
      "SITION": 4831,
      "meilleures": 4832,
      "habil": 4833,
      "aviation": 4834,
      "attend": 4835,
      "exprimé": 4836,
      "PIB": 4837,
      "www": 4838,
      "Bien": 4839,
      "maximum": 4840,
      "PROPO": 4841,
      "Koso": 4842,
      "vulnérables": 4843,
      "antérieur": 4844,
      "Déclaration": 4845,
      "\")": 4846,
      "Aux": 4847,
      "Ca": 4848,
      "FUE": 4849,
      "Jan": 4850,
      "MI": 4851,
      "Per": 4852,
      "SP": 4853,
      "ho": 4854,
      "tariat": 4855,
      "toires": 4856,
      "èse": 4857,
      "écoles": 4858,
      "lateurs": 4859,
      "dessus": 4860,
      "sif": 4861,
      "réalité": 4862,
      "résidence": 4863,
      "assu": 4864,
      "extension": 4865,
      "compréhen": 4866,
      "crétariat": 4867,
      "juste": 4868,
      "ulture": 4869,
      "conviendrait": 4870,
      "Programme": 4871,
      "débit": 4872,
      "locale": 4873,
      "fixant": 4874,
      "essentielles": 4875,
      "voitures": 4876,
      "approuve": 4877,
      "éligi": 4878,
      "achat": 4879,
      "numéro": 4880,
      "découlant": 4881,
      "terrain": 4882,
      "dirige": 4883,
      "performance": 4884,
      "histor": 4885,
      "contraignant": 4886,
      "rémunération": 4887,
      "journalistes": 4888,
      "dyna": 4889,
      "Sommet": 4890,
      "(\"": 4891,
      "52": 4892,
      "DÉ": 4893,
      "atri": 4894,
      "ues": 4895,
      "retrait": 4896,
      "lies": 4897,
      "détenus": 4898,
      "prolong": 4899,
      "appar": 4900,
      "appare": 4901,
      "distribu": 4902,
      "marge": 4903,
      "saur": 4904,
      "poste": 4905,
      "cains": 4906,
      "crédi": 4907,
      "estiment": 4908,
      "PESC": 4909,
      "possibles": 4910,
      "organisée": 4911,
      "durables": 4912,
      "ministéri": 4913,
      "ponses": 4914,
      "destinée": 4915,
      "modifié": 4916,
      "Marie": 4917,
      "fournies": 4918,
      "indépendante": 4919,
      "quater": 4920,
      "acceptable": 4921,
      "naturel": 4922,
      "embal": 4923,
      "graphiques": 4924,
      "ambiti": 4925,
      "burant": 4926,
      "Traité": 4927,
      "recevoir": 4928,
      "Médiateur": 4929,
      "PROPOSITION": 4930,
      "%,": 4931,
      "FI": 4932,
      "Gé": 4933,
      "Sans": 4934,
      "cents": 4935,
      "van": 4936,
      "confé": 4937,
      "débats": 4938,
      "réponses": 4939,
      "meilleurs": 4940,
      "fiables": 4941,
      "traiter": 4942,
      "solu": 4943,
      "interventions": 4944,
      "transactions": 4945,
      "Quels": 4946,
      "stabilisation": 4947,
      "principales": 4948,
      "tenues": 4949,
      "actuelles": 4950,
      "recherches": 4951,
      "territoires": 4952,
      "auront": 4953,
      "culturels": 4954,
      "disponible": 4955,
      "goure": 4956,
      "maritimes": 4957,
      "écologique": 4958,
      "figurent": 4959,
      "ministère": 4960,
      "souhaitent": 4961,
      "VIH": 4962,
      "compatible": 4963,
      "P6_TA": 4964,
      "inspection": 4965,
      "ajustement": 4966,
      "phénomène": 4967,
      "Votre": 4968,
      "Kosovo": 4969,
      "51": 4970,
      "81": 4971,
      "AU": 4972,
      "Dès": 4973,
      "Litu": 4974,
      "Mad": 4975,
      "Mol": 4976,
      "OLA": 4977,
      "dure": 4978,
      "reprise": 4979,
      "qual": 4980,
      "era": 4981,
      "départ": 4982,
      "civil": 4983,
      "ricains": 4984,
      "disposent": 4985,
      "aler": 4986,
      "appels": 4987,
      "bioci": 4988,
      "baisse": 4989,
      "génétiquement": 4990,
      "lantique": 4991,
      "répond": 4992,
      "DEC": 4993,
      "puisque": 4994,
      "limitée": 4995,
      "croiss": 4996,
      "maintenant": 4997,
      "établie": 4998,
      "effort": 4999,
      "relever": 5000,
      "condamne": 5001,
      "dépôt": 5002,
      "intitulé": 5003,
      "sept": 5004,
      "prisonniers": 5005,
      "validité": 5006,
      "combattre": 5007,
      "biocarburants": 5008,
      "pied": 5009,
      "Ab": 5010,
      "IE": 5011,
      "bal": 5012,
      "bois": 5013,
      "bande": 5014,
      "ole": 5015,
      "enz": 5016,
      "reconstruction": 5017,
      "audition": 5018,
      "polon": 5019,
      "taille": 5020,
      "restitu": 5021,
      "veut": 5022,
      "alco": 5023,
      "vig": 5024,
      "adressé": 5025,
      "ctivité": 5026,
      "irani": 5027,
      "règle": 5028,
      "plafond": 5029,
      "conclure": 5030,
      "alisés": 5031,
      "libres": 5032,
      "respectent": 5033,
      "défav": 5034,
      "offres": 5035,
      "piè": 5036,
      "régulation": 5037,
      "autorisée": 5038,
      "Tout": 5039,
      "abstentions": 5040,
      "soumises": 5041,
      "adéquat": 5042,
      "voisinage": 5043,
      "matériel": 5044,
      "sexuelle": 5045,
      "tarif": 5046,
      "concentration": 5047,
      "accomplis": 5048,
      "Journal": 5049,
      "Hongrie": 5050,
      "vingt": 5051,
      "pourcentage": 5052,
      "Lituanie": 5053,
      "011": 5054,
      "64": 5055,
      "At": 5056,
      "Bos": 5057,
      "Haut": 5058,
      "Rob": 5059,
      "danger": 5060,
      "gro": 5061,
      "hori": 5062,
      "spor": 5063,
      "vra": 5064,
      "vants": 5065,
      "èlement": 5066,
      "èdent": 5067,
      "én": 5068,
      "recru": 5069,
      "isla": 5070,
      "aul": 5071,
      "ceu": 5072,
      "dic": 5073,
      "chent": 5074,
      "portement": 5075,
      "excé": 5076,
      "comprendre": 5077,
      "comportement": 5078,
      "suc": 5079,
      "sucre": 5080,
      "command": 5081,
      "maceu": 5082,
      "licenci": 5083,
      "transposition": 5084,
      "bul": 5085,
      "développé": 5086,
      "crises": 5087,
      "faci": 5088,
      "tox": 5089,
      "toxi": 5090,
      "pressions": 5091,
      "ultra": 5092,
      "chargée": 5093,
      "diffus": 5094,
      "fédé": 5095,
      "signal": 5096,
      "norm": 5097,
      "Maroc": 5098,
      "essentielle": 5099,
      "sanction": 5100,
      "observation": 5101,
      "suffisante": 5102,
      "apprentis": 5103,
      "muler": 5104,
      "Poli": 5105,
      "Section": 5106,
      "petits": 5107,
      "instauration": 5108,
      "modèles": 5109,
      "physiques": 5110,
      "Corée": 5111,
      "accessibles": 5112,
      "brevets": 5113,
      "OSCE": 5114,
      "intermédiaire": 5115,
      "tchèque": 5116,
      "maximale": 5117,
      "Gaza": 5118,
      "(+": 5119,
      ")?": 5120,
      "53": 5121,
      "54": 5122,
      "500": 5123,
      "MA": 5124,
      "Pales": 5125,
      "bureau": 5126,
      "hn": 5127,
      "ly": 5128,
      "spec": 5129,
      "tandis": 5130,
      "án": 5131,
      "émet": 5132,
      "envers": 5133,
      "prati": 5134,
      "connus": 5135,
      "taxes": 5136,
      "réus": 5137,
      "restre": 5138,
      "restruct": 5139,
      "europa": 5140,
      "moti": 5141,
      "préparer": 5142,
      "obtenus": 5143,
      "interopéra": 5144,
      "ordinaire": 5145,
      "perç": 5146,
      "mix": 5147,
      "ficatif": 5148,
      "chefs": 5149,
      "intégra": 5150,
      "actif": 5151,
      "particuliers": 5152,
      "génération": 5153,
      "environnemental": 5154,
      "1996": 5155,
      "renforcée": 5156,
      "corpo": 5157,
      "placement": 5158,
      "limitation": 5159,
      "consultations": 5160,
      "appropriés": 5161,
      "populaire": 5162,
      "bénéficient": 5163,
      "régular": 5164,
      "peuples": 5165,
      "appelé": 5166,
      "satisfaire": 5167,
      "conseils": 5168,
      "qualifiée": 5169,
      "remplacer": 5170,
      "vérification": 5171,
      "villes": 5172,
      "contamin": 5173,
      "relèvent": 5174,
      "dépit": 5175,
      "fiscale": 5176,
      "ADLE": 5177,
      "annexes": 5178,
      "dangereuses": 5179,
      "similaires": 5180,
      "pluriannuel": 5181,
      "intéressées": 5182,
      "accélérer": 5183,
      "mouvement": 5184,
      "Premi": 5185,
      "planification": 5186,
      "prévoyant": 5187,
      "remboursement": 5188,
      "fermeture": 5189,
      "chinois": 5190,
      "israéli": 5191,
      "OLAF": 5192,
      "Bureau": 5193,
      "FA": 5194,
      "Japon": 5195,
      "ache": 5196,
      "mations": 5197,
      "mut": 5198,
      "nants": 5199,
      "odi": 5200,
      "otes": 5201,
      "vatoire": 5202,
      "émer": 5203,
      "titres": 5204,
      "anes": 5205,
      "revenu": 5206,
      "isi": 5207,
      "intement": 5208,
      "artis": 5209,
      "taxe": 5210,
      "restent": 5211,
      "ténu": 5212,
      "accu": 5213,
      "pourra": 5214,
      "ague": 5215,
      "rim": 5216,
      "forum": 5217,
      "mos": 5218,
      "mode": 5219,
      "atténu": 5220,
      "Parti": 5221,
      "menaces": 5222,
      "considérées": 5223,
      "latine": 5224,
      "adopte": 5225,
      "publiée": 5226,
      "assure": 5227,
      "criptions": 5228,
      "réduit": 5229,
      "Chris": 5230,
      "dépendance": 5231,
      "destination": 5232,
      "introduit": 5233,
      "ISSION": 5234,
      "affirmé": 5235,
      "satisfais": 5236,
      "sensibilisation": 5237,
      "propriéta": 5238,
      "transfrontalière": 5239,
      "outils": 5240,
      "cussion": 5241,
      "italienne": 5242,
      "espagnole": 5243,
      "Rome": 5244,
      "américain": 5245,
      "garantissant": 5246,
      "conscience": 5247,
      "AAAAAAAAAAAAAAAAAAAAAAAAAAAAAAAAAAAAAAAAAAAAAAAAAAAAAAAAAAAAAAAA": 5248,
      "influence": 5249,
      "correctement": 5250,
      "considérablement": 5251,
      "prioritaires": 5252,
      "tribunal": 5253,
      "LUTION": 5254,
      "COMMISSION": 5255,
      "démarche": 5256,
      "014": 5257,
      "72": 5258,
      "Bir": 5259,
      "CD": 5260,
      "Gali": 5261,
      "sco": 5262,
      "énumé": 5263,
      "ura": 5264,
      "urg": 5265,
      "armée": 5266,
      "destruction": 5267,
      "lières": 5268,
      "réf": 5269,
      "vivement": 5270,
      "néer": 5271,
      "fortement": 5272,
      "mater": 5273,
      "rappe": 5274,
      "imposer": 5275,
      "imposent": 5276,
      "avons": 5277,
      "2015": 5278,
      "socio": 5279,
      "intérim": 5280,
      "travailler": 5281,
      "faites": 5282,
      "assurant": 5283,
      "tell": 5284,
      "précède": 5285,
      "Anne": 5286,
      "défaut": 5287,
      "industries": 5288,
      "examine": 5289,
      "précises": 5290,
      "combin": 5291,
      "effectuées": 5292,
      "valoir": 5293,
      "central": 5294,
      "éventuellement": 5295,
      "futures": 5296,
      "défenseurs": 5297,
      "libération": 5298,
      "sensibles": 5299,
      "hypo": 5300,
      "signifie": 5301,
      "exprime": 5302,
      "diterranée": 5303,
      "dérogations": 5304,
      "Méditerranée": 5305,
      "habitants": 5306,
      "compensation": 5307,
      "intégrité": 5308,
      "connexion": 5309,
      "allégations": 5310,
      "SOLUTION": 5311,
      "rempl": 5312,
      "RÉSOLUTION": 5313,
      "dirigeants": 5314,
      "\";": 5315,
      ".,": 5316,
      "84": 5317,
      "Ti": 5318,
      "Tri": 5319,
      "ami": 5320,
      "br": 5321,
      "cop": 5322,
      "nis": 5323,
      "ologie": 5324,
      "pal": 5325,
      "vites": 5326,
      "ypte": 5327,
      "ève": 5328,
      "levée": 5329,
      "eté": 5330,
      "démi": 5331,
      "réexamen": 5332,
      "trent": 5333,
      "appréci": 5334,
      "comprenant": 5335,
      "positif": 5336,
      "visent": 5337,
      "log": 5338,
      "lone": 5339,
      "tolé": 5340,
      "élection": 5341,
      "1997": 5342,
      "différences": 5343,
      "industrielle": 5344,
      "investisseurs": 5345,
      "doute": 5346,
      "analys": 5347,
      "moyennes": 5348,
      "violences": 5349,
      "aériennes": 5350,
      "exclusivement": 5351,
      "évaluations": 5352,
      "engagée": 5353,
      "supérieure": 5354,
      "matériaux": 5355,
      "feuille": 5356,
      "géographique": 5357,
      "adresse": 5358,
      "territoriale": 5359,
      "répercussions": 5360,
      "Kyoto": 5361,
      "xyde": 5362,
      "provisoire": 5363,
      "déployés": 5364,
      "Certa": 5365,
      "Dane": 5366,
      "FIN": 5367,
      "èvement": 5368,
      "ête": 5369,
      "enh": 5370,
      "tiens": 5371,
      "lages": 5372,
      "reprises": 5373,
      "omb": 5374,
      "liaison": 5375,
      "réelle": 5376,
      "unités": 5377,
      "chés": 5378,
      "tront": 5379,
      "rid": 5380,
      "api": 5381,
      "précon": 5382,
      "discussions": 5383,
      "noci": 5384,
      "notation": 5385,
      "entité": 5386,
      "activement": 5387,
      "cultures": 5388,
      "conclus": 5389,
      "carburant": 5390,
      "alisme": 5391,
      "critiques": 5392,
      "uniforme": 5393,
      "souligner": 5394,
      "1990": 5395,
      "permettrait": 5396,
      "Projet": 5397,
      "Présidente": 5398,
      "participants": 5399,
      "courir": 5400,
      "autorisé": 5401,
      "sanitaires": 5402,
      "calcu": 5403,
      "arrêté": 5404,
      "Pakistan": 5405,
      "sommes": 5406,
      "allant": 5407,
      "conjointement": 5408,
      "détaillées": 5409,
      "aéroport": 5410,
      "significative": 5411,
      "fabricant": 5412,
      "automobi": 5413,
      "universel": 5414,
      "convaincu": 5415,
      "apprentissage": 5416,
      "Danemark": 5417,
      "BU": 5418,
      "Grou": 5419,
      "Justi": 5420,
      "cision": 5421,
      "fos": 5422,
      "ic": 5423,
      "égi": 5424,
      "sives": 5425,
      "duquel": 5426,
      "réun": 5427,
      "surface": 5428,
      "rien": 5429,
      "plant": 5430,
      "souci": 5431,
      "entreprendre": 5432,
      "trice": 5433,
      "étape": 5434,
      "concernent": 5435,
      "complet": 5436,
      "prie": 5437,
      "privées": 5438,
      "devoir": 5439,
      "thèse": 5440,
      "clage": 5441,
      "classi": 5442,
      "ariats": 5443,
      "précision": 5444,
      "contribuent": 5445,
      "réalisé": 5446,
      "pira": 5447,
      "effectuée": 5448,
      "officiellement": 5449,
      "meilleur": 5450,
      "multip": 5451,
      "complè": 5452,
      "engagés": 5453,
      "désigné": 5454,
      "côti": 5455,
      "trouvent": 5456,
      "genres": 5457,
      "chiffre": 5458,
      "dispositif": 5459,
      "relance": 5460,
      "prononcer": 5461,
      "convergence": 5462,
      "diminution": 5463,
      "raisonnable": 5464,
      "prestataires": 5465,
      "dérivés": 5466,
      "présidenti": 5467,
      "Croatie": 5468,
      "Justice": 5469,
      "016": 5470,
      "018": 5471,
      "AG": 5472,
      "Fé": 5473,
      "Hans": 5474,
      "Ju": 5475,
      "Mac": 5476,
      "Phi": 5477,
      "Res": 5478,
      "Sys": 5479,
      "Tél": 5480,
      "Zi": 5481,
      "ciné": 5482,
      "fla": 5483,
      "mag": 5484,
      "ours": 5485,
      "pacte": 5486,
      "îles": 5487,
      "enfin": 5488,
      "remar": 5489,
      "arres": 5490,
      "ratification": 5491,
      "dési": 5492,
      "dépla": 5493,
      "secrétariat": 5494,
      "riches": 5495,
      "suites": 5496,
      "commis": 5497,
      "avé": 5498,
      "aver": 5499,
      "distor": 5500,
      "former": 5501,
      "venant": 5502,
      "gratu": 5503,
      "gérer": 5504,
      "demandeurs": 5505,
      "élevées": 5506,
      "press": 5507,
      "ther": 5508,
      "organisé": 5509,
      "négatives": 5510,
      "1995": 5511,
      "cancer": 5512,
      "251": 5513,
      "administrations": 5514,
      "réalisée": 5515,
      "étrangers": 5516,
      "transparente": 5517,
      "éventuels": 5518,
      "somme": 5519,
      "accroissement": 5520,
      "électriques": 5521,
      "humanitaires": 5522,
      "ressort": 5523,
      "faibles": 5524,
      "récentes": 5525,
      "torture": 5526,
      "septi": 5527,
      "inclusion": 5528,
      "hongro": 5529,
      "salue": 5530,
      "délégués": 5531,
      "expliquer": 5532,
      "Irak": 5533,
      "souverain": 5534,
      "africaine": 5535,
      "OGM": 5536,
      "clô": 5537,
      "horizon": 5538,
      "ultrapériphé": 5539,
      "Phili": 5540,
      "019": 5541,
      "CC": 5542,
      "Stock": 5543,
      "Th": 5544,
      "aqu": 5545,
      "ader": 5546,
      "aéron": 5547,
      "gos": 5548,
      "hoc": 5549,
      "ore": 5550,
      "ppe": 5551,
      "psy": 5552,
      "wan": 5553,
      "lac": 5554,
      "laiti": 5555,
      "inég": 5556,
      "inond": 5557,
      "conque": 5558,
      "convenu": 5559,
      "déo": 5560,
      "révo": 5561,
      "provin": 5562,
      "chré": 5563,
      "agnes": 5564,
      "fixe": 5565,
      "rigoure": 5566,
      "fort": 5567,
      "mbab": 5568,
      "matri": 5569,
      "finale": 5570,
      "mobilisation": 5571,
      "aban": 5572,
      "absolu": 5573,
      "immatri": 5574,
      "accé": 5575,
      "marin": 5576,
      "fonte": 5577,
      "transat": 5578,
      "polici": 5579,
      "ctivement": 5580,
      "dents": 5581,
      "créé": 5582,
      "Obser": 5583,
      "législa": 5584,
      "bate": 5585,
      "plainte": 5586,
      "critique": 5587,
      "invité": 5588,
      "organiser": 5589,
      "suivante": 5590,
      "félic": 5591,
      "sign": 5592,
      "signature": 5593,
      "communiquer": 5594,
      "orale": 5595,
      "exigence": 5596,
      "déterminée": 5597,
      "technologiques": 5598,
      "décide": 5599,
      "télécommunications": 5600,
      "pénales": 5601,
      "espèce": 5602,
      "totalement": 5603,
      "fiscales": 5604,
      "conjointe": 5605,
      "ASP": 5606,
      "italien": 5607,
      "progressivement": 5608,
      "simplification": 5609,
      "campagnes": 5610,
      "monétaires": 5611,
      "palestinien": 5612,
      "diversi": 5613,
      "visibilité": 5614,
      "intégrante": 5615,
      "incombe": 5616,
      "prudence": 5617,
      "bancaire": 5618,
      "vaste": 5619,
      "recyclage": 5620,
      "croissante": 5621,
      "017": 5622,
      "Eu": 5623,
      "Lux": 5624,
      "OIT": 5625,
      "PN": 5626,
      "VE": 5627,
      "aci": 5628,
      "uels": 5629,
      "ía": 5630,
      "tié": 5631,
      "lever": 5632,
      "retraite": 5633,
      "revoir": 5634,
      "dul": 5635,
      "lieux": 5636,
      "défi": 5637,
      "révé": 5638,
      "proli": 5639,
      "tration": 5640,
      "apparti": 5641,
      "ada": 5642,
      "adjudi": 5643,
      "teneur": 5644,
      "lénaire": 5645,
      "pacifique": 5646,
      "mines": 5647,
      "consistant": 5648,
      "considérables": 5649,
      "satell": 5650,
      "nutri": 5651,
      "entièrement": 5652,
      "nelles": 5653,
      "plaintes": 5654,
      "pressé": 5655,
      "lancé": 5656,
      "thon": 5657,
      "certaine": 5658,
      "constitutionnelles": 5659,
      "définie": 5660,
      "textes": 5661,
      "partenariats": 5662,
      "obligatoires": 5663,
      "million": 5664,
      "effectif": 5665,
      "turc": 5666,
      "espère": 5667,
      "précisément": 5668,
      "arrêtées": 5669,
      "compagnie": 5670,
      "culturelles": 5671,
      "complément": 5672,
      "complémentaire": 5673,
      "explicite": 5674,
      "délégations": 5675,
      "conformer": 5676,
      "ovine": 5677,
      "Europol": 5678,
      "hauteur": 5679,
      "preuves": 5680,
      "acquisition": 5681,
      "éliminer": 5682,
      "déploi": 5683,
      "aéroports": 5684,
      "étroitement": 5685,
      "attente": 5686,
      "allemande": 5687,
      "brevet": 5688,
      "certificat": 5689,
      "appartenant": 5690,
      "pertinents": 5691,
      "interopérabilité": 5692,
      "Luxemb": 5693,
      "%.": 5694,
      "Aus": 5695,
      "Cu": 5696,
      "Pé": 5697,
      "Site": 5698,
      "VM": 5699,
      "couverture": 5700,
      "gènes": 5701,
      "hol": 5702,
      "lise": 5703,
      "pesti": 5704,
      "var": 5705,
      "del": 5706,
      "sifs": 5707,
      "congé": 5708,
      "dudit": 5709,
      "tements": 5710,
      "celone": 5711,
      "résident": 5712,
      "répression": 5713,
      "dification": 5714,
      "plur": 5715,
      "cos": 5716,
      "drogues": 5717,
      "guer": 5718,
      "poss": 5719,
      "bilatéraux": 5720,
      "cats": 5721,
      "renouvel": 5722,
      "oyen": 5723,
      "istres": 5724,
      "carburants": 5725,
      "indication": 5726,
      "crime": 5727,
      "pêcheurs": 5728,
      "tienne": 5729,
      "représentante": 5730,
      "texti": 5731,
      "contributions": 5732,
      "And": 5733,
      "défendre": 5734,
      "modifiés": 5735,
      "appliquée": 5736,
      "participant": 5737,
      "indiquant": 5738,
      "offer": 5739,
      "voyag": 5740,
      "suffisant": 5741,
      "suffisantes": 5742,
      "respectées": 5743,
      "MENT": 5744,
      "discriminations": 5745,
      "sujets": 5746,
      "primés": 5747,
      "futurs": 5748,
      "identifier": 5749,
      "médicament": 5750,
      "officielle": 5751,
      "réserves": 5752,
      "bases": 5753,
      "correspondant": 5754,
      "minimal": 5755,
      "manifestations": 5756,
      "Barcelone": 5757,
      "étudiants": 5758,
      "landaise": 5759,
      "................................................................": 5760,
      "délivrance": 5761,
      "employés": 5762,
      "espagnol": 5763,
      "Roms": 5764,
      "américaine": 5765,
      "performances": 5766,
      "nagement": 5767,
      "religieuses": 5768,
      "Doha": 5769,
      "STO": 5770,
      "ophob": 5771,
      "clarifier": 5772,
      "Prix": 5773,
      "déficit": 5774,
      "cellules": 5775,
      "immunité": 5776,
      "Néanmoins": 5777,
      "Premier": 5778,
      "inondations": 5779,
      "Luxembourg": 5780,
      "015": 5781,
      ":(": 5782,
      "Ale": 5783,
      "Bri": 5784,
      "Cas": 5785,
      "SIS": 5786,
      "Tunis": 5787,
      "Voir": 5788,
      "ail": 5789,
      "euses": 5790,
      "gène": 5791,
      "orer": 5792,
      "tants": 5793,
      "ende": 5794,
      "tidi": 5795,
      "iso": 5796,
      "quin": 5797,
      "ertion": 5798,
      "arch": 5799,
      "sida": 5800,
      "rage": 5801,
      "orgi": 5802,
      "orgie": 5803,
      "proposés": 5804,
      "profonde": 5805,
      "aggra": 5806,
      "fili": 5807,
      "exposés": 5808,
      "expressé": 5809,
      "mail": 5810,
      "insertion": 5811,
      "mén": 5812,
      "immobi": 5813,
      "discu": 5814,
      "distance": 5815,
      "tests": 5816,
      "Parmi": 5817,
      "listes": 5818,
      "considérés": 5819,
      "produire": 5820,
      "davie": 5821,
      "financées": 5822,
      "financés": 5823,
      "rendu": 5824,
      "chercheurs": 5825,
      "stat": 5826,
      "assurances": 5827,
      "spéciale": 5828,
      "fération": 5829,
      "signa": 5830,
      "gestionnaires": 5831,
      "initiale": 5832,
      "essai": 5833,
      "traitements": 5834,
      "incendi": 5835,
      "fournie": 5836,
      "voyage": 5837,
      "Recommand": 5838,
      "aérienne": 5839,
      "coup": 5840,
      "ambi": 5841,
      "Barro": 5842,
      "précédentes": 5843,
      "seuls": 5844,
      "genre": 5845,
      "distinction": 5846,
      "principale": 5847,
      "Balk": 5848,
      "diploma": 5849,
      "blanc": 5850,
      "redevances": 5851,
      "renseignements": 5852,
      "saurait": 5853,
      "Moldavie": 5854,
      "qualit": 5855,
      "aquac": 5856,
      "accéder": 5857,
      "Observatoire": 5858,
      "pesticides": 5859,
      "expressément": 5860,
      "APE": 5861,
      "Cop": 5862,
      "EF": 5863,
      "Hau": 5864,
      "JU": 5865,
      "Let": 5866,
      "Pr": 5867,
      "RTE": 5868,
      "éradi": 5869,
      "recueil": 5870,
      "istent": 5871,
      "omali": 5872,
      "confron": 5873,
      "orisation": 5874,
      "démarch": 5875,
      "sexe": 5876,
      "tait": 5877,
      "tabilité": 5878,
      "restaur": 5879,
      "procur": 5880,
      "allo": 5881,
      "foresti": 5882,
      "mesur": 5883,
      "composé": 5884,
      "inscription": 5885,
      "instance": 5886,
      "admission": 5887,
      "attitude": 5888,
      "fondées": 5889,
      "emprison": 5890,
      "jeux": 5891,
      "nergie": 5892,
      "utiles": 5893,
      "entier": 5894,
      "rencont": 5895,
      "prescriptions": 5896,
      "indications": 5897,
      "spécific": 5898,
      "subs": 5899,
      "lèvement": 5900,
      "1992": 5901,
      "connaître": 5902,
      "compétents": 5903,
      "suspension": 5904,
      "fixation": 5905,
      "neté": 5906,
      "respecte": 5907,
      "Décision": 5908,
      "réguliers": 5909,
      "Eurostat": 5910,
      "ancien": 5911,
      "quotidi": 5912,
      "Serbie": 5913,
      "municip": 5914,
      "ampleur": 5915,
      "concept": 5916,
      "modern": 5917,
      "rectificatif": 5918,
      "Genève": 5919,
      "ministérielle": 5920,
      "Géorgie": 5921,
      "défavoris": 5922,
      "Birmanie": 5923,
      "Fédération": 5924,
      "prolifération": 5925,
      "Nat": 5926,
      "Pi": 5927,
      "Ren": 5928,
      "Sit": 5929,
      "Van": 5930,
      "VII": 5931,
      "gents": 5932,
      "masse": 5933,
      "nations": 5934,
      "nord": 5935,
      "rets": 5936,
      "concours": 5937,
      "livre": 5938,
      "désé": 5939,
      "réci": 5940,
      "réfle": 5941,
      "trouv": 5942,
      "vivant": 5943,
      "train": 5944,
      "instances": 5945,
      "sépar": 5946,
      "soumise": 5947,
      "milieu": 5948,
      "titulaire": 5949,
      "sociation": 5950,
      "issus": 5951,
      "post": 5952,
      "nomin": 5953,
      "bilatéra": 5954,
      "élevage": 5955,
      "constitutionnel": 5956,
      "critère": 5957,
      "Procé": 5958,
      "législatifs": 5959,
      "seuil": 5960,
      "associés": 5961,
      "exploitant": 5962,
      "ingrédi": 5963,
      "effectué": 5964,
      "mentionnés": 5965,
      "embar": 5966,
      "totalité": 5967,
      "expériences": 5968,
      "formulées": 5969,
      "881": 5970,
      "prêt": 5971,
      "simplifier": 5972,
      "obstacle": 5973,
      "coordonner": 5974,
      "Texte": 5975,
      "stimuler": 5976,
      "pétition": 5977,
      "web": 5978,
      "ryth": 5979,
      "histoire": 5980,
      "Manuel": 5981,
      "salariés": 5982,
      "Politique": 5983,
      "vitesse": 5984,
      "enhague": 5985,
      "Zimbab": 5986,
      "Balkans": 5987,
      "Copenhague": 5988,
      "démarches": 5989,
      "020": 5990,
      "Deux": 5991,
      "Fe": 5992,
      "GI": 5993,
      "Péti": 5994,
      "RT": 5995,
      "Vers": 5996,
      "XX": 5997,
      "cter": 5998,
      "gère": 5999,
      "lor": 6000,
      "rité": 6001,
      "vont": 6002,
      "vacc": 6003,
      "éman": 6004,
      "envelop": 6005,
      "tine": 6006,
      "tiendra": 6007,
      "lable": 6008,
      "rez": 6009,
      "indu": 6010,
      "incorpo": 6011,
      "prestation": 6012,
      "rable": 6013,
      "ougos": 6014,
      "divul": 6015,
      "poursui": 6016,
      "surveiller": 6017,
      "plantes": 6018,
      "comporter": 6019,
      "imposées": 6020,
      "avancement": 6021,
      "mineurs": 6022,
      "transmis": 6023,
      "garder": 6024,
      "nels": 6025,
      "répondu": 6026,
      "Communi": 6027,
      "huit": 6028,
      "négative": 6029,
      "gestionnaire": 6030,
      "suppri": 6031,
      "fera": 6032,
      "administratif": 6033,
      "investi": 6034,
      "fournissent": 6035,
      "piration": 6036,
      "sanitaire": 6037,
      "observateurs": 6038,
      "remplir": 6039,
      "causes": 6040,
      "analyser": 6041,
      "élargie": 6042,
      "accepter": 6043,
      "pénal": 6044,
      "inquiétude": 6045,
      "proportionnalité": 6046,
      "contenues": 6047,
      "prévoient": 6048,
      "légiférer": 6049,
      "consacré": 6050,
      "New": 6051,
      "énoncées": 6052,
      "énoncés": 6053,
      "universités": 6054,
      "affectés": 6055,
      "élaboré": 6056,
      "composants": 6057,
      "routier": 6058,
      "routière": 6059,
      "médicaux": 6060,
      "apparaît": 6061,
      "linguistique": 6062,
      "dignité": 6063,
      "déséqui": 6064,
      "ougosla": 6065,
      "Kon": 6066,
      "MO": 6067,
      "Min": 6068,
      "PL": 6069,
      "Pacte": 6070,
      "Plus": 6071,
      "Straté": 6072,
      "lancement": 6073,
      "pav": 6074,
      "émis": 6075,
      "épi": 6076,
      "écou": 6077,
      "requi": 6078,
      "autri": 6079,
      "sel": 6080,
      "partant": 6081,
      "récu": 6082,
      "unanim": 6083,
      "viabilité": 6084,
      "terdam": 6085,
      "porteurs": 6086,
      "inscrits": 6087,
      "méde": 6088,
      "auto": 6089,
      "imparti": 6090,
      "importa": 6091,
      "passer": 6092,
      "consens": 6093,
      "décès": 6094,
      "légal": 6095,
      "montrent": 6096,
      "contrepartie": 6097,
      "faill": 6098,
      "plate": 6099,
      "vénie": 6100,
      "échelon": 6101,
      "estimations": 6102,
      "claires": 6103,
      "périodi": 6104,
      "généralement": 6105,
      "réduite": 6106,
      "réductions": 6107,
      "mondiaux": 6108,
      "réglementations": 6109,
      "recomman": 6110,
      "recouv": 6111,
      "exploiter": 6112,
      "déterminé": 6113,
      "compléter": 6114,
      "contacts": 6115,
      "entraîne": 6116,
      "FEM": 6117,
      "manifest": 6118,
      "anciens": 6119,
      "chacune": 6120,
      "catastrophe": 6121,
      "rappelé": 6122,
      "Finlande": 6123,
      "consolidation": 6124,
      "affecter": 6125,
      "considérable": 6126,
      "moitié": 6127,
      "Syrie": 6128,
      "poissons": 6129,
      "Slovénie": 6130,
      "dégradation": 6131,
      "Institut": 6132,
      "restructuration": 6133,
      "satisfaisante": 6134,
      "Syst": 6135,
      "cinéma": 6136,
      "septième": 6137,
      "province": 6138,
      "Situation": 6139,
      "réflexion": 6140,
      "autrichi": 6141,
      "unanimité": 6142,
      "consensus": 6143,
      "DR": 6144,
      "Fr": 6145,
      "Moyen": 6146,
      "bran": 6147,
      "cis": 6148,
      "gens": 6149,
      "kis": 6150,
      "lundi": 6151,
      "od": 6152,
      "opo": 6153,
      "rté": 6154,
      "tante": 6155,
      "çons": 6156,
      "……": 6157,
      "oné": 6158,
      "til": 6159,
      "reb": 6160,
      "retirer": 6161,
      "refonte": 6162,
      "erait": 6163,
      "ilo": 6164,
      "parler": 6165,
      "référ": 6166,
      "option": 6167,
      "ditions": 6168,
      "aspect": 6169,
      "fiant": 6170,
      "mach": 6171,
      "sols": 6172,
      "admissi": 6173,
      "impu": 6174,
      "lisées": 6175,
      "miques": 6176,
      "servir": 6177,
      "just": 6178,
      "versés": 6179,
      "thème": 6180,
      "clarté": 6181,
      "médiateur": 6182,
      "alisé": 6183,
      "DER": 6184,
      "subordon": 6185,
      "renforçant": 6186,
      "stand": 6187,
      "Ins": 6188,
      "justification": 6189,
      "Année": 6190,
      "Mardi": 6191,
      "appliqué": 6192,
      "facul": 6193,
      "seules": 6194,
      "inciter": 6195,
      "indépendamment": 6196,
      "fournis": 6197,
      "fournissant": 6198,
      "autorisations": 6199,
      "accorde": 6200,
      "navigation": 6201,
      "orientale": 6202,
      "dioxyde": 6203,
      "élargi": 6204,
      "sauv": 6205,
      "International": 6206,
      "expériment": 6207,
      "outil": 6208,
      "permanente": 6209,
      "préoccupation": 6210,
      "côté": 6211,
      "transferts": 6212,
      "étendue": 6213,
      "annex": 6214,
      "reconnue": 6215,
      "indispensables": 6216,
      "cruci": 6217,
      "rappelant": 6218,
      "avancées": 6219,
      "mauvaise": 6220,
      "externes": 6221,
      "Égypte": 6222,
      "loyale": 6223,
      "consultatif": 6224,
      "alcool": 6225,
      "spectre": 6226,
      "analyses": 6227,
      "récipro": 6228,
      "CS": 6229,
      "NI": 6230,
      "Nom": 6231,
      "PT": 6232,
      "Pos": 6233,
      "Sak": 6234,
      "cen": 6235,
      "cure": 6236,
      "clan": 6237,
      "dt": 6238,
      "foo": 6239,
      "km": 6240,
      "ling": 6241,
      "nº": 6242,
      "nour": 6243,
      "oles": 6244,
      "zy": 6245,
      "épo": 6246,
      "élu": 6247,
      "école": 6248,
      "isté": 6249,
      "quar": 6250,
      "ettre": 6251,
      "liti": 6252,
      "lige": 6253,
      "dém": 6254,
      "secrétaire": 6255,
      "illon": 6256,
      "prot": 6257,
      "usagers": 6258,
      "vidéo": 6259,
      "forma": 6260,
      "adhé": 6261,
      "tendant": 6262,
      "image": 6263,
      "vols": 6264,
      "irrégular": 6265,
      "compen": 6266,
      "salaire": 6267,
      "quelconque": 6268,
      "procédé": 6269,
      "phra": 6270,
      "15h00": 6271,
      "durabilité": 6272,
      "formel": 6273,
      "vieil": 6274,
      "effectifs": 6275,
      "assassin": 6276,
      "Protocole": 6277,
      "équipement": 6278,
      "exécutif": 6279,
      "débou": 6280,
      "continent": 6281,
      "facteur": 6282,
      "associer": 6283,
      "réalisées": 6284,
      "douze": 6285,
      "atteintes": 6286,
      "évolutions": 6287,
      "fusion": 6288,
      "ajouter": 6289,
      "conseiller": 6290,
      "quantita": 6291,
      "FED": 6292,
      "confirmé": 6293,
      "grecques": 6294,
      "refuser": 6295,
      "stipu": 6296,
      "traduction": 6297,
      "Bern": 6298,
      "indemnisation": 6299,
      "revêt": 6300,
      "ethnique": 6301,
      "attire": 6302,
      "fruits": 6303,
      "arbitra": 6304,
      "accumu": 6305,
      "rappeler": 6306,
      "ultrapériphériques": 6307,
      "adjudica": 6308,
      "déploiement": 6309,
      "Recommandation": 6310,
      "(«": 6311,
      "110": 6312,
      "ASE": 6313,
      "Activités": 6314,
      "Et": 6315,
      "Gra": 6316,
      "GRA": 6317,
      "Homm": 6318,
      "Ja": 6319,
      "Mes": 6320,
      "Paul": 6321,
      "UL": 6322,
      "bure": 6323,
      "ball": 6324,
      "gel": 6325,
      "grès": 6326,
      "mité": 6327,
      "pire": 6328,
      "slo": 6329,
      "vabilité": 6330,
      "ya": 6331,
      "ôte": 6332,
      "ôts": 6333,
      "reti": 6334,
      "remise": 6335,
      "requise": 6336,
      "istiques": 6337,
      "ares": 6338,
      "détru": 6339,
      "accue": 6340,
      "mains": 6341,
      "mann": 6342,
      "ates": 6343,
      "avère": 6344,
      "soumet": 6345,
      "souterra": 6346,
      "dissement": 6347,
      "marqu": 6348,
      "marque": 6349,
      "volet": 6350,
      "gui": 6351,
      "légale": 6352,
      "devait": 6353,
      "utilisant": 6354,
      "land": 6355,
      "assurée": 6356,
      "aménagement": 6357,
      "chargées": 6358,
      "chargés": 6359,
      "définit": 6360,
      "soulignent": 6361,
      "TAN": 6362,
      "infe": 6363,
      "contraintes": 6364,
      "rapporte": 6365,
      "corps": 6366,
      "justifie": 6367,
      "milliers": 6368,
      "milliard": 6369,
      "exemp": 6370,
      "inclus": 6371,
      "animal": 6372,
      "observe": 6373,
      "conduit": 6374,
      "accordé": 6375,
      "Association": 6376,
      "échéance": 6377,
      "pensions": 6378,
      "achèvement": 6379,
      "explique": 6380,
      "468": 6381,
      "tâche": 6382,
      "préservation": 6383,
      "existante": 6384,
      "compatibles": 6385,
      "garantissent": 6386,
      "Maria": 6387,
      "Malte": 6388,
      "Elles": 6389,
      "pilotes": 6390,
      "tendance": 6391,
      "P7_TA": 6392,
      "rapprochement": 6393,
      "Norvè": 6394,
      "vétérinaire": 6395,
      "historique": 6396,
      "polonais": 6397,
      "vigil": 6398,
      "Tunisie": 6399,
      "Zimbabwe": 6400,
      "Stratégie": 6401,
      "récupé": 6402,
      "clandesti": 6403,
      "Norvège": 6404,
      "'\"": 6405,
      "Clau": 6406,
      "San": 6407,
      "Sar": 6408,
      "Val": 6409,
      "caus": 6410,
      "hou": 6411,
      "hard": 6412,
      "mme": 6413,
      "nan": 6414,
      "rants": 6415,
      "tché": 6416,
      "ïn": 6417,
      "devi": 6418,
      "recourir": 6419,
      "ino": 6420,
      "ordi": 6421,
      "virement": 6422,
      "aph": 6423,
      "comportant": 6424,
      "abro": 6425,
      "trième": 6426,
      "étapes": 6427,
      "décen": 6428,
      "concertation": 6429,
      "logement": 6430,
      "informés": 6431,
      "antil": 6432,
      "élevée": 6433,
      "bains": 6434,
      "153": 6435,
      "joue": 6436,
      "jouent": 6437,
      "intégrées": 6438,
      "investir": 6439,
      "Protection": 6440,
      "retards": 6441,
      "participent": 6442,
      "voies": 6443,
      "quatrième": 6444,
      "longtemps": 6445,
      "accordées": 6446,
      "continuent": 6447,
      "prenantes": 6448,
      "Tous": 6449,
      "primaire": 6450,
      "disponibilité": 6451,
      "capitale": 6452,
      "structurelles": 6453,
      "Eurojust": 6454,
      "sixième": 6455,
      "attendre": 6456,
      "APP": 6457,
      "ferroviaires": 6458,
      "envisagées": 6459,
      "superfici": 6460,
      "française": 6461,
      "disparités": 6462,
      "neuf": 6463,
      "confidentialité": 6464,
      "harmonisées": 6465,
      "fabricants": 6466,
      "évidence": 6467,
      "polluants": 6468,
      "citoyenneté": 6469,
      "électorale": 6470,
      "PHS": 6471,
      "urbain": 6472,
      "combustibles": 6473,
      "demeurent": 6474,
      "strictes": 6475,
      "assumer": 6476,
      "pièces": 6477,
      "tarifaires": 6478,
      "intérimaire": 6479,
      "automobile": 6480,
      "aquaculture": 6481,
      "Pétition": 6482,
      "Homme": 6483,
      ")).": 6484,
      "013": 6485,
      "Ave": 6486,
      "Cath": 6487,
      "Em": 6488,
      "OPC": 6489,
      "SD": 6490,
      "Sal": 6491,
      "io": 6492,
      "senti": 6493,
      "tôt": 6494,
      "»?": 6495,
      "urgent": 6496,
      "ledit": 6497,
      "quinqui": 6498,
      "parfois": 6499,
      "résu": 6500,
      "réparation": 6501,
      "aie": 6502,
      "fient": 6503,
      "expiration": 6504,
      "comprennent": 6505,
      "mélan": 6506,
      "atmos": 6507,
      "Contr": 6508,
      "obtention": 6509,
      "souples": 6510,
      "disproportion": 6511,
      "notion": 6512,
      "accré": 6513,
      "UEN": 6514,
      "licence": 6515,
      "loin": 6516,
      "2014": 6517,
      "considérer": 6518,
      "considérations": 6519,
      "céré": 6520,
      "égal": 6521,
      "productivité": 6522,
      "secret": 6523,
      "substitution": 6524,
      "améliorations": 6525,
      "justifier": 6526,
      "mercure": 6527,
      "fermement": 6528,
      "Anna": 6529,
      "Ceci": 6530,
      "bilis": 6531,
      "fixée": 6532,
      "pilier": 6533,
      "juridiquement": 6534,
      "bénéficiaire": 6535,
      "autorisées": 6536,
      "tonie": 6537,
      "arrêter": 6538,
      "valorisation": 6539,
      "primordi": 6540,
      "penser": 6541,
      "officielles": 6542,
      "fiscal": 6543,
      "informent": 6544,
      "écosystèmes": 6545,
      "couvre": 6546,
      "mobiles": 6547,
      "dommage": 6548,
      "envisagé": 6549,
      "russes": 6550,
      "semaines": 6551,
      "seconde": 6552,
      "allemand": 6553,
      "équivalent": 6554,
      "correcte": 6555,
      "britanniques": 6556,
      "inspections": 6557,
      "alloués": 6558,
      "systématiquement": 6559,
      "prévisions": 6560,
      "privilégi": 6561,
      "bye": 6562,
      "favorables": 6563,
      "dynamique": 6564,
      "Robert": 6565,
      "côtières": 6566,
      "Lettonie": 6567,
      "foot": 6568,
      "phrase": 6569,
      "quinquies": 6570,
      "AM": 6571,
      "Avant": 6572,
      "Déch": 6573,
      "Er": 6574,
      "Eri": 6575,
      "Ger": 6576,
      "OTAN": 6577,
      "bet": 6578,
      "clu": 6579,
      "fret": 6580,
      "habilité": 6581,
      "sin": 6582,
      "yp": 6583,
      "ètre": 6584,
      "ón": 6585,
      "analo": 6586,
      "erine": 6587,
      "intemps": 6588,
      "argu": 6589,
      "auteurs": 6590,
      "contenus": 6591,
      "contiennent": 6592,
      "parcours": 6593,
      "proche": 6594,
      "chy": 6595,
      "témoi": 6596,
      "ack": 6597,
      "acquit": 6598,
      "cesse": 6599,
      "mestre": 6600,
      "teneurs": 6601,
      "portés": 6602,
      "discussion": 6603,
      "présentés": 6604,
      "présentées": 6605,
      "perpé": 6606,
      "votes": 6607,
      "transmet": 6608,
      "dol": 6609,
      "autorise": 6610,
      "publier": 6611,
      "respectivement": 6612,
      "carte": 6613,
      "échantil": 6614,
      "prendra": 6615,
      "PE4": 6616,
      "Commiss": 6617,
      "charbon": 6618,
      "anglais": 6619,
      "Informations": 6620,
      "contractu": 6621,
      "concurrenti": 6622,
      "Sui": 6623,
      "éventuel": 6624,
      "Paolo": 6625,
      "Libye": 6626,
      "satisf": 6627,
      "reflè": 6628,
      "qualifiés": 6629,
      "régulier": 6630,
      "spécifiquement": 6631,
      "potentiels": 6632,
      "engagé": 6633,
      "entraîné": 6634,
      "appuy": 6635,
      "commissaires": 6636,
      "rejets": 6637,
      "progressive": 6638,
      "employeurs": 6639,
      "tarifs": 6640,
      "définitive": 6641,
      "définitions": 6642,
      "douanière": 6643,
      "sérieux": 6644,
      "autonome": 6645,
      "Soudan": 6646,
      "approfondie": 6647,
      "substantielle": 6648,
      "combustible": 6649,
      "musul": 6650,
      "juris": 6651,
      "inscrire": 6652,
      "renvoyé": 6653,
      "compréhension": 6654,
      "renouvellement": 6655,
      "Procédure": 6656,
      "bureaux": 6657,
      "vigilance": 6658,
      "Catherine": 6659,
      "OPCVM": 6660,
      "112": 6661,
      "AF": 6662,
      "DH": 6663,
      "DT": 6664,
      "Dar": 6665,
      "Fer": 6666,
      "Gr": 6667,
      "Hel": 6668,
      "Mc": 6669,
      "Ru": 6670,
      "cab": 6671,
      "ctées": 6672,
      "gag": 6673,
      "oit": 6674,
      "tré": 6675,
      "vendre": 6676,
      "leo": 6677,
      "lets": 6678,
      "enta": 6679,
      "entendu": 6680,
      "iner": 6681,
      "intra": 6682,
      "pous": 6683,
      "mentale": 6684,
      "illicite": 6685,
      "cht": 6686,
      "comit": 6687,
      "préten": 6688,
      "autour": 6689,
      "Étaient": 6690,
      "aval": 6691,
      "dissu": 6692,
      "versement": 6693,
      "marins": 6694,
      "interdis": 6695,
      "interrog": 6696,
      "ordres": 6697,
      "voter": 6698,
      "cadres": 6699,
      "rendus": 6700,
      "Obje": 6701,
      "applications": 6702,
      "stable": 6703,
      "domes": 6704,
      "thèmes": 6705,
      "assurent": 6706,
      "inviter": 6707,
      "constitué": 6708,
      "premiers": 6709,
      "1994": 6710,
      "stan": 6711,
      "contract": 6712,
      "représenter": 6713,
      "contribué": 6714,
      "ferme": 6715,
      "intégré": 6716,
      "suspen": 6717,
      "Proche": 6718,
      "fondamentale": 6719,
      "SEAE": 6720,
      "Pourquoi": 6721,
      "regret": 6722,
      "associé": 6723,
      "client": 6724,
      "augmenté": 6725,
      "Fondation": 6726,
      "librement": 6727,
      "bénéficie": 6728,
      "tonou": 6729,
      "éventail": 6730,
      "passent": 6731,
      "biologiques": 6732,
      "opérateur": 6733,
      "Cotonou": 6734,
      "tempéra": 6735,
      "inquiétudes": 6736,
      "appuyer": 6737,
      "situés": 6738,
      "précédente": 6739,
      "Mich": 6740,
      "comparaison": 6741,
      "fournisseur": 6742,
      "russe": 6743,
      "définitif": 6744,
      "faudrait": 6745,
      "intermédiaires": 6746,
      "méditerranéen": 6747,
      "ultérieure": 6748,
      "Européens": 6749,
      "ethniques": 6750,
      "Canada": 6751,
      "bénéfice": 6752,
      "aboutir": 6753,
      "ambitieux": 6754,
      "Bosnie": 6755,
      "toxiques": 6756,
      "atténuer": 6757,
      "souveraineté": 6758,
      "inégalités": 6759,
      "Cuba": 6760,
      "Barroso": 6761,
      "JURI": 6762,
      "Natura": 6763,
      "ingrédients": 6764,
      "chypri": 6765,
      "jurisprudence": 6766,
      "Ams": 6767,
      "Côte": 6768,
      "Echange": 6769,
      "Mise": 6770,
      "PAR": 6771,
      "The": 6772,
      "bert": 6773,
      "clin": 6774,
      "djan": 6775,
      "hos": 6776,
      "ij": 6777,
      "rite": 6778,
      "ste": 6779,
      "test": 6780,
      "xén": 6781,
      "ena": 6782,
      "demment": 6783,
      "ray": 6784,
      "proches": 6785,
      "proxim": 6786,
      "chir": 6787,
      "surmon": 6788,
      "nier": 6789,
      "portug": 6790,
      "apportée": 6791,
      "apportées": 6792,
      "comités": 6793,
      "combien": 6794,
      "commises": 6795,
      "préven": 6796,
      "puissance": 6797,
      "Congo": 6798,
      "sémin": 6799,
      "pédi": 6800,
      "obs": 6801,
      "entretien": 6802,
      "minorité": 6803,
      "drogue": 6804,
      "intergouvernement": 6805,
      "vola": 6806,
      "chec": 6807,
      "mené": 6808,
      "salaires": 6809,
      "produisent": 6810,
      "renon": 6811,
      "contrefaçon": 6812,
      "suivie": 6813,
      "109": 6814,
      "clauses": 6815,
      "spéciaux": 6816,
      "spécifications": 6817,
      "capable": 6818,
      "olf": 6819,
      "inflation": 6820,
      "précau": 6821,
      "OCDE": 6822,
      "introductive": 6823,
      "confront": 6824,
      "conducteurs": 6825,
      "circu": 6826,
      "ouvements": 6827,
      "construire": 6828,
      "constaté": 6829,
      "symb": 6830,
      "jeunesse": 6831,
      "accepté": 6832,
      "John": 6833,
      "remplacement": 6834,
      "saison": 6835,
      "formule": 6836,
      "désignation": 6837,
      "Islande": 6838,
      "institutionnelle": 6839,
      "pétroliers": 6840,
      "compatibilité": 6841,
      "habitu": 6842,
      "géographiques": 6843,
      "voulu": 6844,
      "diverg": 6845,
      "similaire": 6846,
      "évident": 6847,
      "majeure": 6848,
      "écart": 6849,
      "poisson": 6850,
      "commencé": 6851,
      "audiovisuel": 6852,
      "flotte": 6853,
      "édoine": 6854,
      "parallèlement": 6855,
      "antérieures": 6856,
      "appareils": 6857,
      "biocides": 6858,
      "vrai": 6859,
      "Galileo": 6860,
      "démie": 6861,
      "Macédoine": 6862,
      "psycho": 6863,
      "voyageurs": 6864,
      "enveloppe": 6865,
      "accueille": 6866,
      "marquage": 6867,
      "football": 6868,
      "Amsterdam": 6869,
      "xénophob": 6870,
      "proximité": 6871,
      "portugais": 6872,
      "EG": 6873,
      "Ivoire": 6874,
      "Jus": 6875,
      "PS": 6876,
      "Peter": 6877,
      "Ter": 6878,
      "VIII": 6879,
      "[…": 6880,
      "bloc": 6881,
      "fal": 6882,
      "fact": 6883,
      "gle": 6884,
      "mouvements": 6885,
      "échec": 6886,
      "îtr": 6887,
      "œu": 6888,
      "enri": 6889,
      "anche": 6890,
      "insu": 6891,
      "itt": 6892,
      "arme": 6893,
      "armement": 6894,
      "détri": 6895,
      "détéri": 6896,
      "proté": 6897,
      "proto": 6898,
      "prospé": 6899,
      "chet": 6900,
      "ténég": 6901,
      "expul": 6902,
      "codi": 6903,
      "cofinancement": 6904,
      "suédo": 6905,
      "impossible": 6906,
      "impéra": 6907,
      "péril": 6908,
      "soumission": 6909,
      "voté": 6910,
      "égale": 6911,
      "monn": 6912,
      "ventes": 6913,
      "Entre": 6914,
      "verser": 6915,
      "itiné": 6916,
      "engend": 6917,
      "militants": 6918,
      "charte": 6919,
      "manipu": 6920,
      "négatifs": 6921,
      "1993": 6922,
      "problé": 6923,
      "respectant": 6924,
      "partenaire": 6925,
      "permette": 6926,
      "talité": 6927,
      "lablement": 6928,
      "nécessairement": 6929,
      "résulte": 6930,
      "Répon": 6931,
      "Martin": 6932,
      "localisation": 6933,
      "heureusement": 6934,
      "exploitants": 6935,
      "exploitations": 6936,
      "douane": 6937,
      "personnelles": 6938,
      "Suite": 6939,
      "précisé": 6940,
      "banque": 6941,
      "harov": 6942,
      "respecté": 6943,
      "exclure": 6944,
      "éduca": 6945,
      "adaptées": 6946,
      "cinqui": 6947,
      "sensiblement": 6948,
      "transfrontalières": 6949,
      "rejeté": 6950,
      "attaques": 6951,
      "comparables": 6952,
      "coordonnée": 6953,
      "revanche": 6954,
      "Monténég": 6955,
      "palestiniens": 6956,
      "palestinienne": 6957,
      "ratifier": 6958,
      "bâtiment": 6959,
      "chimique": 6960,
      "université": 6961,
      "transitoire": 6962,
      "dossiers": 6963,
      "RULES": 6964,
      "suggère": 6965,
      "prestataire": 6966,
      "autonomie": 6967,
      "PARA": 6968,
      "bénéfices": 6969,
      "travailleur": 6970,
      "Mercredi": 6971,
      "oiseaux": 6972,
      "Millénaire": 6973,
      "alerte": 6974,
      "Palestini": 6975,
      "arrestation": 6976,
      "pluralisme": 6977,
      "modernisation": 6978,
      "pavillon": 6979,
      "Système": 6980,
      "Sakharov": 6981,
      "vieillissement": 6982,
      "souterraines": 6983,
      "Monténégro": 6984,
      "BIS": 6985,
      "Elis": 6986,
      "Mex": 6987,
      "Soci": 6988,
      "alig": 6989,
      "ek": 6990,
      "ili": 6991,
      "ns": 6992,
      "spati": 6993,
      "vac": 6994,
      "wa": 6995,
      "espé": 6996,
      "onie": 6997,
      "time": 6998,
      "printemps": 6999,
      "nez": 7000,
      "neur": 7001,
      "contes": 7002,
      "ork": 7003,
      "démontre": 7004,
      "démontré": 7005,
      "tax": 7006,
      "réit": 7007,
      "prop": 7008,
      "options": 7009,
      "itées": 7010,
      "séparation": 7011,
      "soup": 7012,
      "disposée": 7013,
      "présu": 7014,
      "décret": 7015,
      "entière": 7016,
      "financé": 7017,
      "TER": 7018,
      "rendement": 7019,
      "publiées": 7020,
      "presque": 7021,
      "travaillent": 7022,
      "invitée": 7023,
      "résolu": 7024,
      "définissant": 7025,
      "LEMENT": 7026,
      "respectés": 7027,
      "joué": 7028,
      "destina": 7029,
      "assister": 7030,
      "suspend": 7031,
      "modifiées": 7032,
      "natures": 7033,
      "Auc": 7034,
      "exemption": 7035,
      "Mark": 7036,
      "appliqués": 7037,
      "industriels": 7038,
      "registres": 7039,
      "transparent": 7040,
      "discriminatoire": 7041,
      "constater": 7042,
      "petit": 7043,
      "qualification": 7044,
      "BER": 7045,
      "collè": 7046,
      "hygi": 7047,
      "engagées": 7048,
      "appuie": 7049,
      "encourageant": 7050,
      "américaines": 7051,
      "dépasse": 7052,
      "individuels": 7053,
      "affectation": 7054,
      "massive": 7055,
      "impliquant": 7056,
      "légitime": 7057,
      "seuropéen": 7058,
      "prioritaire": 7059,
      "Peut": 7060,
      "bancaires": 7061,
      "choisir": 7062,
      "lourds": 7063,
      "approuvée": 7064,
      "Slova": 7065,
      "discipline": 7066,
      "intensifier": 7067,
      "belge": 7068,
      "habilitation": 7069,
      "recrutement": 7070,
      "normalisation": 7071,
      "tolérance": 7072,
      "présidentielles": 7073,
      "avertis": 7074,
      "clôture": 7075,
      "explicitement": 7076,
      "holm": 7077,
      "incendies": 7078,
      "médec": 7079,
      "irrégularités": 7080,
      "cinquième": 7081,
      "Mexique": 7082,
      "Ala": 7083,
      "CM": 7084,
      "Lan": 7085,
      "Lundi": 7086,
      "NL": 7087,
      "RDC": 7088,
      "Sous": 7089,
      "],": 7090,
      "bor": 7091,
      "dres": 7092,
      "irait": 7093,
      "jon": 7094,
      "pages": 7095,
      "tí": 7096,
      "tun": 7097,
      "yan": 7098,
      "»)": 7099,
      "esse": 7100,
      "ene": 7101,
      "reconnus": 7102,
      "erba": 7103,
      "arabe": 7104,
      "sible": 7105,
      "rale": 7106,
      "quement": 7107,
      "parents": 7108,
      "ciel": 7109,
      "chasse": 7110,
      "ellé": 7111,
      "poursuites": 7112,
      "exac": 7113,
      "comman": 7114,
      "maîtr": 7115,
      "motif": 7116,
      "cernant": 7117,
      "Concernant": 7118,
      "soutenu": 7119,
      "soufre": 7120,
      "discours": 7121,
      "noter": 7122,
      "licences": 7123,
      "formés": 7124,
      "transporteurs": 7125,
      "006": 7126,
      "demandant": 7127,
      "Environ": 7128,
      "CO2": 7129,
      "ulent": 7130,
      "englob": 7131,
      "photo": 7132,
      "fémin": 7133,
      "centaines": 7134,
      "soulignant": 7135,
      "puisqu": 7136,
      "jouets": 7137,
      "existent": 7138,
      "directes": 7139,
      "Anton": 7140,
      "dites": 7141,
      "assent": 7142,
      "intégrés": 7143,
      "intérieure": 7144,
      "oraires": 7145,
      "résistance": 7146,
      "seuils": 7147,
      "associées": 7148,
      "coordin": 7149,
      "Débat": 7150,
      "approuver": 7151,
      "ham": 7152,
      "passation": 7153,
      "Pacifique": 7154,
      "terroriste": 7155,
      "Position": 7156,
      "satisfait": 7157,
      "acceptation": 7158,
      "volontaires": 7159,
      "favorisant": 7160,
      "sollic": 7161,
      "permanence": 7162,
      "confirme": 7163,
      "illégales": 7164,
      "annonce": 7165,
      "difficulté": 7166,
      "ancienne": 7167,
      "souhaitable": 7168,
      "accompagné": 7169,
      "grecs": 7170,
      "grecque": 7171,
      "Estonie": 7172,
      "minimale": 7173,
      "concrète": 7174,
      "sièges": 7175,
      "équitables": 7176,
      "transeuropéen": 7177,
      "immédiate": 7178,
      ".../": 7179,
      "iii": 7180,
      "classe": 7181,
      "agrément": 7182,
      "visible": 7183,
      "religieux": 7184,
      "munitions": 7185,
      "homo": 7186,
      "fondément": 7187,
      "racisme": 7188,
      "PHE": 7189,
      "multilatérales": 7190,
      "rétablir": 7191,
      "équilibrée": 7192,
      "alternatives": 7193,
      "assorti": 7194,
      "occidentaux": 7195,
      "intelligente": 7196,
      "prolongation": 7197,
      "propriétaires": 7198,
      "Certains": 7199,
      "Stockholm": 7200,
      "immatriculation": 7201,
      "appartient": 7202,
      "rythme": 7203,
      "Instru": 7204,
      "élargir": 7205,
      "GRAPHE": 7206,
      "Mesures": 7207,
      "Avec": 7208,
      "dollar": 7209,
      "satisfaction": 7210,
      "comitologie": 7211,
      "détriment": 7212,
      "PARAGRAPHE": 7213,
      "Palestiniens": 7214,
      "réitère": 7215,
      "suspendre": 7216,
      "'«": 7217,
      "EX": 7218,
      "Ini": 7219,
      "Mu": 7220,
      "NU": 7221,
      "Noire": 7222,
      "RO": 7223,
      "cœ": 7224,
      "ed": 7225,
      "gas": 7226,
      "gros": 7227,
      "idé": 7228,
      "kin": 7229,
      "pir": 7230,
      "salle": 7231,
      "yeux": 7232,
      "ïdjan": 7233,
      "entrent": 7234,
      "reprendre": 7235,
      "dessous": 7236,
      "déte": 7237,
      "déposé": 7238,
      "tagne": 7239,
      "parfaite": 7240,
      "répres": 7241,
      "réviser": 7242,
      "veulent": 7243,
      "profondément": 7244,
      "division": 7245,
      "chron": 7246,
      "subi": 7247,
      "moteurs": 7248,
      "absor": 7249,
      "abrog": 7250,
      "immig": 7251,
      "interconnexion": 7252,
      "pertur": 7253,
      "gravement": 7254,
      "comptables": 7255,
      "sachant": 7256,
      "produites": 7257,
      "devaient": 7258,
      "développés": 7259,
      "nécessite": 7260,
      "gares": 7261,
      "décisionnel": 7262,
      "ignent": 7263,
      "risquent": 7264,
      "affron": 7265,
      "répondent": 7266,
      "alistes": 7267,
      "criti": 7268,
      "unilatéra": 7269,
      "signatures": 7270,
      "station": 7271,
      "contribuant": 7272,
      "négocier": 7273,
      "label": 7274,
      "routiers": 7275,
      "pair": 7276,
      "Martí": 7277,
      "gare": 7278,
      "professions": 7279,
      "bénéficié": 7280,
      "régulateurs": 7281,
      "reconnaissant": 7282,
      "introduite": 7283,
      "examinée": 7284,
      "suffisants": 7285,
      "atteints": 7286,
      "OMD": 7287,
      "mentionné": 7288,
      "détaill": 7289,
      "achet": 7290,
      "exercée": 7291,
      "sensible": 7292,
      "graphie": 7293,
      "inquiète": 7294,
      "statistique": 7295,
      "détaillée": 7296,
      "trouvé": 7297,
      "reconnues": 7298,
      "CIG": 7299,
      "conscient": 7300,
      "conversion": 7301,
      "provoqué": 7302,
      "Baltique": 7303,
      "opportunité": 7304,
      "mantèlement": 7305,
      "enregistrés": 7306,
      "élève": 7307,
      "complexe": 7308,
      "complexes": 7309,
      "syndi": 7310,
      "tribunaux": 7311,
      "additionnel": 7312,
      "externe": 7313,
      "pharmaceu": 7314,
      "incitation": 7315,
      "abattage": 7316,
      "Forum": 7317,
      "bruit": 7318,
      "Sécurité": 7319,
      "adéquates": 7320,
      "mixte": 7321,
      "FAO": 7322,
      "néerlandais": 7323,
      "FINAL": 7324,
      "Groupe": 7325,
      "bateaux": 7326,
      "diversification": 7327,
      "complémentarité": 7328,
      "Alex": 7329,
      "municipalité": 7330,
      "émanant": 7331,
      "causés": 7332,
      "abrogeant": 7333,
      "chypriote": 7334,
      "prospérité": 7335,
      "Slovaquie": 7336,
      "Az": 7337,
      "Alors": 7338,
      "Bro": 7339,
      "Hay": 7340,
      "Lut": 7341,
      "Memb": 7342,
      "Nig": 7343,
      "Plan": 7344,
      "Tché": 7345,
      "TFUE": 7346,
      "fasse": 7347,
      "fassent": 7348,
      "iden": 7349,
      "ot": 7350,
      "sages": 7351,
      "ÉG": 7352,
      "Échange": 7353,
      "éro": 7354,
      "écla": 7355,
      "devenu": 7356,
      "uré": 7357,
      "urbains": 7358,
      "lai": 7359,
      "report": 7360,
      "incer": 7361,
      "ingé": 7362,
      "prun": 7363,
      "proro": 7364,
      "description": 7365,
      "simul": 7366,
      "rad": 7367,
      "tale": 7368,
      "opèrent": 7369,
      "meur": 7370,
      "trom": 7371,
      "cessions": 7372,
      "vivent": 7373,
      "préco": 7374,
      "abeth": 7375,
      "attirer": 7376,
      "immigrants": 7377,
      "positifs": 7378,
      "payer": 7379,
      "interval": 7380,
      "fondés": 7381,
      "décentra": 7382,
      "irlandais": 7383,
      "emprun": 7384,
      "titulaires": 7385,
      "CER": 7386,
      "donnent": 7387,
      "donateurs": 7388,
      "Quand": 7389,
      "versées": 7390,
      "respectu": 7391,
      "domin": 7392,
      "concrets": 7393,
      "alisée": 7394,
      "traitées": 7395,
      "institutionnelles": 7396,
      "inflig": 7397,
      "rapporteurs": 7398,
      "Présent": 7399,
      "établissent": 7400,
      "permettront": 7401,
      "relativement": 7402,
      "suscité": 7403,
      "retar": 7404,
      "croissant": 7405,
      "Marco": 7406,
      "currence": 7407,
      "occupés": 7408,
      "quasi": 7409,
      "débattu": 7410,
      "Délég": 7411,
      "évolu": 7412,
      "enquêter": 7413,
      "MES": 7414,
      "chiment": 7415,
      "solide": 7416,
      "OMS": 7417,
      "simplement": 7418,
      "satisfont": 7419,
      "reflé": 7420,
      "erreur": 7421,
      "potentiellement": 7422,
      "formulation": 7423,
      "Autres": 7424,
      "condamnation": 7425,
      "restrictives": 7426,
      "reçoivent": 7427,
      "accompagnée": 7428,
      "résidant": 7429,
      "simplifiée": 7430,
      "Micha": 7431,
      "mobile": 7432,
      "traduire": 7433,
      "Service": 7434,
      "extraordinaire": 7435,
      "PCP": 7436,
      "temporaires": 7437,
      "Lui": 7438,
      "supervision": 7439,
      "maximal": 7440,
      "informel": 7441,
      "disparition": 7442,
      "légitimité": 7443,
      "exceptionnelles": 7444,
      "harmonisée": 7445,
      "Franç": 7446,
      "Herz": 7447,
      "artifici": 7448,
      "wski": 7449,
      "écrites": 7450,
      "portuaires": 7451,
      "familiale": 7452,
      "crédibilité": 7453,
      "islamique": 7454,
      "Haute": 7455,
      "référendu": 7456,
      "rapporteure": 7457,
      "Michel": 7458,
      "précaution": 7459,
      "confrontés": 7460,
      "monnaie": 7461,
      "hygiène": 7462,
      "erbaïdjan": 7463,
      "030": 7464,
      "Ac": 7465,
      "Dan": 7466,
      "PD": 7467,
      "Pu": 7468,
      "Pas": 7469,
      "TRA": 7470,
      "VIS": 7471,
      "XE": 7472,
      "adul": 7473,
      "béta": 7474,
      "borg": 7475,
      "hô": 7476,
      "id": 7477,
      "ica": 7478,
      "ld": 7479,
      "lou": 7480,
      "mère": 7481,
      "ttes": 7482,
      "usement": 7483,
      "èle": 7484,
      "èges": 7485,
      "émettre": 7486,
      "devient": 7487,
      "inacceptable": 7488,
      "prenne": 7489,
      "auv": 7490,
      "lia": 7491,
      "démantèlement": 7492,
      "param": 7493,
      "réel": 7494,
      "répé": 7495,
      "réuni": 7496,
      "pros": 7497,
      "changer": 7498,
      "acquise": 7499,
      "assa": 7500,
      "usines": 7501,
      "fiable": 7502,
      "vivants": 7503,
      "codes": 7504,
      "mobiliser": 7505,
      "préférences": 7506,
      "prélèvement": 7507,
      "attra": 7508,
      "entrepren": 7509,
      "Unies": 7510,
      "micycle": 7511,
      "déclen": 7512,
      "appauv": 7513,
      "issons": 7514,
      "légalité": 7515,
      "bler": 7516,
      "utilise": 7517,
      "cata": 7518,
      "incidents": 7519,
      "tentative": 7520,
      "importés": 7521,
      "suivent": 7522,
      "150": 7523,
      "générations": 7524,
      "oly": 7525,
      "fonctionner": 7526,
      "régler": 7527,
      "angle": 7528,
      "précitée": 7529,
      "conviction": 7530,
      "différenci": 7531,
      "aisons": 7532,
      "industrialisés": 7533,
      "contin": 7534,
      "piles": 7535,
      "arrêtée": 7536,
      "discriminatoires": 7537,
      "majeurs": 7538,
      "officiels": 7539,
      "syner": 7540,
      "multiples": 7541,
      "Johan": 7542,
      "détails": 7543,
      "livraison": 7544,
      "régulière": 7545,
      "Charles": 7546,
      "huile": 7547,
      "fiscaux": 7548,
      "conjoint": 7549,
      "troupes": 7550,
      "délivré": 7551,
      "renouvelable": 7552,
      "couvertes": 7553,
      "incluant": 7554,
      "Mario": 7555,
      "laisser": 7556,
      "ratifié": 7557,
      "bunal": 7558,
      "opinions": 7559,
      "affectées": 7560,
      "envoyé": 7561,
      "mauvais": 7562,
      "blanchiment": 7563,
      "incitations": 7564,
      "Budg": 7565,
      "optimis": 7566,
      "intéressés": 7567,
      "œuvrer": 7568,
      "éligibles": 7569,
      "emballage": 7570,
      "contamination": 7571,
      "Tribunal": 7572,
      "appréciation": 7573,
      "préconise": 7574,
      "classification": 7575,
      "laitiers": 7576,
      "transatlantique": 7577,
      "satellite": 7578,
      "quinze": 7579,
      "éradication": 7580,
      "quotidien": 7581,
      "Communication": 7582,
      "requiert": 7583,
      "compenser": 7584,
      "tchénie": 7585,
      "entamer": 7586,
      "PARLEMENT": 7587,
      "cliniques": 7588,
      "surmonter": 7589,
      "Initi": 7590,
      "cœur": 7591,
      "Tchétchénie": 7592,
      "\"),": 7593,
      "Cré": 7594,
      "Cap": 7595,
      "Har": 7596,
      "Jac": 7597,
      "MAR": 7598,
      "SK": 7599,
      "Son": 7600,
      "Ste": 7601,
      "Somali": 7602,
      "Ta": 7603,
      "To": 7604,
      "Tro": 7605,
      "Ul": 7606,
      "alar": 7607,
      "hali": 7608,
      "nante": 7609,
      "pit": 7610,
      "papi": 7611,
      "rise": 7612,
      "rang": 7613,
      "sc": 7614,
      "top": 7615,
      "île": 7616,
      "ômes": 7617,
      "espo": 7618,
      "demi": 7619,
      "reven": 7620,
      "regrou": 7621,
      "repose": 7622,
      "indirectement": 7623,
      "siles": 7624,
      "raf": 7625,
      "rages": 7626,
      "orise": 7627,
      "limin": 7628,
      "réellement": 7629,
      "prolon": 7630,
      "diagno": 7631,
      "acteur": 7632,
      "sures": 7633,
      "opérant": 7634,
      "agres": 7635,
      "vivre": 7636,
      "composés": 7637,
      "moindre": 7638,
      "préfér": 7639,
      "Congrès": 7640,
      "avoc": 7641,
      "itement": 7642,
      "rève": 7643,
      "marques": 7644,
      "consente": 7645,
      "communique": 7646,
      "transfé": 7647,
      "gén": 7648,
      "égovine": 7649,
      "ouvertes": 7650,
      "adoptant": 7651,
      "1989": 7652,
      "crée": 7653,
      "jugé": 7654,
      "tissus": 7655,
      "publiés": 7656,
      "assuré": 7657,
      "échap": 7658,
      "affai": 7659,
      "média": 7660,
      "156": 7661,
      "chats": 7662,
      "néglig": 7663,
      "participé": 7664,
      "justifié": 7665,
      "Andre": 7666,
      "démocratisation": 7667,
      "administratifs": 7668,
      "annuelles": 7669,
      "industrielles": 7670,
      "indiquent": 7671,
      "offrant": 7672,
      "Suisse": 7673,
      "précisant": 7674,
      "originaires": 7675,
      "Dévelop": 7676,
      "ting": 7677,
      "élabore": 7678,
      "rendent": 7679,
      "Toutes": 7680,
      "Liban": 7681,
      "collective": 7682,
      "protégées": 7683,
      "petite": 7684,
      "livres": 7685,
      "basé": 7686,
      "compétitive": 7687,
      "Alban": 7688,
      "ITRE": 7689,
      "ANNE": 7690,
      "experti": 7691,
      "désigner": 7692,
      "hautement": 7693,
      "restriction": 7694,
      "avion": 7695,
      "reçoit": 7696,
      "couvrant": 7697,
      "encouragement": 7698,
      "Vice": 7699,
      "Caraï": 7700,
      "coordonnées": 7701,
      "Existe": 7702,
      "dépasser": 7703,
      "CIA": 7704,
      "accessibilité": 7705,
      "touchés": 7706,
      "recev": 7707,
      "maco": 7708,
      "enregistré": 7709,
      "Francis": 7710,
      "attribuer": 7711,
      "douanières": 7712,
      "sérieusement": 7713,
      "électoral": 7714,
      "aborder": 7715,
      "linguistiques": 7716,
      "rétablissement": 7717,
      "équilibré": 7718,
      "automatique": 7719,
      "œuvres": 7720,
      "facilement": 7721,
      "lacunes": 7722,
      "EFSA": 7723,
      "Princi": 7724,
      "Frances": 7725,
      "accrédit": 7726,
      "Déchar": 7727,
      "Commissaire": 7728,
      "Jusqu": 7729,
      "[…]": 7730,
      "Environnement": 7731,
      "Haye": 7732,
      "Présentation": 7733,
      "Herzégovine": 7734,
      "espoir": 7735,
      "préférenti": 7736,
      "avocat": 7737,
      "ANNEXE": 7738,
      "Ali": 7739,
      "CF": 7740,
      "Cau": 7741,
      "Dim": 7742,
      "Fron": 7743,
      "FSE": 7744,
      "FMI": 7745,
      "GB": 7746,
      "Ken": 7747,
      "Mus": 7748,
      "ND": 7749,
      "Nouvel": 7750,
      "OD": 7751,
      "Pres": 7752,
      "RC": 7753,
      "So": 7754,
      "Te": 7755,
      "US": 7756,
      "citer": 7757,
      "fas": 7758,
      "gner": 7759,
      "kg": 7760,
      "voient": 7761,
      "za": 7762,
      "âgés": 7763,
      "éloi": 7764,
      "êtes": 7765,
      "ession": 7766,
      "indési": 7767,
      "détour": 7768,
      "semestre": 7769,
      "parent": 7770,
      "répan": 7771,
      "récents": 7772,
      "réhabilitation": 7773,
      "fiabilité": 7774,
      "exhaus": 7775,
      "colon": 7776,
      "trains": 7777,
      "inspec": 7778,
      "mobilis": 7779,
      "préjudici": 7780,
      "abu": 7781,
      "abon": 7782,
      "ato": 7783,
      "partiellement": 7784,
      "ordin": 7785,
      "décr": 7786,
      "volati": 7787,
      "menés": 7788,
      "priva": 7789,
      "prisons": 7790,
      "ieux": 7791,
      "nul": 7792,
      "antici": 7793,
      "ders": 7794,
      "personnelle": 7795,
      "juges": 7796,
      "ignor": 7797,
      "effici": 7798,
      "particules": 7799,
      "cherche": 7800,
      "domici": 7801,
      "cartes": 7802,
      "captures": 7803,
      "constituant": 7804,
      "souscrit": 7805,
      "connaît": 7806,
      "renforcé": 7807,
      "communiquées": 7808,
      "joint": 7809,
      "différence": 7810,
      "exécuter": 7811,
      "industriel": 7812,
      "turques": 7813,
      "gmentation": 7814,
      "enfre": 7815,
      "inclut": 7816,
      "efforce": 7817,
      "indépendantes": 7818,
      "offrent": 7819,
      "introduites": 7820,
      "quête": 7821,
      "Délai": 7822,
      "arrêtés": 7823,
      "ajoute": 7824,
      "mentionnées": 7825,
      "électrom": 7826,
      "cohérent": 7827,
      "basée": 7828,
      "soldats": 7829,
      "individus": 7830,
      "Améli": 7831,
      "radiodiffusion": 7832,
      "incluent": 7833,
      "filles": 7834,
      "indicatif": 7835,
      "accessible": 7836,
      "touchant": 7837,
      "équivalentes": 7838,
      "Modification": 7839,
      "légitimes": 7840,
      "RULE": 7841,
      "rembours": 7842,
      "radic": 7843,
      "dégag": 7844,
      "méditerranéens": 7845,
      "salu": 7846,
      "pharmaco": 7847,
      "limitées": 7848,
      "certificats": 7849,
      "strictement": 7850,
      "ciblées": 7851,
      "migrations": 7852,
      "afférents": 7853,
      "SPG": 7854,
      "emballages": 7855,
      "complètes": 7856,
      "distorsions": 7857,
      "hongroise": 7858,
      "chrétiens": 7859,
      "absolue": 7860,
      "cosmé": 7861,
      "textiles": 7862,
      "allocation": 7863,
      "défavorisées": 7864,
      "Kong": 7865,
      "manifestants": 7866,
      "litiges": 7867,
      "stipule": 7868,
      "protocoles": 7869,
      "codifiée": 7870,
      "Alain": 7871,
      "Martínez": 7872,
      "syndicats": 7873,
      "Niger": 7874,
      "simultan": 7875,
      "synergies": 7876,
      "affaib": 7877,
      "Caraïbes": 7878,
      "Décharge": 7879,
      "120": 7880,
      "218": 7881,
      "498": 7882,
      "Brési": 7883,
      "CR": 7884,
      "Code": 7885,
      "EA": 7886,
      "Face": 7887,
      "Gö": 7888,
      "Gol": 7889,
      "Kla": 7890,
      "Lou": 7891,
      "LÉG": 7892,
      "Mas": 7893,
      "__": 7894,
      "bri": 7895,
      "dang": 7896,
      "kil": 7897,
      "mans": 7898,
      "ny": 7899,
      "pure": 7900,
      "sation": 7901,
      "tus": 7902,
      "onale": 7903,
      "lah": 7904,
      "refu": 7905,
      "rat": 7906,
      "rats": 7907,
      "cevoir": 7908,
      "secours": 7909,
      "réactions": 7910,
      "réaffir": 7911,
      "récol": 7912,
      "und": 7913,
      "cie": 7914,
      "agné": 7915,
      "riers": 7916,
      "viti": 7917,
      "tering": 7918,
      "exprimer": 7919,
      "message": 7920,
      "instar": 7921,
      "insisté": 7922,
      "tut": 7923,
      "admis": 7924,
      "tensions": 7925,
      "préfé": 7926,
      "imposition": 7927,
      "disposant": 7928,
      "entrepris": 7929,
      "mineur": 7930,
      "Paris": 7931,
      "présentes": 7932,
      "constante": 7933,
      "005": 7934,
      "venti": 7935,
      "doné": 7936,
      "persécu": 7937,
      "ouverts": 7938,
      "versaire": 7939,
      "concentrer": 7940,
      "risti": 7941,
      "alisées": 7942,
      "néglige": 7943,
      "fédération": 7944,
      "signer": 7945,
      "signés": 7946,
      "réduits": 7947,
      "suppose": 7948,
      "250": 7949,
      "démographique": 7950,
      "impôt": 7951,
      "implications": 7952,
      "résulter": 7953,
      "instructions": 7954,
      "Rése": 7955,
      "Combien": 7956,
      "exécutions": 7957,
      "exemples": 7958,
      "turque": 7959,
      "nettement": 7960,
      "favorise": 7961,
      "débattre": 7962,
      "excède": 7963,
      "arrête": 7964,
      "continuité": 7965,
      "denrée": 7966,
      "LATI": 7967,
      "satisfaisant": 7968,
      "Espace": 7969,
      "préparations": 7970,
      "harmoniser": 7971,
      "informatique": 7972,
      "saisir": 7973,
      "écologiques": 7974,
      "condamné": 7975,
      "Coopération": 7976,
      "transfrontalier": 7977,
      "figurer": 7978,
      "illégal": 7979,
      "illégaux": 7980,
      "côtes": 7981,
      "attaque": 7982,
      "découle": 7983,
      "Giov": 7984,
      "procède": 7985,
      "envisagée": 7986,
      "Nice": 7987,
      "touchées": 7988,
      "concentrations": 7989,
      "influen": 7990,
      "religieuse": 7991,
      "Outre": 7992,
      "adéquats": 7993,
      "opérationnelles": 7994,
      "ELDR": 7995,
      "inférieure": 7996,
      "prudenti": 7997,
      "traditionnels": 7998,
      "phénomènes": 7999,
      "déroulement": 8000,
      "susmentionnées": 8001,
      "excessif": 8002,
      "sectorielle": 8003,
      "insérer": 8004,
      "Agenda": 8005,
      "vétérinaires": 8006,
      "favorablement": 8007,
      "toxicom": 8008,
      "réussi": 8009,
      "AAAAAAAAAAAAAAAAAAAAAAAAAAAAAAAAAAAAAAAAAAAAAAAAAAAAAAAAAAAAAAAAAAAAAAAAAAAAAAAAAAAAAAAAAAAAAAAAAAAAAAAAAAAAAAAAAAAAAAAAAAAAAAAA": 8010,
      "brut": 8011,
      "plantation": 8012,
      "législateur": 8013,
      "possèdent": 8014,
      "spécificités": 8015,
      "faculta": 8016,
      "sauvages": 8017,
      "souplesse": 8018,
      "reflète": 8019,
      "température": 8020,
      "Instrument": 8021,
      "immigrés": 8022,
      "précoce": 8023,
      "paramètres": 8024,
      "halieu": 8025,
      "consentement": 8026,
      "expertise": 8027,
      "accréditation": 8028,
      "électromagné": 8029,
      "Brésil": 8030,
      "dangers": 8031,
      "9h00": 8032,
      "Ap": 8033,
      "Gran": 8034,
      "HO": 8035,
      "Io": 8036,
      "JAI": 8037,
      "LO": 8038,
      "Lar": 8039,
      "Lond": 8040,
      "Mê": 8041,
      "Mor": 8042,
      "Maur": 8043,
      "SCH": 8044,
      "Wat": 8045,
      "bres": 8046,
      "barri": 8047,
      "ffic": 8048,
      "faus": 8049,
      "gl": 8050,
      "gri": 8051,
      "gna": 8052,
      "iop": 8053,
      "lence": 8054,
      "lons": 8055,
      "loir": 8056,
      "ml": 8057,
      "nari": 8058,
      "odo": 8059,
      "panne": 8060,
      "tête": 8061,
      "ukra": 8062,
      "âts": 8063,
      "épar": 8064,
      "…/": 8065,
      "encla": 8066,
      "ley": 8067,
      "levées": 8068,
      "lables": 8069,
      "lauré": 8070,
      "repris": 8071,
      "itales": 8072,
      "prouver": 8073,
      "oub": 8074,
      "oun": 8075,
      "lière": 8076,
      "dépar": 8077,
      "détent": 8078,
      "défaill": 8079,
      "sexes": 8080,
      "répu": 8081,
      "réassurance": 8082,
      "réexaminer": 8083,
      "réagir": 8084,
      "réconciliation": 8085,
      "proposent": 8086,
      "chance": 8087,
      "trente": 8088,
      "pourtant": 8089,
      "poursuivi": 8090,
      "fir": 8091,
      "nique": 8092,
      "exposé": 8093,
      "tradition": 8094,
      "insta": 8095,
      "inspire": 8096,
      "finalement": 8097,
      "modu": 8098,
      "sécur": 8099,
      "sécher": 8100,
      "pées": 8101,
      "avo": 8102,
      "décisi": 8103,
      "titudes": 8104,
      "primes": 8105,
      "autorou": 8106,
      "légales": 8107,
      "légalement": 8108,
      "nuit": 8109,
      "case": 8110,
      "pondé": 8111,
      "104": 8112,
      "occurrence": 8113,
      "TIONS": 8114,
      "opérationnelle": 8115,
      "américains": 8116,
      "actionnaires": 8117,
      "............": 8118,
      "1991": 8119,
      "angla": 8120,
      "sortir": 8121,
      "175": 8122,
      "justifiée": 8123,
      "labora": 8124,
      "impunité": 8125,
      "Régi": 8126,
      "Réunion": 8127,
      "routes": 8128,
      "équipe": 8129,
      "équipes": 8130,
      "María": 8131,
      "hier": 8132,
      "tionnellement": 8133,
      "consulter": 8134,
      "netto": 8135,
      "piliers": 8136,
      "courte": 8137,
      "courage": 8138,
      "bénéficiant": 8139,
      "suffit": 8140,
      "harmaceu": 8141,
      "ACH": 8142,
      "remplies": 8143,
      "adaptés": 8144,
      "PORT": 8145,
      "facilitant": 8146,
      "mortalité": 8147,
      "précédemment": 8148,
      "humanité": 8149,
      "informatiques": 8150,
      "phytop": 8151,
      "Schmi": 8152,
      "sexies": 8153,
      "conserver": 8154,
      "fiscalité": 8155,
      "accompagner": 8156,
      "refusé": 8157,
      "Carlos": 8158,
      "consacrée": 8159,
      "légumes": 8160,
      "individuelle": 8161,
      "milieux": 8162,
      "transitoires": 8163,
      "homolo": 8164,
      "connexes": 8165,
      "confidentiel": 8166,
      "enregistrées": 8167,
      "volont": 8168,
      "accomplissement": 8169,
      "audiovisuels": 8170,
      "migratoires": 8171,
      "Colom": 8172,
      "conçus": 8173,
      "encouragent": 8174,
      "adressée": 8175,
      "bulgares": 8176,
      "réflé": 8177,
      "maternité": 8178,
      "diplomatiques": 8179,
      "restauration": 8180,
      "ougoslave": 8181,
      "branches": 8182,
      "époque": 8183,
      "démons": 8184,
      "assassinat": 8185,
      "Darfour": 8186,
      "Luigi": 8187,
      "référendum": 8188,
      "Somalie": 8189,
      "Londres": 8190,
      "ukraini": 8191,
      "phytopharmaceu": 8192,
      "AES": 8193,
      "B5": 8194,
      "BAT": 8195,
      "Dou": 8196,
      "Dani": 8197,
      "Davi": 8198,
      "FS": 8199,
      "Jeux": 8200,
      "Os": 8201,
      "PP": 8202,
      "QU": 8203,
      "We": 8204,
      "Wi": 8205,
      "Wil": 8206,
      "alablement": 8207,
      "bures": 8208,
      "blin": 8209,
      "cite": 8210,
      "ding": 8211,
      "ier": 8212,
      "odu": 8213,
      "rons": 8214,
      "ski": 8215,
      "xité": 8216,
      "yage": 8217,
      "ôles": 8218,
      "oni": 8219,
      "deur": 8220,
      "urani": 8221,
      "laisse": 8222,
      "rea": 8223,
      "repos": 8224,
      "remettre": 8225,
      "isé": 8226,
      "armés": 8227,
      "omasse": 8228,
      "omètres": 8229,
      "quemment": 8230,
      "oul": 8231,
      "dénommé": 8232,
      "sections": 8233,
      "réno": 8234,
      "réels": 8235,
      "rétro": 8236,
      "révè": 8237,
      "réadmission": 8238,
      "procla": 8239,
      "cible": 8240,
      "cesser": 8241,
      "usine": 8242,
      "excel": 8243,
      "exhor": 8244,
      "fortes": 8245,
      "mait": 8246,
      "authen": 8247,
      "abri": 8248,
      "positives": 8249,
      "mine": 8250,
      "endant": 8251,
      "consister": 8252,
      "intervenu": 8253,
      "perdu": 8254,
      "transporteur": 8255,
      "cénari": 8256,
      "géré": 8257,
      "donnant": 8258,
      "possé": 8259,
      "devons": 8260,
      "évit": 8261,
      "montagne": 8262,
      "naissance": 8263,
      "tisme": 8264,
      "aliste": 8265,
      "spéciales": 8266,
      "phas": 8267,
      "publications": 8268,
      "pesant": 8269,
      "négatif": 8270,
      "signe": 8271,
      "connaissent": 8272,
      "normal": 8273,
      "rechercher": 8274,
      "1605": 8275,
      "131": 8276,
      "exister": 8277,
      "planète": 8278,
      "conclut": 8279,
      "bélarus": 8280,
      "essence": 8281,
      "équipés": 8282,
      "débar": 8283,
      "coûte": 8284,
      "veillant": 8285,
      "facilité": 8286,
      "douanes": 8287,
      "espaces": 8288,
      "déterminant": 8289,
      "confusion": 8290,
      "sciences": 8291,
      "entraver": 8292,
      "solides": 8293,
      "Patri": 8294,
      "Ash": 8295,
      "Liber": 8296,
      "naturels": 8297,
      "embry": 8298,
      "acheter": 8299,
      "explications": 8300,
      "remplacée": 8301,
      "erreurs": 8302,
      "EUROP": 8303,
      "solvabilité": 8304,
      "anniversaire": 8305,
      "proportionnées": 8306,
      "matériels": 8307,
      "accompagnement": 8308,
      "africains": 8309,
      "progresser": 8310,
      "concilier": 8311,
      "sexuelles": 8312,
      "sexuels": 8313,
      "ressortissant": 8314,
      "thématiques": 8315,
      "systémique": 8316,
      "athie": 8317,
      "contrairement": 8318,
      "impliqués": 8319,
      "classement": 8320,
      "agréé": 8321,
      "obtenues": 8322,
      "Ouz": 8323,
      "pilote": 8324,
      "insuffisant": 8325,
      "méditerranéenne": 8326,
      "raisonnables": 8327,
      "éthique": 8328,
      "éthiques": 8329,
      "syndic": 8330,
      "Herman": 8331,
      "médicale": 8332,
      "spécialisées": 8333,
      "élor": 8334,
      "urbaines": 8335,
      "optimale": 8336,
      "sectorielles": 8337,
      "Transports": 8338,
      "Merco": 8339,
      "rapprocher": 8340,
      "afférentes": 8341,
      "chauffage": 8342,
      "Madrid": 8343,
      "biocide": 8344,
      "Atlantique": 8345,
      "sportives": 8346,
      "excédent": 8347,
      "bureaucra": 8348,
      "réussite": 8349,
      "énumérés": 8350,
      "copie": 8351,
      "remarquer": 8352,
      "endet": 8353,
      "signataires": 8354,
      "admissible": 8355,
      "adhérer": 8356,
      "arbitraire": 8357,
      "Claude": 8358,
      "atmosphé": 8359,
      "Suivre": 8360,
      "pédiatri": 8361,
      "armements": 8362,
      "détérioration": 8363,
      "Réponse": 8364,
      "taxation": 8365,
      "dollars": 8366,
      "parfaitement": 8367,
      "Alexan": 8368,
      "olymp": 8369,
      "Albanie": 8370,
      "Francesco": 8371,
      "cosmétiques": 8372,
      "LÉGIS": 8373,
      "Même": 8374,
      "uranium": 8375,
      "3G": 8376,
      "400": 8377,
      "Ath": 8378,
      "Actions": 8379,
      "Aide": 8380,
      "Bor": 8381,
      "Bah": 8382,
      "Culture": 8383,
      "Eras": 8384,
      "Flor": 8385,
      "Ke": 8386,
      "OU": 8387,
      "Pers": 8388,
      "Plu": 8389,
      "RN": 8390,
      "Rencontre": 8391,
      "STI": 8392,
      "Tan": 8393,
      "XL": 8394,
      "aw": 8395,
      "ctes": 8396,
      "cèlement": 8397,
      "efs": 8398,
      "fo": 8399,
      "fou": 8400,
      "gh": 8401,
      "itions": 8402,
      "idées": 8403,
      "nait": 8404,
      "py": 8405,
      "roi": 8406,
      "sché": 8407,
      "scénari": 8408,
      "yougoslave": 8409,
      "ÉEN": 8410,
      "Énergie": 8411,
      "ïs": 8412,
      "deviennent": 8413,
      "urban": 8414,
      "entré": 8415,
      "dénomination": 8416,
      "parole": 8417,
      "dict": 8418,
      "chée": 8419,
      "astre": 8420,
      "assemblée": 8421,
      "agi": 8422,
      "ria": 8423,
      "rière": 8424,
      "terie": 8425,
      "exoné": 8426,
      "extré": 8427,
      "mber": 8428,
      "apporte": 8429,
      "apporté": 8430,
      "présidé": 8431,
      "préalablement": 8432,
      "manou": 8433,
      "soutenue": 8434,
      "endro": 8435,
      "gements": 8436,
      "ions": 8437,
      "ordanie": 8438,
      "ordinaires": 8439,
      "transmise": 8440,
      "transmises": 8441,
      "transmissi": 8442,
      "lose": 8443,
      "gravité": 8444,
      "comptabilité": 8445,
      "produite": 8446,
      "valable": 8447,
      "persist": 8448,
      "biomasse": 8449,
      "rendue": 8450,
      "utilisent": 8451,
      "utilisateur": 8452,
      "tentatives": 8453,
      "101": 8454,
      "placé": 8455,
      "estimant": 8456,
      "médiation": 8457,
      "engins": 8458,
      "aries": 8459,
      "organisées": 8460,
      "champs": 8461,
      "amende": 8462,
      "renforce": 8463,
      "pêches": 8464,
      "138": 8465,
      "hémicycle": 8466,
      "probablement": 8467,
      "pouvait": 8468,
      "différend": 8469,
      "Ange": 8470,
      "négocié": 8471,
      "instruction": 8472,
      "rouge": 8473,
      "réglementé": 8474,
      "appliquant": 8475,
      "garet": 8476,
      "gamme": 8477,
      "recen": 8478,
      "occuper": 8479,
      "autorisant": 8480,
      "conducteur": 8481,
      "Représentant": 8482,
      "ARD": 8483,
      "innov": 8484,
      "primant": 8485,
      "mentionner": 8486,
      "contrôleur": 8487,
      "amas": 8488,
      "relevé": 8489,
      "lettres": 8490,
      "complété": 8491,
      "collectivités": 8492,
      "victime": 8493,
      "naturelle": 8494,
      "semblent": 8495,
      "régulières": 8496,
      "malta": 8497,
      "saisie": 8498,
      "formuler": 8499,
      "ambassa": 8500,
      "afghan": 8501,
      "jugement": 8502,
      "azote": 8503,
      "manquement": 8504,
      "délivrés": 8505,
      "siècle": 8506,
      "minute": 8507,
      "thérap": 8508,
      "tarification": 8509,
      "validation": 8510,
      "boissons": 8511,
      "attentes": 8512,
      "Luis": 8513,
      "stricte": 8514,
      "fréquemment": 8515,
      "insuffisante": 8516,
      "Chambre": 8517,
      "opérationnels": 8518,
      "AEM": 8519,
      "dégâts": 8520,
      "cipation": 8521,
      "revêtent": 8522,
      "traditionnelles": 8523,
      "ultérieurement": 8524,
      "spécialisés": 8525,
      "Européenne": 8526,
      "approuvées": 8527,
      "inscrites": 8528,
      "améliorant": 8529,
      "commencer": 8530,
      "portuaire": 8531,
      "morale": 8532,
      "correction": 8533,
      "fréquence": 8534,
      "automatiquement": 8535,
      "privilèges": 8536,
      "occupation": 8537,
      "Christa": 8538,
      "propriétaire": 8539,
      "maternelle": 8540,
      "BUD": 8541,
      "fossiles": 8542,
      "multiplication": 8543,
      "policière": 8544,
      "PNR": 8545,
      "rencontrés": 8546,
      "divulgation": 8547,
      "déséquilibres": 8548,
      "standard": 8549,
      "crucial": 8550,
      "Contrôle": 8551,
      "Erik": 8552,
      "échantillon": 8553,
      "propag": 8554,
      "Michael": 8555,
      "hôpit": 8556,
      "papier": 8557,
      "Frontex": 8558,
      "éloig": 8559,
      "LATIVE": 8560,
      "halieutiques": 8561,
      "glomé": 8562,
      "démonstration": 8563,
      "bélarussi": 8564,
      "EUROPÉEN": 8565,
      "Mercosur": 8566,
      "LÉGISLATIVE": 8567,
      "%)": 8568,
      "600": 8569,
      "Ah": 8570,
      "Bus": 8571,
      "Camb": 8572,
      "Ev": 8573,
      "Gert": 8574,
      "IF": 8575,
      "IL": 8576,
      "Im": 8577,
      "Ki": 8578,
      "Kir": 8579,
      "NP": 8580,
      "Na": 8581,
      "Sw": 8582,
      "sang": 8583,
      "vite": 8584,
      "tium": 8585,
      "devenue": 8586,
      "angu": 8587,
      "levé": 8588,
      "lam": 8589,
      "reux": 8590,
      "reprend": 8591,
      "inon": 8592,
      "invo": 8593,
      "ettes": 8594,
      "desquelles": 8595,
      "potable": 8596,
      "race": 8597,
      "consu": 8598,
      "conférences": 8599,
      "ceci": 8600,
      "délit": 8601,
      "ilu": 8602,
      "taient": 8603,
      "révisé": 8604,
      "références": 8605,
      "réchauff": 8606,
      "ung": 8607,
      "opposer": 8608,
      "cies": 8609,
      "chées": 8610,
      "chanti": 8611,
      "tron": 8612,
      "sure": 8613,
      "survenus": 8614,
      "assi": 8615,
      "riculture": 8616,
      "virus": 8617,
      "peines": 8618,
      "forcé": 8619,
      "coopéra": 8620,
      "coïn": 8621,
      "insister": 8622,
      "tuber": 8623,
      "pée": 8624,
      "partiel": 8625,
      "consenti": 8626,
      "licites": 8627,
      "interpr": 8628,
      "lisée": 8629,
      "états": 8630,
      "fonder": 8631,
      "fondement": 8632,
      "décrit": 8633,
      "ller": 8634,
      "développements": 8635,
      "nuire": 8636,
      "personnalité": 8637,
      "brefs": 8638,
      "utilisations": 8639,
      "procédés": 8640,
      "Quant": 8641,
      "106": 8642,
      "plafonds": 8643,
      "contro": 8644,
      "carcé": 8645,
      "répondant": 8646,
      "médical": 8647,
      "PEV": 8648,
      "garantit": 8649,
      "invitent": 8650,
      "lève": 8651,
      "amendes": 8652,
      "communiqué": 8653,
      "déclarée": 8654,
      "160": 8655,
      "contradiction": 8656,
      "annulation": 8657,
      "équipage": 8658,
      "réglementer": 8659,
      "SES": 8660,
      "cker": 8661,
      "objets": 8662,
      "RANT": 8663,
      "animales": 8664,
      "harcèlement": 8665,
      "OMI": 8666,
      "ajout": 8667,
      "rendant": 8668,
      "désarmement": 8669,
      "Jose": 8670,
      "collectif": 8671,
      "morts": 8672,
      "préparatoires": 8673,
      "exercent": 8674,
      "Algé": 8675,
      "vérifie": 8676,
      "structurelle": 8677,
      "engagent": 8678,
      "documentation": 8679,
      "handicapés": 8680,
      "Costa": 8681,
      "avions": 8682,
      "situé": 8683,
      "couvrent": 8684,
      "ENVI": 8685,
      "exprimées": 8686,
      "attaquer": 8687,
      "landaises": 8688,
      "comparable": 8689,
      "ECON": 8690,
      "radioactifs": 8691,
      "découlent": 8692,
      "correspondants": 8693,
      "fabriqués": 8694,
      "provoquer": 8695,
      "contraignants": 8696,
      "vini": 8697,
      "agréés": 8698,
      "faute": 8699,
      "neutra": 8700,
      "visibles": 8701,
      "chaînes": 8702,
      "chose": 8703,
      "Elmar": 8704,
      "iraki": 8705,
      "pluriannuels": 8706,
      "journaliste": 8707,
      "complexité": 8708,
      "délégué": 8709,
      "UNI": 8710,
      "additifs": 8711,
      "CONSI": 8712,
      "alternatifs": 8713,
      "provisoires": 8714,
      "déficits": 8715,
      "appartenance": 8716,
      "macroéconomiques": 8717,
      "manifeste": 8718,
      "hydrocar": 8719,
      "éligibilité": 8720,
      "Palestine": 8721,
      "chinoises": 8722,
      "combinaison": 8723,
      "hypothèse": 8724,
      "Tibet": 8725,
      "Juan": 8726,
      "distorsion": 8727,
      "hongrois": 8728,
      "Philip": 8729,
      "législature": 8730,
      "Austra": 8731,
      "discuter": 8732,
      "forestiers": 8733,
      "recouvrement": 8734,
      "Helmut": 8735,
      "rayon": 8736,
      "divergences": 8737,
      "xénophobie": 8738,
      "œufs": 8739,
      "Azerbaïdjan": 8740,
      "Délégation": 8741,
      "adultes": 8742,
      "Johannes": 8743,
      "Trois": 8744,
      "revendi": 8745,
      "Développement": 8746,
      "pharmacovigilance": 8747,
      "Nigeria": 8748,
      "Giovanni": 8749,
      "phases": 8750,
      "Athènes": 8751,
      "Plusieurs": 8752,
      "réchauffement": 8753,
      "tubercu": 8754,
      "Air": 8755,
      "BO": 8756,
      "BXL": 8757,
      "GR": 8758,
      "Gon": 8759,
      "Gros": 8760,
      "Hélè": 8761,
      "IX": 8762,
      "Jeu": 8763,
      "Ly": 8764,
      "NA": 8765,
      "Pla": 8766,
      "Pet": 8767,
      "Pol": 8768,
      "SÉ": 8769,
      "Sán": 8770,
      "Tam": 8771,
      "Uti": 8772,
      "Wal": 8773,
      "York": 8774,
      "ains": 8775,
      "aqua": 8776,
      "bag": 8777,
      "bour": 8778,
      "cend": 8779,
      "cía": 8780,
      "dor": 8781,
      "dités": 8782,
      "far": 8783,
      "kh": 8784,
      "mè": 8785,
      "mène": 8786,
      "pis": 8787,
      "rares": 8788,
      "vég": 8789,
      "zo": 8790,
      "zá": 8791,
      "âle": 8792,
      "èvre": 8793,
      "ör": 8794,
      "ür": 8795,
      "deurs": 8796,
      "lez": 8797,
      "leader": 8798,
      "revenir": 8799,
      "revient": 8800,
      "inévit": 8801,
      "etna": 8802,
      "ity": 8803,
      "armé": 8804,
      "posera": 8805,
      "rales": 8806,
      "duction": 8807,
      "teborg": 8808,
      "déposer": 8809,
      "dénomm": 8810,
      "dépassent": 8811,
      "réd": 8812,
      "réelles": 8813,
      "dictions": 8814,
      "ciens": 8815,
      "chu": 8816,
      "meu": 8817,
      "ell": 8818,
      "trer": 8819,
      "usz": 8820,
      "fibres": 8821,
      "pere": 8822,
      "exporta": 8823,
      "aptitude": 8824,
      "apportent": 8825,
      "suprê": 8826,
      "matur": 8827,
      "prélimin": 8828,
      "manda": 8829,
      "avance": 8830,
      "distil": 8831,
      "visites": 8832,
      "Univers": 8833,
      "droite": 8834,
      "interdite": 8835,
      "ctés": 8836,
      "vendus": 8837,
      "empre": 8838,
      "comptable": 8839,
      "CEDH": 8840,
      "vateur": 8841,
      "isses": 8842,
      "TEN": 8843,
      "créant": 8844,
      "créée": 8845,
      "plas": 8846,
      "versée": 8847,
      "respectives": 8848,
      "estimation": 8849,
      "maisons": 8850,
      "European": 8851,
      "substitu": 8852,
      "évalue": 8853,
      "fonctionne": 8854,
      "logici": 8855,
      "journa": 8856,
      "contraires": 8857,
      "justifiées": 8858,
      "profiter": 8859,
      "joindre": 8860,
      "feront": 8861,
      "békistan": 8862,
      "impôts": 8863,
      "limit": 8864,
      "mondiales": 8865,
      "associant": 8866,
      "doutes": 8867,
      "personnels": 8868,
      "Relations": 8869,
      "effectue": 8870,
      "valuation": 8871,
      "valoris": 8872,
      "ARY": 8873,
      "globales": 8874,
      "appelant": 8875,
      "appellent": 8876,
      "useppe": 8877,
      "Life": 8878,
      "Estime": 8879,
      "informée": 8880,
      "correspondent": 8881,
      "entraînant": 8882,
      "prête": 8883,
      "hauts": 8884,
      "côte": 8885,
      "réside": 8886,
      "APD": 8887,
      "concrètement": 8888,
      "troubles": 8889,
      "consacrer": 8890,
      "Monica": 8891,
      "mutuel": 8892,
      "arrivée": 8893,
      "Giuseppe": 8894,
      "thématique": 8895,
      "Direct": 8896,
      "AIEA": 8897,
      "portables": 8898,
      "atho": 8899,
      "individuelles": 8900,
      "Accès": 8901,
      "attentats": 8902,
      "voudrait": 8903,
      "choses": 8904,
      "extrême": 8905,
      "exceptionnels": 8906,
      "dégager": 8907,
      "indemnité": 8908,
      "incombent": 8909,
      "événement": 8910,
      "envoyer": 8911,
      "souffrant": 8912,
      "Karl": 8913,
      "susmentionnés": 8914,
      "téléphones": 8915,
      "demeurer": 8916,
      "redevance": 8917,
      "assortie": 8918,
      "sûrs": 8919,
      "historiques": 8920,
      "DÉRANT": 8921,
      "apparition": 8922,
      "sportifs": 8923,
      "licenciements": 8924,
      "scolaire": 8925,
      "remplissent": 8926,
      "Certaines": 8927,
      "calculée": 8928,
      "acier": 8929,
      "révélé": 8930,
      "Aussi": 8931,
      "possède": 8932,
      "offertes": 8933,
      "Renfor": 8934,
      "bilatéral": 8935,
      "supprimé": 8936,
      "machine": 8937,
      "Bernd": 8938,
      "slova": 8939,
      "décennies": 8940,
      "primordial": 8941,
      "acquitter": 8942,
      "perpét": 8943,
      "gagner": 8944,
      "problématique": 8945,
      "refléter": 8946,
      "Budget": 8947,
      "diagnos": 8948,
      "Caucase": 8949,
      "indésirables": 8950,
      "Göteborg": 8951,
      "Ioan": 8952,
      "Ouzbékistan": 8953,
      "CONSIDÉRANT": 8954,
      "hydrocarbures": 8955,
      "Australie": 8956,
      "Hélène": 8957,
      "Jeudi": 8958,
      "végéta": 8959,
      "Ara": 8960,
      "Bâle": 8961,
      "Camp": 8962,
      "Don": 8963,
      "Eg": 8964,
      "Mag": 8965,
      "Pap": 8966,
      "Seu": 8967,
      "Ve": 8968,
      "bus": 8969,
      "blo": 8970,
      "bille": 8971,
      "cf": 8972,
      "clos": 8973,
      "df": 8974,
      "dilu": 8975,
      "gs": 8976,
      "gin": 8977,
      "horaires": 8978,
      "ido": 8979,
      "otage": 8980,
      "sk": 8981,
      "élus": 8982,
      "engra": 8983,
      "retenue": 8984,
      "reconstitution": 8985,
      "reposant": 8986,
      "relancer": 8987,
      "indirecte": 8988,
      "indirects": 8989,
      "itres": 8990,
      "armées": 8991,
      "omètre": 8992,
      "conven": 8993,
      "concession": 8994,
      "concessions": 8995,
      "liaisons": 8996,
      "détection": 8997,
      "délibé": 8998,
      "optique": 8999,
      "oppose": 9000,
      "div": 9001,
      "cigaret": 9002,
      "chard": 9003,
      "pourparler": 9004,
      "auxili": 9005,
      "agent": 9006,
      "agisse": 9007,
      "viv": 9008,
      "viable": 9009,
      "exacte": 9010,
      "suis": 9011,
      "aboli": 9012,
      "imer": 9013,
      "sév": 9014,
      "touche": 9015,
      "paci": 9016,
      "Parallè": 9017,
      "mari": 9018,
      "décri": 9019,
      "vocation": 9020,
      "transformés": 9021,
      "mette": 9022,
      "chemin": 9023,
      "dotée": 9024,
      "sah": 9025,
      "génoci": 9026,
      "CES": 9027,
      "persistance": 9028,
      "jeune": 9029,
      "utilité": 9030,
      "rapportant": 9031,
      "mono": 9032,
      "monie": 9033,
      "noms": 9034,
      "biomé": 9035,
      "cam": 9036,
      "longueur": 9037,
      "rendues": 9038,
      "créent": 9039,
      "gardi": 9040,
      "igh": 9041,
      "ignant": 9042,
      "organiques": 9043,
      "blessés": 9044,
      "publie": 9045,
      "Qui": 9046,
      "chercher": 9047,
      "génétique": 9048,
      "prescription": 9049,
      "lantiques": 9050,
      "libellé": 9051,
      "spécialement": 9052,
      "phère": 9053,
      "151": 9054,
      "121": 9055,
      "stations": 9056,
      "pêcher": 9057,
      "Chapitre": 9058,
      "formelle": 9059,
      "Indoné": 9060,
      "probable": 9061,
      "initial": 9062,
      "assis": 9063,
      "emploie": 9064,
      "réglementées": 9065,
[...]
